{
  "version": "1.0",
  "truncation": null,
  "padding": {
    "strategy": "BatchLongest",
    "direction": "Right",
    "pad_to_multiple_of": null,
    "pad_id": 2,
    "pad_type_id": 0,
    "pad_token": "[pad]"
  },
  "added_tokens": [
    {
      "id": 0,
      "content": "[start]",
      "single_word": false,
      "lstrip": false,
      "rstrip": false,
      "normalized": false,
      "special": true
    },
    {
      "id": 1,
      "content": "[end]",
      "single_word": false,
      "lstrip": false,
      "rstrip": false,
      "normalized": false,
      "special": true
    },
    {
      "id": 2,
      "content": "[pad]",
      "single_word": false,
      "lstrip": false,
      "rstrip": false,
      "normalized": false,
      "special": true
    }
  ],
  "normalizer": null,
  "pre_tokenizer": {
    "type": "ByteLevel",
    "add_prefix_space": true,
    "trim_offsets": true,
    "use_regex": true
  },
  "post_processor": null,
  "decoder": {
    "type": "ByteLevel",
    "add_prefix_space": true,
    "trim_offsets": true,
    "use_regex": true
  },
  "model": {
    "type": "BPE",
    "dropout": null,
    "unk_token": null,
    "continuing_subword_prefix": null,
    "end_of_word_suffix": null,
    "fuse_unk": false,
    "byte_fallback": false,
    "ignore_merges": false,
    "vocab": {
      "[start]": 0,
      "[end]": 1,
      "[pad]": 2,
      "!": 3,
      "\"": 4,
      "$": 5,
      "%": 6,
      "'": 7,
      "+": 8,
      ",": 9,
      "-": 10,
      ".": 11,
      "0": 12,
      "1": 13,
      "2": 14,
      "3": 15,
      "4": 16,
      "5": 17,
      "6": 18,
      "7": 19,
      "8": 20,
      "9": 21,
      ":": 22,
      ";": 23,
      "?": 24,
      "a": 25,
      "b": 26,
      "c": 27,
      "d": 28,
      "e": 29,
      "f": 30,
      "g": 31,
      "h": 32,
      "i": 33,
      "j": 34,
      "k": 35,
      "l": 36,
      "m": 37,
      "n": 38,
      "o": 39,
      "p": 40,
      "q": 41,
      "r": 42,
      "s": 43,
      "t": 44,
      "u": 45,
      "v": 46,
      "w": 47,
      "x": 48,
      "y": 49,
      "z": 50,
      "©": 51,
      "¬": 52,
      "¼": 53,
      "Ã": 54,
      "â": 55,
      "Ġ": 56,
      "Ģ": 57,
      "Ĥ": 58,
      "Ļ": 59,
      "Ġt": 60,
      "Ġi": 61,
      "he": 62,
      "Ġw": 63,
      "Ġa": 64,
      "Ġto": 65,
      "ou": 66,
      "Ġs": 67,
      "re": 68,
      "in": 69,
      "ha": 70,
      "Ġm": 71,
      "Ġd": 72,
      "Ġy": 73,
      "Ġyou": 74,
      "Ġthe": 75,
      "on": 76,
      "Ġb": 77,
      "ve": 78,
      "Ġc": 79,
      "Ġtom": 80,
      "Ġl": 81,
      "ing": 82,
      "ed": 83,
      "Ġf": 84,
      "an": 85,
      "is": 86,
      "ll": 87,
      "Ġp": 88,
      "or": 89,
      "hat": 90,
      "en": 91,
      "'t": 92,
      "Ġhe": 93,
      "er": 94,
      "Ġn": 95,
      "Ġg": 96,
      "ar": 97,
      "Ġh": 98,
      "Ġha": 99,
      "Ġis": 100,
      "as": 101,
      "ow": 102,
      "Ġth": 103,
      "es": 104,
      "Ġdo": 105,
      "at": 106,
      "Ġo": 107,
      "om": 108,
      "et": 109,
      "it": 110,
      "Ġwe": 111,
      "Ġin": 112,
      "Ġit": 113,
      "Ġthat": 114,
      "Ġe": 115,
      "ot": 116,
      "ay": 117,
      "id": 118,
      "Ġbe": 119,
      "ld": 120,
      "'s": 121,
      "Ġan": 122,
      "le": 123,
      "st": 124,
      "ver": 125,
      "ke": 126,
      "Ġme": 127,
      "Ġof": 128,
      "Ġwas": 129,
      "Ġst": 130,
      "Ġhave": 131,
      "ic": 132,
      "oo": 133,
      "Ġu": 134,
      "Ġre": 135,
      "Ġli": 136,
      "Ġk": 137,
      "Ġthis": 138,
      "Ġon": 139,
      "Ġmy": 140,
      "gh": 141,
      "Ġdon": 142,
      "im": 143,
      "ould": 144,
      "Ġne": 145,
      "Ġfor": 146,
      "Ġcan": 147,
      "ant": 148,
      "se": 149,
      "Ġwhat": 150,
      "Ġare": 151,
      "ch": 152,
      "al": 153,
      "Ġdid": 154,
      "Ġgo": 155,
      "Ġkn": 156,
      "ri": 157,
      "Ġwh": 158,
      "out": 159,
      "ad": 160,
      "'m": 161,
      "ome": 162,
      "ght": 163,
      "Ġyour": 164,
      "ly": 165,
      "Ġwant": 166,
      "ary": 167,
      "Ġknow": 168,
      "ent": 169,
      "Ġnot": 170,
      "very": 171,
      "ac": 172,
      "ill": 173,
      "ro": 174,
      "ter": 175,
      "Ġmary": 176,
      "her": 177,
      "Ġlike": 178,
      "all": 179,
      "one": 180,
      "am": 181,
      "Ġshe": 182,
      "pp": 183,
      "'re": 184,
      "Ġwit": 185,
      "ut": 186,
      "Ġwith": 187,
      "Ġse": 188,
      "Ġat": 189,
      "Ġas": 190,
      "Ġj": 191,
      "ir": 192,
      "Ġhis": 193,
      "Ġsh": 194,
      "ion": 195,
      "ink": 196,
      "Ġsu": 197,
      "ook": 198,
      "hing": 199,
      "nd": 200,
      "Ġab": 201,
      "ust": 202,
      "Ġand": 203,
      "Ġwhe": 204,
      "Ġany": 205,
      "ain": 206,
      "Ġhow": 207,
      "'ve": 208,
      "ea": 209,
      "Ġthink": 210,
      "ost": 211,
      "Ġal": 212,
      "Ġtr": 213,
      "'ll": 214,
      "Ġthere": 215,
      "Ġr": 216,
      "ore": 217,
      "ur": 218,
      "Ġdidn": 219,
      "ce": 220,
      "Ġsp": 221,
      "Ġte": 222,
      "op": 223,
      "Ġwor": 224,
      "Ġhas": 225,
      "ct": 226,
      "Ġabout": 227,
      "ake": 228,
      "Ġpl": 229,
      "Ġso": 230,
      "Ġthey": 231,
      "Ġhere": 232,
      "end": 233,
      "Ġget": 234,
      "Ġall": 235,
      "Ġhim": 236,
      "Ġwill": 237,
      "ren": 238,
      "Ġno": 239,
      "ble": 240,
      "ood": 241,
      "Ġevery": 242,
      "Ġwho": 243,
      "han": 244,
      "us": 245,
      "ive": 246,
      "Ġdoes": 247,
      "Ġtim": 248,
      "Ġneed": 249,
      "Ġex": 250,
      "Ġlet": 251,
      "Ġus": 252,
      "il": 253,
      "Ġsa": 254,
      "un": 255,
      "Ġwould": 256,
      "Ġgoing": 257,
      "Ġout": 258,
      "red": 259,
      "ge": 260,
      "Ġwhy": 261,
      "Ġup": 262,
      "Ġlook": 263,
      "Ġsee": 264,
      "Ġcould": 265,
      "Ġvery": 266,
      "ally": 267,
      "Ġsome": 268,
      "Ġtime": 269,
      "art": 270,
      "ry": 271,
      "ul": 272,
      "Ġhad": 273,
      "day": 274,
      "ong": 275,
      "Ġfr": 276,
      "alk": 277,
      "ame": 278,
      "qu": 279,
      "ight": 280,
      "fe": 281,
      "dy": 282,
      "lp": 283,
      "ast": 284,
      "Ġhelp": 285,
      "Ġshould": 286,
      "Ġeat": 287,
      "est": 288,
      "Ġher": 289,
      "Ġhapp": 290,
      "ind": 291,
      "Ġwere": 292,
      "our": 293,
      "ree": 294,
      "ack": 295,
      "Ġfe": 296,
      "ice": 297,
      "and": 298,
      "Ġlo": 299,
      "ase": 300,
      "ate": 301,
      "ist": 302,
      "Ġif": 303,
      "Ġde": 304,
      "Ġone": 305,
      "Ġjust": 306,
      "thing": 307,
      "Ġch": 308,
      "ays": 309,
      "ought": 310,
      "ol": 311,
      "ie": 312,
      "Ġfrom": 313,
      "Ġtell": 314,
      "ear": 315,
      "Ġwork": 316,
      "Ġtoo": 317,
      "Ġman": 318,
      "Ġwhere": 319,
      "Ġbeen": 320,
      "own": 321,
      "Ġcome": 322,
      "ess": 323,
      "Ġnever": 324,
      "Ġqu": 325,
      "Ġwon": 326,
      "ers": 327,
      "Ġag": 328,
      "Ġcar": 329,
      "Ġthan": 330,
      "ak": 331,
      "Ġwhen": 332,
      "Ġgood": 333,
      "Ġaf": 334,
      "lf": 335,
      "Ġcom": 336,
      "Ġple": 337,
      "Ġcon": 338,
      "Ġen": 339,
      "ap": 340,
      "ss": 341,
      "Ġnow": 342,
      "'d": 343,
      "ish": 344,
      "ep": 345,
      "ound": 346,
      "Ġbost": 347,
      "Ġboston": 348,
      "Ġsom": 349,
      "Ġar": 350,
      "Ġpro": 351,
      "Ġtalk": 352,
      "other": 353,
      "Ġgot": 354,
      "ite": 355,
      "Ġdoesn": 356,
      "ody": 357,
      "Ġplease": 358,
      "ous": 359,
      "if": 360,
      "Ġby": 361,
      "Ġsomet": 362,
      "Ġhome": 363,
      "Ġco": 364,
      "ning": 365,
      "ort": 366,
      "ked": 367,
      "Ġmu": 368,
      "Ġstu": 369,
      "ig": 370,
      "Ġcl": 371,
      "Ġtold": 372,
      "Ġun": 373,
      "body": 374,
      "ation": 375,
      "Ġv": 376,
      "Ġreally": 377,
      "Ġint": 378,
      "Ġhappen": 379,
      "el": 380,
      "eak": 381,
      "Ġam": 382,
      "Ġback": 383,
      "Ġpe": 384,
      "Ġread": 385,
      "Ġlove": 386,
      "Ġisn": 387,
      "au": 388,
      "Ġro": 389,
      "row": 390,
      "Ġmore": 391,
      "Ġspeak": 392,
      "Ġsaid": 393,
      "ard": 394,
      "mp": 395,
      "Ġplay": 396,
      "Ġbut": 397,
      "Ġsomething": 398,
      "Ġthree": 399,
      "Ġmuch": 400,
      "Ġbu": 401,
      "Ġtake": 402,
      "Ġwat": 403,
      "Ġor": 404,
      "Ġpr": 405,
      "Ġnew": 406,
      "Ġle": 407,
      "Ġdr": 408,
      "ried": 409,
      "riend": 410,
      "Ġbook": 411,
      "mb": 412,
      "ag": 413,
      "Ġwr": 414,
      "Ġbus": 415,
      "Ġoff": 416,
      "Ġsay": 417,
      "ck": 418,
      "Ġri": 419,
      "Ġexp": 420,
      "ople": 421,
      "ather": 422,
      "Ġpeople": 423,
      "Ġfren": 424,
      "Ġfrench": 425,
      "Ġpre": 426,
      "ty": 427,
      "Ġsm": 428,
      "ine": 429,
      "ass": 430,
      "Ġanything": 431,
      "ild": 432,
      "Ġlot": 433,
      "Ġbr": 434,
      "self": 435,
      "ure": 436,
      "ick": 437,
      "nder": 438,
      "oney": 439,
      "hed": 440,
      "are": 441,
      "Ġday": 442,
      "Ġyear": 443,
      "th": 444,
      "Ġmoney": 445,
      "Ġour": 446,
      "Ġlong": 447,
      "Ġthought": 448,
      "ide": 449,
      "ect": 450,
      "ouse": 451,
      "Ġstart": 452,
      "Ġlea": 453,
      "Ġlive": 454,
      "Ġfriend": 455,
      "Ġjo": 456,
      "Ġke": 457,
      "Ġafter": 458,
      "ool": 459,
      "os": 460,
      "Ġtoday": 461,
      "Ġunder": 462,
      "ways": 463,
      "Ġagain": 464,
      "Ġalways": 465,
      "Ġmay": 466,
      "Ġhouse": 467,
      "Ġtw": 468,
      "Ġstill": 469,
      "nt": 470,
      "Ġlast": 471,
      "able": 472,
      "Ġmany": 473,
      "Ġmake": 474,
      "Ġad": 475,
      "Ġgive": 476,
      "ait": 477,
      "Ġbet": 478,
      "cc": 479,
      "Ġmad": 480,
      "Ġdown": 481,
      "Ġstay": 482,
      "urn": 483,
      "Ġright": 484,
      "Ġcall": 485,
      "Ġthing": 486,
      "orrow": 487,
      "ab": 488,
      "ting": 489,
      "Ġbel": 490,
      "Ġroom": 491,
      "ft": 492,
      "Ġbo": 493,
      "ther": 494,
      "Ġcomp": 495,
      "Ġwait": 496,
      "age": 497,
      "Ġwent": 498,
      "Ġmo": 499,
      "ving": 500,
      "Ġmust": 501,
      "Ġchild": 502,
      "Ġsch": 503,
      "ough": 504,
      "ang": 505,
      "Ġbl": 506,
      "Ġfa": 507,
      "ave": 508,
      "Ġdis": 509,
      "Ġonly": 510,
      "Ġplan": 511,
      "act": 512,
      "Ġop": 513,
      "Ġsw": 514,
      "Ġleave": 515,
      "Ġwanted": 516,
      "Ġdi": 517,
      "Ġfeel": 518,
      "Ġschool": 519,
      "ra": 520,
      "Ġsure": 521,
      "Ġapp": 522,
      "Ġchan": 523,
      "Ġdoing": 524,
      "Ġmade": 525,
      "Ġbuy": 526,
      "Ġtry": 527,
      "um": 528,
      "get": 529,
      "Ġleft": 530,
      "Ġold": 531,
      "Ġway": 532,
      "Ġtomorrow": 533,
      "Ġdog": 534,
      "fore": 535,
      "iss": 536,
      "Ġbefore": 537,
      "Ġpo": 538,
      "Ġwell": 539,
      "Ġgu": 540,
      "Ġrem": 541,
      "ved": 542,
      "Ġgr": 543,
      "der": 544,
      "ue": 545,
      "Ġhand": 546,
      "kes": 547,
      "Ġover": 548,
      "ace": 549,
      "read": 550,
      "itt": 551,
      "ts": 552,
      "ek": 553,
      "ity": 554,
      "Ġhar": 555,
      "ason": 556,
      "mber": 557,
      "Ġbec": 558,
      "Ġid": 559,
      "ose": 560,
      "Ġasked": 561,
      "Ġunderst": 562,
      "iz": 563,
      "Ġfl": 564,
      "Ġput": 565,
      "Ġweek": 566,
      "ict": 567,
      "ress": 568,
      "Ġsoon": 569,
      "Ġeverything": 570,
      "Ġtwo": 571,
      "ated": 572,
      "Ġbetter": 573,
      "Ġwasn": 574,
      "Ġbelie": 575,
      "Ġever": 576,
      "Ġcat": 577,
      "blem": 578,
      "Ġproblem": 579,
      "Ġaw": 580,
      "Ġstop": 581,
      "Ġlikes": 582,
      "Ġdrink": 583,
      "Ġpa": 584,
      "ach": 585,
      "Ġfin": 586,
      "Ġreason": 587,
      "Ġeve": 588,
      "Ġmeet": 589,
      "Ġunderstand": 590,
      "gry": 591,
      "Ġmar": 592,
      "Ġhop": 593,
      "xt": 594,
      "Ġinto": 595,
      "Ġimp": 596,
      "Ġcare": 597,
      "Ġfather": 598,
      "pt": 599,
      "Ġbelieve": 600,
      "Ġask": 601,
      "Ġsc": 602,
      "Ġother": 603,
      "Ġyears": 604,
      "Ġmor": 605,
      "Ġyes": 606,
      "Ġsle": 607,
      "Ġmon": 608,
      "ired": 609,
      "Ġthem": 610,
      "Ġhappy": 611,
      "Ġdec": 612,
      "Ġeveryone": 613,
      "ten": 614,
      "Ġwalk": 615,
      "ng": 616,
      "ise": 617,
      "ark": 618,
      "Ġsomeone": 619,
      "Ġbot": 620,
      "Ġear": 621,
      "Ġalread": 622,
      "estion": 623,
      "Ġalready": 624,
      "irst": 625,
      "Ġpol": 626,
      "Ġmorning": 627,
      "hes": 628,
      "ount": 629,
      "Ġpart": 630,
      "Ġten": 631,
      "terday": 632,
      "Ġyesterday": 633,
      "ful": 634,
      "ious": 635,
      "Ġhur": 636,
      "Ġsaw": 637,
      "Ġhappened": 638,
      "ies": 639,
      "Ġrain": 640,
      "ich": 641,
      "Ġdoor": 642,
      "Ġnothing": 643,
      "Ġopen": 644,
      "ull": 645,
      "Ġnext": 646,
      "Ġcouldn": 647,
      "Ġbusy": 648,
      "Ġchildren": 649,
      "Ġthese": 650,
      "Ġlist": 651,
      "Ġfind": 652,
      "Ġche": 653,
      "Ġlate": 654,
      "Ġkeep": 655,
      "Ġhat": 656,
      "Ġanyone": 657,
      "Ġeng": 658,
      "ile": 659,
      "Ġacc": 660,
      "Ġnight": 661,
      "Ġbre": 662,
      "Ġseem": 663,
      "Ġquestion": 664,
      "rest": 665,
      "Ġturn": 666,
      "ised": 667,
      "ence": 668,
      "sp": 669,
      "Ġcame": 670,
      "Ġused": 671,
      "Ġwatch": 672,
      "Ġreme": 673,
      "Ġbought": 674,
      "Ġdone": 675,
      "Ġwants": 676,
      "Ġknows": 677,
      "ire": 678,
      "Ġdri": 679,
      "Ġdif": 680,
      "Ġyet": 681,
      "Ġstud": 682,
      "Ġbad": 683,
      "Ġjob": 684,
      "Ġhard": 685,
      "aut": 686,
      "Ġmother": 687,
      "Ġlear": 688,
      "Ġfriends": 689,
      "Ġlost": 690,
      "Ġaren": 691,
      "Ġsur": 692,
      "Ġgl": 693,
      "ment": 694,
      "vor": 695,
      "Ġph": 696,
      "no": 697,
      "Ġfirst": 698,
      "sw": 699,
      "ans": 700,
      "Ġheard": 701,
      "Ġansw": 702,
      "Ġoften": 703,
      "Ġlitt": 704,
      "Ġidea": 705,
      "Ġremember": 706,
      "Ġlittle": 707,
      "les": 708,
      "Ġgre": 709,
      "Ġalone": 710,
      "ered": 711,
      "Ġfound": 712,
      "Ġcont": 713,
      "Ġsame": 714,
      "Ġhope": 715,
      "Ġsleep": 716,
      "Ġmet": 717,
      "ult": 718,
      "lish": 719,
      "Ġhour": 720,
      "Ġbeaut": 721,
      "gg": 722,
      "Ġuse": 723,
      "ew": 724,
      "Ġshow": 725,
      "akes": 726,
      "Ġlisten": 727,
      "irty": 728,
      "Ġtheir": 729,
      "Ġfam": 730,
      "Ġfood": 731,
      "Ġwouldn": 732,
      "Ġstudy": 733,
      "ia": 734,
      "Ġname": 735,
      "Ġatt": 736,
      "Ġenglish": 737,
      "Ġmat": 738,
      "Ġlooks": 739,
      "iful": 740,
      "Ġswim": 741,
      "Ġgave": 742,
      "Ġseen": 743,
      "Ġeating": 744,
      "Ġthings": 745,
      "ily": 746,
      "ually": 747,
      "Ġteac": 748,
      "Ġwrong": 749,
      "ffe": 750,
      "Ġgir": 751,
      "Ġaway": 752,
      "Ġbeautiful": 753,
      "Ġstr": 754,
      "Ġsing": 755,
      "Ġel": 756,
      "Ġlife": 757,
      "Ġaround": 758,
      "raid": 759,
      "Ġafraid": 760,
      "ible": 761,
      "og": 762,
      "Ġwish": 763,
      "Ġknew": 764,
      "Ġeverybody": 765,
      "Ġsl": 766,
      "Ġsit": 767,
      "Ġlooking": 768,
      "Ġinte": 769,
      "Ġwater": 770,
      "Ġboy": 771,
      "Ġcle": 772,
      "Ġhaven": 773,
      "Ġletter": 774,
      "Ġboth": 775,
      "Ġable": 776,
      "ctor": 777,
      "apan": 778,
      "be": 779,
      "Ġsn": 780,
      "Ġjapan": 781,
      "Ġtrain": 782,
      "Ġbreak": 783,
      "igh": 784,
      "Ġtried": 785,
      "Ġsec": 786,
      "ause": 787,
      "Ġteacher": 788,
      "ail": 789,
      "most": 790,
      "Ġfo": 791,
      "aught": 792,
      "Ġlearn": 793,
      "Ġmin": 794,
      "Ġhear": 795,
      "Ġalmost": 796,
      "Ġdes": 797,
      "Ġwithout": 798,
      "Ġtook": 799,
      "Ġstarted": 800,
      "ian": 801,
      "Ġpay": 802,
      "Ġpers": 803,
      "Ġangry": 804,
      "pped": 805,
      "Ġrun": 806,
      "Ġyoung": 807,
      "Ġbig": 808,
      "ited": 809,
      "Ġsho": 810,
      "Ġsupp": 811,
      "Ġnobody": 812,
      "Ġelse": 813,
      "Ġwonder": 814,
      "Ġenough": 815,
      "Ġstudent": 816,
      "Ġbrother": 817,
      "ip": 818,
      "ted": 819,
      "Ġgetting": 820,
      "Ġmarried": 821,
      "Ġmiss": 822,
      "Ġpass": 823,
      "Ġkill": 824,
      "Ġadv": 825,
      "Ġmind": 826,
      "ory": 827,
      "Ġcold": 828,
      "Ġfavor": 829,
      "Ġinterest": 830,
      "ner": 831,
      "Ġarri": 832,
      "Ġanswer": 833,
      "fic": 834,
      "ream": 835,
      "Ġready": 836,
      "Ġdied": 837,
      "Ġfew": 838,
      "Ġmeeting": 839,
      "ds": 840,
      "Ġtired": 841,
      "Ġbed": 842,
      "ank": 843,
      "Ġper": 844,
      "Ġtalking": 845,
      "Ġ\"": 846,
      "Ġsha": 847,
      "Ġmight": 848,
      "ister": 849,
      "ided": 850,
      "Ġeven": 851,
      "Ġparty": 852,
      "aw": 853,
      "aking": 854,
      "Ġcoffe": 855,
      "Ġbecause": 856,
      "ife": 857,
      "Ġwar": 858,
      "rents": 859,
      "Ġearly": 860,
      "Ġminut": 861,
      "Ġcoffee": 862,
      "ix": 863,
      "Ġdoctor": 864,
      "Ġeas": 865,
      "ident": 866,
      "Ġrep": 867,
      "Ġvis": 868,
      "Ġwin": 869,
      "ance": 870,
      "Ġinv": 871,
      "Ġanother": 872,
      "Ġbro": 873,
      "Ġbest": 874,
      "Ġlau": 875,
      "Ġpret": 876,
      "oy": 877,
      "side": 878,
      "Ġparents": 879,
      "lain": 880,
      "ret": 881,
      "Ġbir": 882,
      "ished": 883,
      "ative": 884,
      "Ġlooked": 885,
      "osed": 886,
      "Ġfun": 887,
      "Ġfull": 888,
      "Ġcount": 889,
      "ars": 890,
      "ath": 891,
      "Ġrec": 892,
      "Ġrest": 893,
      "Ġtrue": 894,
      "Ġexpect": 895,
      "Ġpolice": 896,
      "ell": 897,
      "ied": 898,
      "Ġbeing": 899,
      "Ġwhile": 900,
      "ustr": 901,
      "Ġshouldn": 902,
      "ign": 903,
      "Ġhands": 904,
      "Ġpain": 905,
      "Ġhimself": 906,
      "ci": 907,
      "Ġwind": 908,
      "Ġhot": 909,
      "ese": 910,
      "Ġyourself": 911,
      "Ġsmo": 912,
      "Ġfavorite": 913,
      "Ġaustr": 914,
      "ater": 915,
      "Ġkind": 916,
      "Ġaustral": 917,
      "Ġnice": 918,
      "Ġhun": 919,
      "noon": 920,
      "led": 921,
      "Ġsister": 922,
      "ves": 923,
      "orm": 924,
      "Ġbeg": 925,
      "Ġret": 926,
      "uth": 927,
      "Ġafternoon": 928,
      "Ġtenn": 929,
      "Ġgirl": 930,
      "Ġperson": 931,
      "Ġaustralia": 932,
      "pr": 933,
      "Ġ1": 934,
      "Ġthank": 935,
      "Ġtennis": 936,
      "Ġplaying": 937,
      "ize": 938,
      "ced": 939,
      "ince": 940,
      "Ġdecided": 941,
      "Ġsk": 942,
      "Ġmus": 943,
      "Ġseems": 944,
      "Ġown": 945,
      "Ġcook": 946,
      "Ġforg": 947,
      "ens": 948,
      "Ġstand": 949,
      "Ġwhich": 950,
      "Ġphone": 951,
      "Ġap": 952,
      "Ġprom": 953,
      "Ġgreat": 954,
      "Ġdin": 955,
      "Ġtrust": 956,
      "Ġbooks": 957,
      "li": 958,
      "mm": 959,
      "Ġneeds": 960,
      "gether": 961,
      "Ġhate": 962,
      "Ġhours": 963,
      "ared": 964,
      "ber": 965,
      "Ġtea": 966,
      "Ġmist": 967,
      "Ġtable": 968,
      "Ġtogether": 969,
      "Ġsto": 970,
      "ably": 971,
      "Ġey": 972,
      "Ġmov": 973,
      "fast": 974,
      "Ġac": 975,
      "ors": 976,
      "Ġho": 977,
      "Ġbreakfast": 978,
      "Ġsays": 979,
      "unch": 980,
      "Ġworking": 981,
      "Ġend": 982,
      "here": 983,
      "Ġlang": 984,
      "Ġforget": 985,
      "Ġsuch": 986,
      "Ġtruth": 987,
      "Ġworld": 988,
      "Ġvisit": 989,
      "Ġlangu": 990,
      "cle": 991,
      "Ġcha": 992,
      "ork": 993,
      "Ġdinner": 994,
      "ball": 995,
      "joy": 996,
      "Ġtv": 997,
      "Ġact": 998,
      "ons": 999,
      "Ġthose": 1000,
      "Ġmyself": 1001,
      "ions": 1002,
      "Ġenjoy": 1003,
      "Ġimport": 1004,
      "Ġmusic": 1005,
      "ged": 1006,
      "ys": 1007,
      "Ġcry": 1008,
      "Ġeach": 1009,
      "Ġkid": 1010,
      "Ġquite": 1011,
      "Ġminutes": 1012,
      "Ġtow": 1013,
      "Ġmil": 1014,
      "Ġcr": 1015,
      "Ġpict": 1016,
      "Ġdiffic": 1017,
      "Ġsurpr": 1018,
      "Ġfamily": 1019,
      "Ġpicture": 1020,
      "bably": 1021,
      "Ġser": 1022,
      "Ġplace": 1023,
      "Ġprobably": 1024,
      "Ġwrite": 1025,
      "Ġchange": 1026,
      "Ġmonth": 1027,
      "Ġdrive": 1028,
      "lo": 1029,
      "ange": 1030,
      "ord": 1031,
      "Ġres": 1032,
      "Ġdisc": 1033,
      "Ġfire": 1034,
      "Ġago": 1035,
      "night": 1036,
      "uck": 1037,
      "Ġmost": 1038,
      "Ġdays": 1039,
      "ond": 1040,
      "Ġwear": 1041,
      "feren": 1042,
      "Ġreading": 1043,
      "Ġmatter": 1044,
      "Ġsnow": 1045,
      "Ġwindow": 1046,
      "em": 1047,
      "Ġass": 1048,
      "more": 1049,
      "Ġmine": 1050,
      "ert": 1051,
      "Ġhigh": 1052,
      "Ġate": 1053,
      "Ġtele": 1054,
      "Ġwom": 1055,
      "Ġlunch": 1056,
      "Ġreal": 1057,
      "Ġclass": 1058,
      "Ġmonday": 1059,
      "king": 1060,
      "lt": 1061,
      "Ġsick": 1062,
      "Ġusually": 1063,
      "Ġmaybe": 1064,
      "Ġwaiting": 1065,
      "Ġarrived": 1066,
      "Ġsound": 1067,
      "Ġdress": 1068,
      "Ġonce": 1069,
      "Ġexact": 1070,
      "Ġtrying": 1071,
      "een": 1072,
      "Ġwife": 1073,
      "ital": 1074,
      "Ġkiss": 1075,
      "Ġanymore": 1076,
      "Ġspend": 1077,
      "ssible": 1078,
      "Ġdifficult": 1079,
      "fer": 1080,
      "Ġson": 1081,
      "Ġsince": 1082,
      "Ġnear": 1083,
      "Ġter": 1084,
      "Ġsat": 1085,
      "Ġpark": 1086,
      "Ġred": 1087,
      "Ġsomebody": 1088,
      "Ġfelt": 1089,
      "Ġoffice": 1090,
      "Ġsmall": 1091,
      "up": 1092,
      "uter": 1093,
      "alth": 1094,
      "Ġcomputer": 1095,
      "Ġhead": 1096,
      "Ġgone": 1097,
      "iet": 1098,
      "man": 1099,
      "ple": 1100,
      "where": 1101,
      "ision": 1102,
      "Ġhungry": 1103,
      "Ġimportant": 1104,
      "Ġair": 1105,
      "Ġfree": 1106,
      "Ġju": 1107,
      "Ġcoming": 1108,
      "anger": 1109,
      "Ġdifferen": 1110,
      "Ġsor": 1111,
      "Ġmom": 1112,
      "Ġfast": 1113,
      "Ġanybody": 1114,
      "Ġexc": 1115,
      "Ġclose": 1116,
      "Ġlives": 1117,
      "Ġfinished": 1118,
      "Ġhurt": 1119,
      "Ġexactly": 1120,
      "Ġve": 1121,
      "Ġfar": 1122,
      "Ġob": 1123,
      "Ġlight": 1124,
      "Ġarm": 1125,
      "Ġclean": 1126,
      "Ġeasy": 1127,
      "Ġsorry": 1128,
      "Ġent": 1129,
      "Ġdirty": 1130,
      "ison": 1131,
      "Ġspe": 1132,
      "less": 1133,
      "work": 1134,
      "Ġthirty": 1135,
      "Ġrel": 1136,
      "Ġflow": 1137,
      "Ġaccident": 1138,
      "Ġglad": 1139,
      "Ġpretty": 1140,
      "Ġforgot": 1141,
      "Ġeyes": 1142,
      "00": 1143,
      "air": 1144,
      "Ġbit": 1145,
      "used": 1146,
      "aper": 1147,
      "Ġtri": 1148,
      "Ġfore": 1149,
      "eric": 1150,
      "Ġinc": 1151,
      "iled": 1152,
      "Ġcoll": 1153,
      "ched": 1154,
      "pid": 1155,
      "int": 1156,
      "Ġcity": 1157,
      "Ġlater": 1158,
      "Ġpen": 1159,
      "ense": 1160,
      "als": 1161,
      "Ġtimes": 1162,
      "Ġcho": 1163,
      "Ġstupid": 1164,
      "Ġcalled": 1165,
      "Ġfeeling": 1166,
      "Ġturned": 1167,
      "Ġtonight": 1168,
      "Ġhealth": 1169,
      "Ġstation": 1170,
      "Ġsun": 1171,
      "Ġthinking": 1172,
      "Ġword": 1173,
      "Ġameric": 1174,
      "Ġsecret": 1175,
      "Ġmilk": 1176,
      "ches": 1177,
      "ger": 1178,
      "ience": 1179,
      "Ġ2": 1180,
      "Ġdie": 1181,
      "Ġdream": 1182,
      "Ġfish": 1183,
      "itic": 1184,
      "Ġweather": 1185,
      "Ġele": 1186,
      "ention": 1187,
      "Ġconc": 1188,
      "Ġhomework": 1189,
      "Ġadd": 1190,
      "Ġchanged": 1191,
      "Ġhurry": 1192,
      "Ġbroke": 1193,
      "Ġreturn": 1194,
      "az": 1195,
      "pe": 1196,
      "Ġtick": 1197,
      "Ġcor": 1198,
      "Ġcost": 1199,
      "cept": 1200,
      "Ġeaten": 1201,
      "Ġloc": 1202,
      "Ġquick": 1203,
      "Ġlaugh": 1204,
      "ying": 1205,
      "ouble": 1206,
      "ven": 1207,
      "Ġcut": 1208,
      "Ġgame": 1209,
      "Ġok": 1210,
      "Ġloves": 1211,
      "Ġbring": 1212,
      "Ġchance": 1213,
      "ax": 1214,
      "br": 1215,
      "ject": 1216,
      "sent": 1217,
      "oud": 1218,
      "Ġdark": 1219,
      "Ġnative": 1220,
      "Ġhaving": 1221,
      "Ġspo": 1222,
      "Ġunt": 1223,
      "Ġlonger": 1224,
      "osp": 1225,
      "iction": 1226,
      "Ġreasonable": 1227,
      "tle": 1228,
      "Ġthr": 1229,
      "Ġinter": 1230,
      "Ġmean": 1231,
      "Ġstory": 1232,
      "Ġsol": 1233,
      "uss": 1234,
      "Ġsafe": 1235,
      "Ġdead": 1236,
      "Ġwalked": 1237,
      "Ġglass": 1238,
      "Ġstudents": 1239,
      "app": 1240,
      "Ġdanger": 1241,
      "Ġpat": 1242,
      "Ġnu": 1243,
      "Ġdoll": 1244,
      "Ġemp": 1245,
      "Ġfell": 1246,
      "Ġagree": 1247,
      "Ġjapanese": 1248,
      ".\"": 1249,
      "ient": 1250,
      "Ġmakes": 1251,
      "Ġlar": 1252,
      "ating": 1253,
      "Ġwhether": 1254,
      "Ġquiet": 1255,
      "Ġquestions": 1256,
      "Ġsupposed": 1257,
      "Ġlanguage": 1258,
      "Ġtall": 1259,
      "Ġtest": 1260,
      "Ġwall": 1261,
      "Ġdiction": 1262,
      "Ġhair": 1263,
      "ets": 1264,
      "ote": 1265,
      "Ġworks": 1266,
      "Ġshoes": 1267,
      "Ġuntil": 1268,
      "Ġthrough": 1269,
      "ff": 1270,
      "ken": 1271,
      "iness": 1272,
      "Ġhosp": 1273,
      "Ġcomm": 1274,
      "Ġmovie": 1275,
      "ph": 1276,
      "Ġtou": 1277,
      "Ġmaking": 1278,
      "Ġbab": 1279,
      "Ġface": 1280,
      "Ġhor": 1281,
      "Ġoct": 1282,
      "Ġmove": 1283,
      "Ġserious": 1284,
      "Ġdictionary": 1285,
      "Ġhospital": 1286,
      "Ġtre": 1287,
      "Ġfive": 1288,
      "Ġhu": 1289,
      "Ġtrouble": 1290,
      "Ġran": 1291,
      "Ġneeded": 1292,
      "olog": 1293,
      "Ġsometim": 1294,
      "Ġinteresting": 1295,
      "ensive": 1296,
      "Ġstopped": 1297,
      "Ġtown": 1298,
      "Ġsurprised": 1299,
      "ming": 1300,
      "ober": 1301,
      "Ġfut": 1302,
      "vers": 1303,
      "Ġsell": 1304,
      "Ġgrand": 1305,
      "Ġbecame": 1306,
      "Ġpaid": 1307,
      "Ġoctober": 1308,
      "30": 1309,
      "ling": 1310,
      "Ġsong": 1311,
      "rect": 1312,
      "Ġstre": 1313,
      "Ġshown": 1314,
      "Ġshort": 1315,
      "Ġhelped": 1316,
      "Ġquit": 1317,
      "Ġexplain": 1318,
      "ized": 1319,
      "Ġfinish": 1320,
      "spect": 1321,
      "Ġfoot": 1322,
      "Ġsmoking": 1323,
      "sh": 1324,
      "so": 1325,
      "ub": 1326,
      "Ġfight": 1327,
      "Ġreg": 1328,
      "Ġliving": 1329,
      "Ġknown": 1330,
      "room": 1331,
      "Ġcons": 1332,
      "Ġbuild": 1333,
      "Ġexpensive": 1334,
      "Ġfuture": 1335,
      "per": 1336,
      "Ġbor": 1337,
      "Ġcaught": 1338,
      "itc": 1339,
      "adi": 1340,
      "ross": 1341,
      "irt": 1342,
      "Ġhasn": 1343,
      "Ġwhole": 1344,
      "unk": 1345,
      "ages": 1346,
      "Ġbox": 1347,
      "Ġevening": 1348,
      "Ġhold": 1349,
      "Ġterri": 1350,
      "Ġquickly": 1351,
      "Ġsent": 1352,
      "Ġcam": 1353,
      "Ġfig": 1354,
      "Ġwash": 1355,
      "Ġwhite": 1356,
      "Ġtrave": 1357,
      "ately": 1358,
      "Ġnews": 1359,
      "Ġolder": 1360,
      "Ġguess": 1361,
      "aur": 1362,
      "Ġbag": 1363,
      "llow": 1364,
      "ition": 1365,
      "Ġspent": 1366,
      "Ġclot": 1367,
      "Ġcomplain": 1368,
      "Ġblack": 1369,
      "Ġdisapp": 1370,
      "Ġinterested": 1371,
      "mmer": 1372,
      "Ġmoment": 1373,
      "ib": 1374,
      "ps": 1375,
      "Ġsal": 1376,
      "Ġcra": 1377,
      "Ġjack": 1378,
      "Ġkey": 1379,
      "Ġflo": 1380,
      "Ġcats": 1381,
      "Ġpolitic": 1382,
      "Ġstudying": 1383,
      "Ġinvited": 1384,
      "Ġrestaur": 1385,
      "Ġbegin": 1386,
      "like": 1387,
      "Ġrestaurant": 1388,
      "Ġdaught": 1389,
      "ash": 1390,
      "veral": 1391,
      "Ġseveral": 1392,
      "Ġconf": 1393,
      "Ġraining": 1394,
      "Ġslow": 1395,
      "Ġwoman": 1396,
      "Ġsometimes": 1397,
      "lic": 1398,
      "Ġim": 1399,
      "Ġill": 1400,
      "Ġsim": 1401,
      "Ġsix": 1402,
      "Ġfix": 1403,
      "Ġind": 1404,
      "Ġbeer": 1405,
      "Ġcand": 1406,
      "ames": 1407,
      "Ġsummer": 1408,
      "Ġstrange": 1409,
      "Ġfollow": 1410,
      "Ġkilled": 1411,
      "Ġbirth": 1412,
      "Ġflowers": 1413,
      "Ġnumber": 1414,
      "ely": 1415,
      "Ġwine": 1416,
      "Ġlaw": 1417,
      "Ġfact": 1418,
      "erg": 1419,
      "Ġhum": 1420,
      "Ġalso": 1421,
      "Ġrich": 1422,
      "Ġexam": 1423,
      "arth": 1424,
      "Ġdep": 1425,
      "Ġtalked": 1426,
      "Ġdollars": 1427,
      "dd": 1428,
      "ither": 1429,
      "icy": 1430,
      "Ġsub": 1431,
      "Ġoutside": 1432,
      "Ġwrit": 1433,
      "Ġprefer": 1434,
      "Ġdogs": 1435,
      "Ġcatch": 1436,
      "Ġcountry": 1437,
      "ces": 1438,
      "zy": 1439,
      "Ġes": 1440,
      "Ġcal": 1441,
      "Ġins": 1442,
      "Ġearth": 1443,
      "icked": 1444,
      "Ġworry": 1445,
      "fect": 1446,
      "Ġwatches": 1447,
      "Ġsmell": 1448,
      "Ġswe": 1449,
      "Ġpossible": 1450,
      "Ġwatching": 1451,
      "Ġadvice": 1452,
      "Ġapolog": 1453,
      "phone": 1454,
      "te": 1455,
      "Ġdro": 1456,
      "Ġless": 1457,
      "Ġinf": 1458,
      "Ġmeat": 1459,
      "ume": 1460,
      "Ġwearing": 1461,
      "Ġbaby": 1462,
      "Ġstreet": 1463,
      "by": 1464,
      "Ġcol": 1465,
      "any": 1466,
      "Ġlie": 1467,
      "Ġliked": 1468,
      "Ġtrans": 1469,
      "ived": 1470,
      "orts": 1471,
      "Ġunlike": 1472,
      "Ġlived": 1473,
      "Ġproblems": 1474,
      "Ġthanks": 1475,
      "Ġdifferent": 1476,
      "Ġunlikely": 1477,
      "ined": 1478,
      "Ġmed": 1479,
      "Ġthen": 1480,
      "vent": 1481,
      "Ġcup": 1482,
      "Ġhit": 1483,
      "ider": 1484,
      "Ġbeh": 1485,
      "ime": 1486,
      "Ġthinks": 1487,
      "Ġplayed": 1488,
      "Ġdrunk": 1489,
      "Ġlarge": 1490,
      "Ġdaughter": 1491,
      "ding": 1492,
      "ever": 1493,
      "hn": 1494,
      "rist": 1495,
      "ured": 1496,
      "Ġice": 1497,
      "Ġwound": 1498,
      "Ġset": 1499,
      "Ġsend": 1500,
      "Ġsense": 1501,
      "Ġmess": 1502,
      "Ġcur": 1503,
      "Ġluck": 1504,
      "Ġsugg": 1505,
      "Ġwords": 1506,
      "Ġbusiness": 1507,
      "cial": 1508,
      "Ġpromise": 1509,
      "Ġmistake": 1510,
      "Ġcrying": 1511,
      "Ġchoice": 1512,
      "Ġbuilding": 1513,
      "Ġclothes": 1514,
      "Ġbehind": 1515,
      "av": 1516,
      "ier": 1517,
      "let": 1518,
      "ual": 1519,
      "rew": 1520,
      "Ġgrow": 1521,
      "Ġyours": 1522,
      "Ġsund": 1523,
      "Ġsold": 1524,
      "ended": 1525,
      "Ġspeaks": 1526,
      "Ġprep": 1527,
      "Ġleaving": 1528,
      "Ġjohn": 1529,
      "Ġplanning": 1530,
      "Ġweekend": 1531,
      "Ġcareful": 1532,
      "Ġteach": 1533,
      "Ġempty": 1534,
      "Ġfigure": 1535,
      "Ġbirthday": 1536,
      "not": 1537,
      "ness": 1538,
      "Ġav": 1539,
      "Ġage": 1540,
      "Ġcake": 1541,
      "Ġhid": 1542,
      "Ġlibr": 1543,
      "Ġgoes": 1544,
      "Ġsucc": 1545,
      "Ġgets": 1546,
      "Ġallow": 1547,
      "Ġchrist": 1548,
      "Ġworked": 1549,
      "Ġwrote": 1550,
      "Ġsaying": 1551,
      "Ġriver": 1552,
      "Ġadm": 1553,
      "Ġfamous": 1554,
      "Ġkids": 1555,
      "Ġelect": 1556,
      "Ġsuccess": 1557,
      "cap": 1558,
      "dered": 1559,
      "fort": 1560,
      "lves": 1561,
      "med": 1562,
      "vel": 1563,
      "Ġegg": 1564,
      "Ġref": 1565,
      "Ġworried": 1566,
      "Ġspeaker": 1567,
      "Ġclear": 1568,
      "Ġrunning": 1569,
      "Ġbegan": 1570,
      "Ġfloor": 1571,
      "Ġlibrary": 1572,
      "eal": 1573,
      "gn": 1574,
      "ghed": 1575,
      "Ġtax": 1576,
      "Ġsign": 1577,
      "Ġdist": 1578,
      "ont": 1579,
      "Ġbri": 1580,
      "Ġbase": 1581,
      "ates": 1582,
      "ature": 1583,
      "selves": 1584,
      "Ġgolf": 1585,
      "Ġteam": 1586,
      "Ġcarry": 1587,
      "Ġcomes": 1588,
      "Ġexper": 1589,
      "Ġcompany": 1590,
      "Ġapple": 1591,
      "Ġgrad": 1592,
      "Ġdiscuss": 1593,
      "airs": 1594,
      "Ġdangerous": 1595,
      "Ġescap": 1596,
      "band": 1597,
      "ny": 1598,
      "ock": 1599,
      "port": 1600,
      "ru": 1601,
      "ract": 1602,
      "ud": 1603,
      "Ġimm": 1604,
      "Ġsad": 1605,
      "Ġsand": 1606,
      "Ġmen": 1607,
      "Ġpian": 1608,
      "pping": 1609,
      "usband": 1610,
      "Ġhappening": 1611,
      "Ġspeaking": 1612,
      "Ġprison": 1613,
      "Ġbelong": 1614,
      "Ġguit": 1615,
      "Ġopened": 1616,
      "Ġstrong": 1617,
      "Ġadvised": 1618,
      "Ġapart": 1619,
      "Ġticket": 1620,
      "Ġimag": 1621,
      "icycle": 1622,
      "ring": 1623,
      "vision": 1624,
      "ward": 1625,
      "Ġtree": 1626,
      "Ġtaking": 1627,
      "rell": 1628,
      "Ġbi": 1629,
      "Ġbath": 1630,
      "Ġcou": 1631,
      "erv": 1632,
      "Ġgard": 1633,
      "Ġhusband": 1634,
      "Ġconv": 1635,
      "ations": 1636,
      "Ġnewsp": 1637,
      "Ġfinally": 1638,
      "Ġswimming": 1639,
      "Ġdesk": 1640,
      "Ġterrible": 1641,
      "Ġcrazy": 1642,
      "Ġmedic": 1643,
      "bit": 1644,
      "hen": 1645,
      "Ġbicycle": 1646,
      "Ġinside": 1647,
      "Ġeight": 1648,
      "Ġumb": 1649,
      "Ġneigh": 1650,
      "ains": 1651,
      "Ġeats": 1652,
      "Ġart": 1653,
      "Ġvo": 1654,
      "Ġprot": 1655,
      "Ġfair": 1656,
      "Ġdrinking": 1657,
      "Ġattention": 1658,
      "Ġpassed": 1659,
      "Ġlaughed": 1660,
      "Ġaccept": 1661,
      "Ġassume": 1662,
      "Ġtelephone": 1663,
      "Ġguitar": 1664,
      "Ġgarden": 1665,
      "Ġumbrell": 1666,
      "Ġneighb": 1667,
      "?\"": 1668,
      "cil": 1669,
      "du": 1670,
      "gr": 1671,
      "mas": 1672,
      "Ġow": 1673,
      "Ġsy": 1674,
      "Ġborrow": 1675,
      "Ġlying": 1676,
      "Ġfour": 1677,
      "ishing": 1678,
      "ased": 1679,
      "leep": 1680,
      "Ġcannot": 1681,
      "Ġasleep": 1682,
      "Ġlose": 1683,
      "Ġchin": 1684,
      "Ġchur": 1685,
      "Ġguy": 1686,
      "Ġlistening": 1687,
      "Ġmonths": 1688,
      "Ġtelevision": 1689,
      "Ġaddress": 1690,
      "Ġborn": 1691,
      "Ġchristmas": 1692,
      "Ġsandw": 1693,
      "Ġpiano": 1694,
      "bed": 1695,
      "ned": 1696,
      "use": 1697,
      "vious": 1698,
      "ween": 1699,
      "Ġbill": 1700,
      "Ġfre": 1701,
      "Ġfly": 1702,
      "Ġpri": 1703,
      "Ġpur": 1704,
      "Ġheav": 1705,
      "Ġgun": 1706,
      "Ġhon": 1707,
      "Ġits": 1708,
      "ently": 1709,
      "Ġwhose": 1710,
      "iling": 1711,
      "ular": 1712,
      "Ġfront": 1713,
      "Ġdeath": 1714,
      "Ġorder": 1715,
      "Ġstarting": 1716,
      "Ġbetween": 1717,
      "Ġstayed": 1718,
      "Ġbottle": 1719,
      "Ġcheck": 1720,
      "Ġcontin": 1721,
      "Ġsecond": 1722,
      "lock": 1723,
      "Ġveget": 1724,
      "Ġtouch": 1725,
      "Ġcamer": 1726,
      "Ġchurch": 1727,
      "cess": 1728,
      "cked": 1729,
      "ric": 1730,
      "Ġdet": 1731,
      "Ġcap": 1732,
      "Ġpar": 1733,
      "Ġpun": 1734,
      "Ġgen": 1735,
      "Ġanim": 1736,
      "Ġstore": 1737,
      "Ġlied": 1738,
      "Ġcars": 1739,
      "aken": 1740,
      "Ġprice": 1741,
      "Ġkept": 1742,
      "Ġpoor": 1743,
      "Ġsleeping": 1744,
      "Ġpromised": 1745,
      "Ġchair": 1746,
      "Ġkissed": 1747,
      "Ġinform": 1748,
      "uit": 1749,
      "Ġtie": 1750,
      "Ġsil": 1751,
      "Ġside": 1752,
      "Ġdan": 1753,
      "Ġce": 1754,
      "Ġfill": 1755,
      "Ġfall": 1756,
      "Ġhang": 1757,
      "Ġrece": 1758,
      "enty": 1759,
      "ird": 1760,
      "Ġabs": 1761,
      "Ġspring": 1762,
      "Ġnoise": 1763,
      "Ġleg": 1764,
      "Ġjoin": 1765,
      "Ġkeys": 1766,
      "Ġagainst": 1767,
      "Ġsurv": 1768,
      "Ġhotel": 1769,
      "Ġcolle": 1770,
      "Ġbaseball": 1771,
      "Ġumbrella": 1772,
      "Ġign": 1773,
      "Ġsight": 1774,
      "Ġhalf": 1775,
      "Ġthough": 1776,
      "Ġbeach": 1777,
      "oose": 1778,
      "ceed": 1779,
      "Ġtemp": 1780,
      "Ġsocc": 1781,
      "Ġcoat": 1782,
      "Ġclosed": 1783,
      "Ġuncle": 1784,
      "Ġvac": 1785,
      "Ġorang": 1786,
      "aged": 1787,
      "Ġblue": 1788,
      "Ġplane": 1789,
      "Ġslept": 1790,
      "ully": 1791,
      "load": 1792,
      "Ġcorrect": 1793,
      "Ġjacket": 1794,
      "Ġcollege": 1795,
      "Ġsoccer": 1796,
      "Ġoranges": 1797,
      "iv": 1798,
      "ins": 1799,
      "inted": 1800,
      "Ġpop": 1801,
      "Ġpaper": 1802,
      "Ġheart": 1803,
      "Ġem": 1804,
      "Ġlikely": 1805,
      "Ġru": 1806,
      "Ġrid": 1807,
      "Ġrather": 1808,
      "Ġradi": 1809,
      "Ġworth": 1810,
      "ield": 1811,
      "lfriend": 1812,
      "Ġloved": 1813,
      "Ġpresent": 1814,
      "Ġfault": 1815,
      "itted": 1816,
      "Ġdecision": 1817,
      "Ġphot": 1818,
      "Ġgirlfriend": 1819,
      "Ġboys": 1820,
      "Ġperfect": 1821,
      "Ġreport": 1822,
      "Ġbroken": 1823,
      "Ġexpected": 1824,
      "Ġarmy": 1825,
      "Ġtrip": 1826,
      "Ġfootball": 1827,
      "Ġdisappo": 1828,
      "Ġsunday": 1829,
      "bt": 1830,
      "col": 1831,
      "fully": 1832,
      "ivers": 1833,
      "Ġtast": 1834,
      "Ġwed": 1835,
      "Ġmount": 1836,
      "Ġbank": 1837,
      "Ġpost": 1838,
      "Ġopp": 1839,
      "Ġweren": 1840,
      "Ġinst": 1841,
      "Ġstep": 1842,
      "Ġknife": 1843,
      "Ġseat": 1844,
      "Ġext": 1845,
      "Ġmoved": 1846,
      "Ġfailed": 1847,
      "Ġscared": 1848,
      "Ġothers": 1849,
      "Ġshowed": 1850,
      "Ġsupport": 1851,
      "Ġmovies": 1852,
      "Ġpencil": 1853,
      "Ġlaughing": 1854,
      "Ġtravel": 1855,
      "cer": 1856,
      "clock": 1857,
      "ef": 1858,
      "gar": 1859,
      "lan": 1860,
      "way": 1861,
      "ze": 1862,
      "oup": 1863,
      "vered": 1864,
      "Ġcour": 1865,
      "Ġemb": 1866,
      "Ġresp": 1867,
      "outh": 1868,
      "road": 1869,
      "Ġshirt": 1870,
      "Ġrul": 1871,
      "Ġfruit": 1872,
      "Ġdeal": 1873,
      "Ġproud": 1874,
      "Ġcomplet": 1875,
      "Ġappre": 1876,
      "Ġapples": 1877,
      "Ġasking": 1878,
      "Ġsitting": 1879,
      "Ġmissed": 1880,
      "Ġfunny": 1881,
      "Ġamerican": 1882,
      "Ġspoke": 1883,
      "Ġhorse": 1884,
      "Ġseriously": 1885,
      "Ġcandles": 1886,
      "Ġtransl": 1887,
      "Ġapartment": 1888,
      "ial": 1889,
      "reed": 1890,
      "Ġmur": 1891,
      "Ġfishing": 1892,
      "Ġpie": 1893,
      "Ġpick": 1894,
      "ots": 1895,
      "Ġkitc": 1896,
      "Ġsudd": 1897,
      "Ġalive": 1898,
      "Ġris": 1899,
      "Ġorange": 1900,
      "Ġdrank": 1901,
      "Ġboss": 1902,
      "Ġblame": 1903,
      "Ġplans": 1904,
      "Ġappro": 1905,
      "Ġlearning": 1906,
      "Ġbird": 1907,
      "ciate": 1908,
      "Ġmistakes": 1909,
      "Ġreturned": 1910,
      "Ġpatient": 1911,
      "Ġprotect": 1912,
      "Ġhonest": 1913,
      "Ġcamera": 1914,
      "Ġkitchen": 1915,
      "Ġsudden": 1916,
      "book": 1917,
      "cent": 1918,
      "eas": 1919,
      "father": 1920,
      "ky": 1921,
      "land": 1922,
      "oid": 1923,
      "ossible": 1924,
      "aster": 1925,
      "ower": 1926,
      "Ġeither": 1927,
      "Ġstood": 1928,
      "iced": 1929,
      "ache": 1930,
      "Ġabroad": 1931,
      "ored": 1932,
      "uring": 1933,
      "Ġdef": 1934,
      "Ġtelling": 1935,
      "Ġopin": 1936,
      "Ġbecome": 1937,
      "Ġimpossible": 1938,
      "Ġdriver": 1939,
      "Ġsitu": 1940,
      "Ġyounger": 1941,
      "Ġ19": 1942,
      "Ġspee": 1943,
      "Ġsimple": 1944,
      "Ġlawy": 1945,
      "Ġsuggest": 1946,
      "Ġeggs": 1947,
      "Ġnewspaper": 1948,
      "Ġvacation": 1949,
      "Ġradio": 1950,
      "lc": 1951,
      "mer": 1952,
      "ror": 1953,
      "Ġty": 1954,
      "Ġmid": 1955,
      "edi": 1956,
      "Ġfield": 1957,
      "Ġwelc": 1958,
      "iday": 1959,
      "Ġbeha": 1960,
      "Ġhappens": 1961,
      "Ġroad": 1962,
      "Ġoffer": 1963,
      "Ġdownload": 1964,
      "ables": 1965,
      "Ġwaited": 1966,
      "ressed": 1967,
      "Ġreasons": 1968,
      "Ġsmoke": 1969,
      "Ġenjoyed": 1970,
      "Ġjump": 1971,
      "Ġsolve": 1972,
      "Ġglasses": 1973,
      "Ġwriting": 1974,
      "Ġexperience": 1975,
      "Ġimmedi": 1976,
      "Ġsandwich": 1977,
      "Ġlawyer": 1978,
      "af": 1979,
      "cceed": 1980,
      "oke": 1981,
      "Ġir": 1982,
      "Ġdou": 1983,
      "Ġduring": 1984,
      "Ġpast": 1985,
      "erc": 1986,
      "Ġhol": 1987,
      "ics": 1988,
      "ical": 1989,
      "Ġsucceed": 1990,
      "Ġalong": 1991,
      "Ġra": 1992,
      "Ġsomewhere": 1993,
      "Ġdeep": 1994,
      "iew": 1995,
      "Ġbrought": 1996,
      "Ġtwice": 1997,
      "Ġdivor": 1998,
      "Ġstudied": 1999,
      "Ġlearned": 2000,
      "Ġdeser": 2001,
      "Ġbrothers": 2002,
      "Ġwinter": 2003,
      "Ġlanguages": 2004,
      "Ġactually": 2005,
      "Ġwomen": 2006,
      "Ġobvious": 2007,
      "Ġforeign": 2008,
      "Ġconsider": 2009,
      "Ġslowly": 2010,
      "cessary": 2011,
      "Ġspeech": 2012,
      "Ġimmediately": 2013,
      "fied": 2014,
      "Ġed": 2015,
      "Ġbar": 2016,
      "Ġbur": 2017,
      "Ġbread": 2018,
      "Ġcow": 2019,
      "Ġcop": 2020,
      "lled": 2021,
      "Ġstra": 2022,
      "Ġgod": 2023,
      "rol": 2024,
      "Ġseven": 2025,
      "Ġanywhere": 2026,
      "Ġsports": 2027,
      "cts": 2028,
      "Ġplant": 2029,
      "Ġnovel": 2030,
      "Ġpoint": 2031,
      "Ġevent": 2032,
      "Ġmarry": 2033,
      "Ġhardly": 2034,
      "Ġsky": 2035,
      "Ġforgive": 2036,
      "Ġacross": 2037,
      "Ġended": 2038,
      "Ġwounded": 2039,
      "co": 2040,
      "Ġdam": 2041,
      "Ġyell": 2042,
      "oned": 2043,
      "Ġca": 2044,
      "Ġlake": 2045,
      "Ġlend": 2046,
      "ator": 2047,
      "Ġrent": 2048,
      "Ġwhatever": 2049,
      "Ġgold": 2050,
      "ries": 2051,
      "Ġplays": 2052,
      "ili": 2053,
      "ilt": 2054,
      "Ġpract": 2055,
      "Ġleast": 2056,
      "cket": 2057,
      "Ġpres": 2058,
      "Ġsmiled": 2059,
      "itten": 2060,
      "irsty": 2061,
      "Ġattack": 2062,
      "Ġshopping": 2063,
      "Ġexcuse": 2064,
      "Ġcolor": 2065,
      "Ġmedicine": 2066,
      "Ġowe": 2067,
      "Ġanimals": 2068,
      "Ġinformation": 2069,
      "Ġrules": 2070,
      "Ġwood": 2071,
      "Ġball": 2072,
      "Ġcert": 2073,
      "Ġfired": 2074,
      "Ġpull": 2075,
      "Ġgas": 2076,
      "ask": 2077,
      "Ġthrew": 2078,
      "Ġmeant": 2079,
      "Ġform": 2080,
      "Ġcanad": 2081,
      "Ġgover": 2082,
      "Ġsugar": 2083,
      "ults": 2084,
      "Ġlos": 2085,
      "Ġenem": 2086,
      "Ġunivers": 2087,
      "Ġstaying": 2088,
      "Ġcalling": 2089,
      "Ġhurts": 2090,
      "Ġcontact": 2091,
      "gged": 2092,
      "Ġbirds": 2093,
      "Ġgirls": 2094,
      "Ġski": 2095,
      "Ġdifference": 2096,
      "Ġlocal": 2097,
      "Ġgrandfather": 2098,
      "Ġcalm": 2099,
      "Ġprepared": 2100,
      "Ġavoid": 2101,
      "Ġallowed": 2102,
      "Ġgradu": 2103,
      "Ġvegetables": 2104,
      "Ġwedding": 2105,
      "Ġsituation": 2106,
      "cy": 2107,
      "ee": 2108,
      "set": 2109,
      "Ġz": 2110,
      "Ġtakes": 2111,
      "Ġmouth": 2112,
      "Ġdance": 2113,
      "Ġpicked": 2114,
      "Ġweight": 2115,
      "ayed": 2116,
      "Ġmeans": 2117,
      "Ġstol": 2118,
      "Ġrequ": 2119,
      "Ġnecessary": 2120,
      "Ġforward": 2121,
      "seum": 2122,
      "ached": 2123,
      "ndred": 2124,
      "ush": 2125,
      "Ġseeing": 2126,
      "Ġaff": 2127,
      "Ġarrest": 2128,
      "Ġmuseum": 2129,
      "ument": 2130,
      "Ġguys": 2131,
      "Ġideas": 2132,
      "Ġweeks": 2133,
      "Ġsinging": 2134,
      "ogn": 2135,
      "Ġmissing": 2136,
      "Ġperm": 2137,
      "Ġminute": 2138,
      "Ġrecogn": 2139,
      "Ġhundred": 2140,
      "Ġregret": 2141,
      "Ġmessage": 2142,
      "Ġbike": 2143,
      "Ġgovern": 2144,
      "Ġstolen": 2145,
      "gu": 2146,
      "Ġwake": 2147,
      "Ġtoky": 2148,
      "Ġbat": 2149,
      "Ġcross": 2150,
      "Ġfat": 2151,
      "Ġfine": 2152,
      "ery": 2153,
      "Ġnone": 2154,
      "Ġthirsty": 2155,
      "Ġbeat": 2156,
      "Ġjail": 2157,
      "Ġfeed": 2158,
      "Ġdem": 2159,
      "Ġchoose": 2160,
      "olut": 2161,
      "Ġclock": 2162,
      "Ġblood": 2163,
      "Ġharder": 2164,
      "Ġcarefully": 2165,
      "Ġearli": 2166,
      "Ġchess": 2167,
      "ogr": 2168,
      "Ġexpecting": 2169,
      "Ġchar": 2170,
      "Ġsatis": 2171,
      "Ġ20": 2172,
      "Ġlocked": 2173,
      "Ġwallet": 2174,
      "Ġsmells": 2175,
      "Ġwelcome": 2176,
      "Ġdoubt": 2177,
      "Ġtokyo": 2178,
      "mother": 2179,
      "uri": 2180,
      "uro": 2181,
      "Ġought": 2182,
      "haps": 2183,
      "Ġdad": 2184,
      "Ġbody": 2185,
      "Ġburn": 2186,
      "Ġcried": 2187,
      "Ġfool": 2188,
      "Ġnerv": 2189,
      "arr": 2190,
      "arter": 2191,
      "Ġhide": 2192,
      "Ġthrow": 2193,
      "Ġev": 2194,
      "Ġeuro": 2195,
      "Ġstar": 2196,
      "ices": 2197,
      "Ġnotice": 2198,
      "Ġshut": 2199,
      "ustom": 2200,
      "Ġrice": 2201,
      "Ġexerc": 2202,
      "Ġsave": 2203,
      "Ġhelping": 2204,
      "Ġclim": 2205,
      "Ġamaz": 2206,
      "Ġposs": 2207,
      "Ġdrinks": 2208,
      "Ġwalking": 2209,
      "Ġaccord": 2210,
      "Ġdriving": 2211,
      "Ġarrive": 2212,
      "Ġperhaps": 2213,
      "Ġhandsome": 2214,
      "Ġsurprise": 2215,
      "Ġpictures": 2216,
      "Ġwindows": 2217,
      "Ġjuice": 2218,
      "Ġspecial": 2219,
      "Ġhealthy": 2220,
      "Ġconcert": 2221,
      "Ġdepend": 2222,
      "Ġapologize": 2223,
      "Ġcarrying": 2224,
      "Ġappreciate": 2225,
      "Ġsuddenly": 2226,
      "Ġcertain": 2227,
      "Ġuniversity": 2228,
      "Ġnervous": 2229,
      "ey": 2230,
      "oun": 2231,
      "Ġsqu": 2232,
      "Ġmis": 2233,
      "Ġmag": 2234,
      "Ġbother": 2235,
      "Ġcent": 2236,
      "Ġpiz": 2237,
      "Ġgames": 2238,
      "Ġocc": 2239,
      "Ġinno": 2240,
      "stem": 2241,
      "Ġmem": 2242,
      "Ġcance": 2243,
      "ade": 2244,
      "Ġnoticed": 2245,
      "Ġshop": 2246,
      "Ġsuit": 2247,
      "Ġsuitc": 2248,
      "Ġabsent": 2249,
      "eared": 2250,
      "urday": 2251,
      "isted": 2252,
      "istic": 2253,
      "ief": 2254,
      "aked": 2255,
      "Ġclos": 2256,
      "Ġexplan": 2257,
      "arely": 2258,
      "Ġscream": 2259,
      "Ġdecide": 2260,
      "Ġaccount": 2261,
      "Ġanswered": 2262,
      "Ġattend": 2263,
      "Ġcooking": 2264,
      "Ġdisco": 2265,
      "Ġdressed": 2266,
      "Ġsaturday": 2267,
      "Ġairport": 2268,
      "Ġsystem": 2269,
      "Ġchinese": 2270,
      "Ġgener": 2271,
      "Ġdisappointed": 2272,
      "Ġopinion": 2273,
      "Ġearlier": 2274,
      "Ġpizz": 2275,
      "cri": 2276,
      "dle": 2277,
      "time": 2278,
      "ug": 2279,
      "Ġsize": 2280,
      "rem": 2281,
      "Ġmach": 2282,
      "Ġcream": 2283,
      "Ġloud": 2284,
      "Ġpu": 2285,
      "Ġpot": 2286,
      "Ġpred": 2287,
      "Ġger": 2288,
      "Ġhabit": 2289,
      "iders": 2290,
      "Ġwaste": 2291,
      "oof": 2292,
      "Ġrespect": 2293,
      "Ġking": 2294,
      "Ġship": 2295,
      "Ġsusp": 2296,
      "Ġtraf": 2297,
      "Ġring": 2298,
      "Ġride": 2299,
      "rent": 2300,
      "Ġexag": 2301,
      "Ġagreed": 2302,
      "Ġcard": 2303,
      "itely": 2304,
      "ift": 2305,
      "Ġcoin": 2306,
      "Ġunfort": 2307,
      "Ġdraw": 2308,
      "Ġopt": 2309,
      "Ġimpro": 2310,
      "Ġcontrol": 2311,
      "Ġlistened": 2312,
      "Ġeasily": 2313,
      "Ġpretend": 2314,
      "Ġpainted": 2315,
      "Ġstole": 2316,
      "Ġsounds": 2317,
      "Ġentered": 2318,
      "Ġamerica": 2319,
      "Ġexplained": 2320,
      "Ġpolitician": 2321,
      "Ġsubject": 2322,
      "Ġbrief": 2323,
      "gram": 2324,
      "Ġheavy": 2325,
      "Ġembarr": 2326,
      "Ġeventually": 2327,
      "Ġexplanation": 2328,
      "Ġtraffic": 2329,
      "Ġexagger": 2330,
      "Ġunfortun": 2331,
      "Ġembarrass": 2332,
      "ians": 2333,
      "oard": 2334,
      "pose": 2335,
      "Ġma": 2336,
      "Ġmail": 2337,
      "Ġcre": 2338,
      "Ġcous": 2339,
      "Ġcrow": 2340,
      "Ġhey": 2341,
      "Ġheld": 2342,
      "erature": 2343,
      "Ġnames": 2344,
      "eth": 2345,
      "Ġweb": 2346,
      "Ġweird": 2347,
      "idence": 2348,
      "Ġste": 2349,
      "Ġyourselves": 2350,
      "ented": 2351,
      "Ġsuspect": 2352,
      "Ġworse": 2353,
      "ction": 2354,
      "Ġexha": 2355,
      "ility": 2356,
      "Ġstuff": 2357,
      "Ġplayer": 2358,
      "Ġbuilt": 2359,
      "mbers": 2360,
      "Ġgiven": 2361,
      "Ġflu": 2362,
      "Ġshar": 2363,
      "Ġwarm": 2364,
      "Ġstanding": 2365,
      "Ġeye": 2366,
      "Ġrealize": 2367,
      "Ġtrees": 2368,
      "Ġlucky": 2369,
      "Ġtaxi": 2370,
      "Ġrespons": 2371,
      "Ġpresident": 2372,
      "Ġgovernment": 2373,
      "Ġaccording": 2374,
      "Ġmachine": 2375,
      "cing": 2376,
      "ging": 2377,
      "ior": 2378,
      "iers": 2379,
      "rat": 2380,
      "Ġtaken": 2381,
      "Ġcase": 2382,
      "ened": 2383,
      "Ġinj": 2384,
      "Ġbeard": 2385,
      "ldom": 2386,
      "Ġreached": 2387,
      "Ġseldom": 2388,
      "Ġshot": 2389,
      "Ġspiders": 2390,
      "Ġplenty": 2391,
      "Ġallerg": 2392,
      "Ġexcept": 2393,
      "ists": 2394,
      "Ġprof": 2395,
      "Ġprogram": 2396,
      "Ġclub": 2397,
      "Ġvol": 2398,
      "Ġintro": 2399,
      "Ġfriendly": 2400,
      "Ġblind": 2401,
      "Ġhates": 2402,
      "Ġgreen": 2403,
      "ails": 2404,
      "Ġpainting": 2405,
      "Ġsisters": 2406,
      "Ġ10": 2407,
      "Ġrelax": 2408,
      "Ġgrandmother": 2409,
      "Ġsentence": 2410,
      "Ġcouple": 2411,
      "Ġvoice": 2412,
      "Ġfresh": 2413,
      "Ġpopular": 2414,
      "Ġmountain": 2415,
      "Ġstraight": 2416,
      "Ġafford": 2417,
      "ograp": 2418,
      "Ġsatisfied": 2419,
      "Ġeurope": 2420,
      "Ġpossib": 2421,
      "Ġgerman": 2422,
      "case": 2423,
      "friend": 2424,
      "gan": 2425,
      "gers": 2426,
      "Ġlin": 2427,
      "Ġland": 2428,
      "ato": 2429,
      "idge": 2430,
      "stairs": 2431,
      "aces": 2432,
      "amed": 2433,
      "Ġfeet": 2434,
      "ateful": 2435,
      "olved": 2436,
      "Ġvi": 2437,
      "Ġvide": 2438,
      "Ġlead": 2439,
      "Ġwritten": 2440,
      "Ġsmart": 2441,
      "Ġdiet": 2442,
      "Ġgrateful": 2443,
      "Ġletters": 2444,
      "Ġwondering": 2445,
      "Ġpoliceman": 2446,
      "Ġenter": 2447,
      "Ġchocol": 2448,
      "Ġsoldiers": 2449,
      "Ġhiding": 2450,
      "Ġescaped": 2451,
      "Ġneighbor": 2452,
      "Ġcompletely": 2453,
      "Ġmiddle": 2454,
      "Ġcaused": 2455,
      "Ġarrested": 2456,
      "urious": 2457,
      "Ġpizza": 2458,
      "Ġbriefcase": 2459,
      "Ġintrodu": 2460,
      "Ġchocolate": 2461,
      "aid": 2462,
      "ler": 2463,
      "uc": 2464,
      "Ġer": 2465,
      "head": 2466,
      "Ġtop": 2467,
      "initely": 2468,
      "Ġmot": 2469,
      "Ġpub": 2470,
      "Ġpower": 2471,
      "Ġnine": 2472,
      "Ġann": 2473,
      "Ġstairs": 2474,
      "Ġreach": 2475,
      "Ġshy": 2476,
      "ained": 2477,
      "Ġexce": 2478,
      "une": 2479,
      "Ġvill": 2480,
      "Ġrob": 2481,
      "Ġbutter": 2482,
      "Ġjoke": 2483,
      "Ġdishes": 2484,
      "Ġoper": 2485,
      "Ġpoem": 2486,
      "Ġpocket": 2487,
      "Ġaware": 2488,
      "Ġseemed": 2489,
      "Ġsinger": 2490,
      "bey": 2491,
      "Ġvisited": 2492,
      "Ġinvit": 2493,
      "Ġrecently": 2494,
      "000": 2495,
      "Ġcollect": 2496,
      "Ġfeelings": 2497,
      "Ġconcer": 2498,
      "Ġtickets": 2499,
      "Ġtaller": 2500,
      "Ġearthqu": 2501,
      "Ġpurpose": 2502,
      "Ġsurvived": 2503,
      "Ġdefinitely": 2504,
      "Ġsuitcase": 2505,
      "Ġsuspic": 2506,
      "Ġcrowd": 2507,
      "bage": 2508,
      "con": 2509,
      "emp": 2510,
      "host": 2511,
      "iving": 2512,
      "ks": 2513,
      "loy": 2514,
      "oc": 2515,
      "pl": 2516,
      "pos": 2517,
      "son": 2518,
      "Ġtaught": 2519,
      "Ġwet": 2520,
      "Ġyen": 2521,
      "Ġcool": 2522,
      "Ġlit": 2523,
      "Ġfing": 2524,
      "Ġfil": 2525,
      "llent": 2526,
      "Ġnorm": 2527,
      "Ġgar": 2528,
      "Ġghost": 2529,
      "athe": 2530,
      "atur": 2531,
      "its": 2532,
      "itated": 2533,
      "Ġstom": 2534,
      "Ġstick": 2535,
      "Ġstates": 2536,
      "Ġund": 2537,
      "Ġneither": 2538,
      "Ġsear": 2539,
      "Ġjeal": 2540,
      "usted": 2541,
      "ushed": 2542,
      "ilar": 2543,
      "astic": 2544,
      "Ġherself": 2545,
      "Ġcards": 2546,
      "Ġcond": 2547,
      "Ġtalks": 2548,
      "Ġunited": 2549,
      "ards": 2550,
      "Ġwatched": 2551,
      "Ġordered": 2552,
      "cks": 2553,
      "Ġdiary": 2554,
      "Ġappear": 2555,
      "Ġhopes": 2556,
      "Ġattract": 2557,
      "Ġpersu": 2558,
      "Ġwonderful": 2559,
      "Ġshare": 2560,
      "Ġsnowing": 2561,
      "Ġheadache": 2562,
      "Ġexcited": 2563,
      "Ġspoken": 2564,
      "Ġcomplaining": 2565,
      "Ġindust": 2566,
      "vented": 2567,
      "Ġescape": 2568,
      "Ġimagined": 2569,
      "Ġbathroom": 2570,
      "Ġaccepted": 2571,
      "Ġreceived": 2572,
      "Ġignore": 2573,
      "Ġemail": 2574,
      "Ġjumped": 2575,
      "Ġdivorced": 2576,
      "Ġdeserve": 2577,
      "Ġlosing": 2578,
      "Ġamazing": 2579,
      "Ġinnocent": 2580,
      "Ġpredict": 2581,
      "Ġexcellent": 2582,
      "Ġjealous": 2583,
      "nic": 2584,
      "oon": 2585,
      "old": 2586,
      "Ġwoke": 2587,
      "Ġtoot": 2588,
      "Ġsort": 2589,
      "Ġsoup": 2590,
      "ination": 2591,
      "inced": 2592,
      "Ġmir": 2593,
      "Ġdry": 2594,
      "Ġdest": 2595,
      "vest": 2596,
      "Ġcab": 2597,
      "Ġlad": 2598,
      "Ġlone": 2599,
      "Ġpan": 2600,
      "Ġpic": 2601,
      "Ġpack": 2602,
      "Ġpos": 2603,
      "ories": 2604,
      "omm": 2605,
      "ities": 2606,
      "Ġwashed": 2607,
      "icle": 2608,
      "Ġsuic": 2609,
      "Ġsuper": 2610,
      "Ġrat": 2611,
      "Ġteeth": 2612,
      "ilty": 2613,
      "Ġpleased": 2614,
      "Ġconst": 2615,
      "iff": 2616,
      "ational": 2617,
      "Ġoffic": 2618,
      "Ġsmile": 2619,
      "Ġlots": 2620,
      "Ġfail": 2621,
      "Ġdisag": 2622,
      "Ġappo": 2623,
      "Ġpoison": 2624,
      "Ġguilty": 2625,
      "Ġremark": 2626,
      "Ġpair": 2627,
      "Ġbelieves": 2628,
      "Ġmath": 2629,
      "Ġmatch": 2630,
      "Ġboyfriend": 2631,
      "Ġinvite": 2632,
      "Ġpersonal": 2633,
      "Ġhighly": 2634,
      "Ġsweater": 2635,
      "Ġconvince": 2636,
      "Ġcapital": 2637,
      "Ġpiece": 2638,
      "Ġholiday": 2639,
      "Ġpulled": 2640,
      "Ġembarrassed": 2641,
      "Ġallergic": 2642,
      "Ġviol": 2643,
      "Ġlonely": 2644,
      "do": 2645,
      "mark": 2646,
      "od": 2647,
      "sy": 2648,
      "ton": 2649,
      "zz": 2650,
      "Ġ4": 2651,
      "Ġ5": 2652,
      "Ġaut": 2653,
      "Ġtot": 2654,
      "Ġmill": 2655,
      "Ġmention": 2656,
      "Ġdent": 2657,
      "Ġbow": 2658,
      "Ġcustom": 2659,
      "Ġline": 2660,
      "Ġfu": 2661,
      "Ġnatur": 2662,
      "att": 2663,
      "Ġobey": 2664,
      "Ġinse": 2665,
      "Ġital": 2666,
      "Ġeff": 2667,
      "Ġbell": 2668,
      "ster": 2669,
      "Ġneg": 2670,
      "Ġcancer": 2671,
      "ants": 2672,
      "ppy": 2673,
      "Ġtruck": 2674,
      "ests": 2675,
      "Ġchick": 2676,
      "apers": 2677,
      "ific": 2678,
      "Ġprices": 2679,
      "ager": 2680,
      "Ġsmiling": 2681,
      "Ġcalls": 2682,
      "Ġmoon": 2683,
      "Ġleaves": 2684,
      "Ġsli": 2685,
      "Ġinvolved": 2686,
      "Ġrecomm": 2687,
      "Ġtrusted": 2688,
      "Ġresign": 2689,
      "Ġobject": 2690,
      "intment": 2691,
      "Ġdrove": 2692,
      "Ġdropped": 2693,
      "Ġelectric": 2694,
      "fortable": 2695,
      "rupt": 2696,
      "Ġimagine": 2697,
      "Ġconvinced": 2698,
      "Ġneighbors": 2699,
      "Ġpriv": 2700,
      "Ġdancing": 2701,
      "Ġfilled": 2702,
      "Ġabsolut": 2703,
      "Ġcourage": 2704,
      "Ġmurder": 2705,
      "Ġtype": 2706,
      "Ġmagaz": 2707,
      "Ġunfortunately": 2708,
      "Ġsharp": 2709,
      "Ġsuspicious": 2710,
      "Ġabsolutely": 2711,
      "bile": 2712,
      "ges": 2713,
      "hood": 2714,
      "sed": 2715,
      "ugg": 2716,
      "Ġwore": 2717,
      "Ġast": 2718,
      "Ġcash": 2719,
      "Ġlaz": 2720,
      "Ġfaster": 2721,
      "orn": 2722,
      "Ġhes": 2723,
      "Ġheat": 2724,
      "Ġbear": 2725,
      "Ġanx": 2726,
      "Ġstorm": 2727,
      "Ġur": 2728,
      "Ġnote": 2729,
      "Ġself": 2730,
      "Ġrang": 2731,
      "Ġtext": 2732,
      "Ġeverywhere": 2733,
      "unity": 2734,
      "Ġupset": 2735,
      "Ġhadn": 2736,
      "Ġgoodby": 2737,
      "Ġarg": 2738,
      "Ġpropos": 2739,
      "ified": 2740,
      "Ġstuck": 2741,
      "Ġview": 2742,
      "Ġpeace": 2743,
      "Ġorgan": 2744,
      "Ġpress": 2745,
      "Ġbrown": 2746,
      "Ġbetr": 2747,
      "Ġremind": 2748,
      "Ġpartic": 2749,
      "Ġrained": 2750,
      "Ġcheap": 2751,
      "Ġcheese": 2752,
      "Ġgrew": 2753,
      "Ġslave": 2754,
      "Ġbigger": 2755,
      "Ġrepe": 2756,
      "Ġrepair": 2757,
      "Ġpretended": 2758,
      "Ġpaint": 2759,
      "Ġkidding": 2760,
      "Ġveh": 2761,
      "Ġintern": 2762,
      "Ġmeaning": 2763,
      "Ġhorri": 2764,
      "Ġtreat": 2765,
      "Ġhuge": 2766,
      "Ġdisappeared": 2767,
      "Ġsalt": 2768,
      "Ġbeginning": 2769,
      "Ġfacts": 2770,
      "Ġapologized": 2771,
      "Ġrule": 2772,
      "Ġopport": 2773,
      "Ġtranslate": 2774,
      "Ġeduc": 2775,
      "rently": 2776,
      "Ġsuicide": 2777,
      "Ġproposal": 2778,
      "apped": 2779,
      "but": 2780,
      "bby": 2781,
      "board": 2782,
      "line": 2783,
      "mat": 2784,
      "tom": 2785,
      "under": 2786,
      "Ġtur": 2787,
      "Ġtight": 2788,
      "Ġtoil": 2789,
      "Ġsang": 2790,
      "Ġmap": 2791,
      "Ġmos": 2792,
      "Ġbask": 2793,
      "eday": 2794,
      "Ġfur": 2795,
      "Ġhell": 2796,
      "Ġgiving": 2797,
      "arm": 2798,
      "oming": 2799,
      "Ġant": 2800,
      "Ġanno": 2801,
      "Ġwashing": 2802,
      "Ġstadi": 2803,
      "Ġsteal": 2804,
      "Ġlift": 2805,
      "acy": 2806,
      "Ġshelf": 2807,
      "cture": 2808,
      "Ġsocial": 2809,
      "unte": 2810,
      "Ġfear": 2811,
      "Ġdelic": 2812,
      "Ġwondered": 2813,
      "Ġenerg": 2814,
      "Ġsomeday": 2815,
      "ify": 2816,
      "Ġcovered": 2817,
      "Ġunha": 2818,
      "Ġval": 2819,
      "Ġtwenty": 2820,
      "Ġboard": 2821,
      "ission": 2822,
      "Ġgroup": 2823,
      "Ġrains": 2824,
      "Ġengine": 2825,
      "Ġcontract": 2826,
      "Ġshower": 2827,
      "Ġteachers": 2828,
      "Ġpaying": 2829,
      "Ġshoot": 2830,
      "ipe": 2831,
      "ips": 2832,
      "Ġresults": 2833,
      "Ġterm": 2834,
      "Ġdreams": 2835,
      "Ġcute": 2836,
      "Ġcommon": 2837,
      "Ġsimilar": 2838,
      "Ġsuccessful": 2839,
      "Ġdistance": 2840,
      "Ġphotograp": 2841,
      "Ġtaste": 2842,
      "Ġrisk": 2843,
      "Ġenemy": 2844,
      "Ġgraduated": 2845,
      "Ġburned": 2846,
      "Ġmaj": 2847,
      "Ġexhausted": 2848,
      "Ġinjured": 2849,
      "Ġprofess": 2850,
      "Ġvolunte": 2851,
      "Ġinvitation": 2852,
      "Ġearthquake": 2853,
      "Ġpicnic": 2854,
      "Ġsupermark": 2855,
      "Ġmillion": 2856,
      "Ġdentist": 2857,
      "Ġnatural": 2858,
      "Ġinsects": 2859,
      "Ġrecommend": 2860,
      "Ġgoodbye": 2861,
      "Ġmosqu": 2862,
      "Ġbasket": 2863,
      "Ġstadium": 2864,
      "Ġsupermarket": 2865,
      "bb": 2866,
      "cious": 2867,
      "cument": 2868,
      "eg": 2869,
      "ead": 2870,
      "gress": 2871,
      "hy": 2872,
      "ls": 2873,
      "tain": 2874,
      "ued": 2875,
      "Ġ6": 2876,
      "Ġ7": 2877,
      "Ġtank": 2878,
      "Ġaud": 2879,
      "hamed": 2880,
      "Ġden": 2881,
      "Ġdut": 2882,
      "Ġdate": 2883,
      "Ġcong": 2884,
      "Ġcurious": 2885,
      "Ġlow": 2886,
      "Ġlay": 2887,
      "Ġfro": 2888,
      "ane": 2889,
      "ises": 2890,
      "Ġpage": 2891,
      "Ġgro": 2892,
      "Ġgate": 2893,
      "Ġisland": 2894,
      "asure": 2895,
      "Ġthous": 2896,
      "Ġdocument": 2897,
      "ety": 2898,
      "ito": 2899,
      "iting": 2900,
      "itive": 2901,
      "Ġweap": 2902,
      "lew": 2903,
      "ooper": 2904,
      "Ġfort": 2905,
      "Ġarea": 2906,
      "uts": 2907,
      "ution": 2908,
      "Ġashamed": 2909,
      "Ġhist": 2910,
      "Ġshr": 2911,
      "Ġshout": 2912,
      "Ġalth": 2913,
      "Ġrarely": 2914,
      "Ġsport": 2915,
      "Ġexist": 2916,
      "Ġdece": 2917,
      "Ġmanaged": 2918,
      "owned": 2919,
      "Ġgotten": 2920,
      "Ġclou": 2921,
      "Ġpeel": 2922,
      "Ġspeakers": 2923,
      "Ġstarts": 2924,
      "Ġcompet": 2925,
      "Ġbuying": 2926,
      "Ġoverw": 2927,
      "Ġunderstood": 2928,
      "Ġsooner": 2929,
      "Ġscar": 2930,
      "Ġdrives": 2931,
      "Ġsurre": 2932,
      "Ġglo": 2933,
      "Ġsleepy": 2934,
      "Ġpassen": 2935,
      "Ġpassport": 2936,
      "Ġeasier": 2937,
      "Ġreco": 2938,
      "Ġretired": 2939,
      "Ġcritic": 2940,
      "Ġflower": 2941,
      "Ġcosts": 2942,
      "Ġcamp": 2943,
      "Ġsalary": 2944,
      "Ġpoliticians": 2945,
      "Ġconfess": 2946,
      "Ġilleg": 2947,
      "Ġexample": 2948,
      "Ġsuggestion": 2949,
      "Ġadmitted": 2950,
      "Ġcontinent": 2951,
      "Ġsilence": 2952,
      "Ġtemperature": 2953,
      "Ġextrem": 2954,
      "Ġcopy": 2955,
      "Ġrecognize": 2956,
      "Ġclimb": 2957,
      "Ġvideo": 2958,
      "Ġvillage": 2959,
      "Ġnormal": 2960,
      "Ġappointment": 2961,
      "Ġlazy": 2962,
      "Ġanxious": 2963,
      "Ġhorrible": 2964,
      "Ġhello": 2965,
      "Ġenergy": 2966,
      "Ġmosquito": 2967,
      "Ġthousand": 2968,
      "Ġalthough": 2969,
      "che": 2970,
      "ex": 2971,
      "hol": 2972,
      "ns": 2973,
      "ule": 2974,
      "view": 2975,
      "xic": 2976,
      "Ġ3": 2977,
      "Ġess": 2978,
      "Ġtill": 2979,
      "Ġaim": 2980,
      "Ġsou": 2981,
      "Ġdying": 2982,
      "Ġban": 2983,
      "Ġbes": 2984,
      "Ġcell": 2985,
      "Ġling": 2986,
      "Ġlic": 2987,
      "Ġlack": 2988,
      "Ġfed": 2989,
      "isy": 2990,
      "llen": 2991,
      "ency": 2992,
      "Ġnur": 2993,
      "Ġnap": 2994,
      "Ġgift": 2995,
      "Ġhi": 2996,
      "Ġhire": 2997,
      "Ġwears": 2998,
      "Ġmeal": 2999,
      "Ġstars": 3000,
      "Ġkil": 3001,
      "right": 3002,
      "aded": 3003,
      "entr": 3004,
      "tery": 3005,
      "Ġseason": 3006,
      "Ġanyway": 3007,
      "Ġrum": 3008,
      "Ġspace": 3009,
      "Ġplaces": 3010,
      "Ġusual": 3011,
      "Ġsaving": 3012,
      "Ġupstairs": 3013,
      "anding": 3014,
      "Ġchose": 3015,
      "Ġquarter": 3016,
      "Ġproject": 3017,
      "ifty": 3018,
      "Ġunc": 3019,
      "Ġord": 3020,
      "Ġexpress": 3021,
      "Ġbridge": 3022,
      "ected": 3023,
      "Ġmoving": 3024,
      "Ġfeels": 3025,
      "Ġappl": 3026,
      "Ġears": 3027,
      "Ġbreathe": 3028,
      "Ġbadly": 3029,
      "ments": 3030,
      "Ġanswers": 3031,
      "Ġuseful": 3032,
      "Ġswimmer": 3033,
      "Ġslight": 3034,
      "Ġintell": 3035,
      "Ġdesign": 3036,
      "Ġsuppose": 3037,
      "Ġ18": 3038,
      "Ġhole": 3039,
      "Ġspends": 3040,
      "Ġnearly": 3041,
      "Ġcleaning": 3042,
      "Ġforever": 3043,
      "Ġconcentr": 3044,
      "Ġcorp": 3045,
      "Ġpatience": 3046,
      "Ġquietly": 3047,
      "Ġtreated": 3048,
      "Ġcandle": 3049,
      "Ġsweet": 3050,
      "Ġdrop": 3051,
      "Ġteaching": 3052,
      "Ġrefused": 3053,
      "ude": 3054,
      "Ġbelongs": 3055,
      "Ġlegs": 3056,
      "Ġtastes": 3057,
      "Ġinstead": 3058,
      "Ġextra": 3059,
      "Ġsuggested": 3060,
      "Ġraise": 3061,
      "Ġraised": 3062,
      "Ġpractice": 3063,
      "Ġcanada": 3064,
      "Ġcanadian": 3065,
      "Ġskiing": 3066,
      "Ġzoo": 3067,
      "Ġexercise": 3068,
      "Ġdepends": 3069,
      "Ġmemory": 3070,
      "Ġpotato": 3071,
      "Ġcoinc": 3072,
      "Ġwebs": 3073,
      "Ġresponsible": 3074,
      "Ġpublic": 3075,
      "Ġstomach": 3076,
      "Ġchicken": 3077,
      "Ġbetrayed": 3078,
      "Ġtoilet": 3079,
      "Ġunhappy": 3080,
      "Ġpassengers": 3081,
      "Ġextremely": 3082,
      "Ġlingered": 3083,
      "de": 3084,
      "den": 3085,
      "ffer": 3086,
      "iot": 3087,
      "ron": 3088,
      "vard": 3089,
      "vior": 3090,
      "Ġ8": 3091,
      "Ġtal": 3092,
      "Ġtatt": 3093,
      "Ġwise": 3094,
      "Ġactor": 3095,
      "Ġyork": 3096,
      "Ġtheory": 3097,
      "Ġcir": 3098,
      "Ġcree": 3099,
      "Ġcause": 3100,
      "Ġlent": 3101,
      "Ġfurn": 3102,
      "Ġfence": 3103,
      "Ġfright": 3104,
      "Ġpill": 3105,
      "Ġnon": 3106,
      "Ġnamed": 3107,
      "Ġhors": 3108,
      "Ġthirt": 3109,
      "omb": 3110,
      "omp": 3111,
      "omes": 3112,
      "omet": 3113,
      "Ġweak": 3114,
      "Ġinvest": 3115,
      "Ġrele": 3116,
      "Ġlies": 3117,
      "imp": 3118,
      "Ġcandy": 3119,
      "ribut": 3120,
      "aced": 3121,
      "pper": 3122,
      "Ġsung": 3123,
      "ores": 3124,
      "Ġfriday": 3125,
      "Ġhelps": 3126,
      "Ġshoulder": 3127,
      "Ġlock": 3128,
      "Ġconside": 3129,
      "Ġenc": 3130,
      "Ġprodu": 3131,
      "igent": 3132,
      "elve": 3133,
      "Ġbutton": 3134,
      "Ġpron": 3135,
      "Ġlecture": 3136,
      "Ġtwelve": 3137,
      "Ġblank": 3138,
      "Ġswit": 3139,
      "Ġdirect": 3140,
      "Ġgrass": 3141,
      "Ġhanded": 3142,
      "Ġharvard": 3143,
      "Ġawful": 3144,
      "Ġunderstands": 3145,
      "Ġhoping": 3146,
      "Ġhoped": 3147,
      "Ġimpress": 3148,
      "Ġimpressed": 3149,
      "Ġsched": 3150,
      "Ġbottom": 3151,
      "Ġhated": 3152,
      "Ġcontains": 3153,
      "Ġbedroom": 3154,
      "Ġshape": 3155,
      "Ġreply": 3156,
      "Ġcookies": 3157,
      "Ġmistaken": 3158,
      "Ġmatters": 3159,
      "Ġjud": 3160,
      "Ġentire": 3161,
      "Ġamericans": 3162,
      "Ġsolved": 3163,
      "Ġtough": 3164,
      "Ġfighting": 3165,
      "Ġjackson": 3166,
      "Ġhumili": 3167,
      "Ġsubway": 3168,
      "Ġchina": 3169,
      "Ġprize": 3170,
      "Ġcontinue": 3171,
      "Ġperfectly": 3172,
      "Ġmountains": 3173,
      "Ġsucceeded": 3174,
      "Ġyellow": 3175,
      "Ġattacked": 3176,
      "Ġrequest": 3177,
      "Ġcloser": 3178,
      "Ġtotally": 3179,
      "Ġopportunity": 3180,
      "underst": 3181,
      "Ġdelicious": 3182,
      "Ġmajor": 3183,
      "Ġhistory": 3184,
      "Ġnurse": 3185,
      "Ġcoincidence": 3186,
      "Ġwebsite": 3187,
      "Ġtattoo": 3188,
      "Ġhorses": 3189,
      "Ġconsidered": 3190,
      "cul": 3191,
      "hip": 3192,
      "mon": 3193,
      "ney": 3194,
      "ove": 3195,
      "py": 3196,
      "yed": 3197,
      "Ġ30": 3198,
      "hemat": 3199,
      "Ġwild": 3200,
      "Ġahead": 3201,
      "rees": 3202,
      "reat": 3203,
      "hand": 3204,
      "Ġdu": 3205,
      "Ġdig": 3206,
      "ones": 3207,
      "Ġcred": 3208,
      "Ġlat": 3209,
      "Ġlam": 3210,
      "ings": 3211,
      "Ġfain": 3212,
      "enced": 3213,
      "Ġhero": 3214,
      "Ġhy": 3215,
      "ashed": 3216,
      "Ġthin": 3217,
      "Ġthief": 3218,
      "Ġoil": 3219,
      "Ġinvented": 3220,
      "key": 3221,
      "Ġforced": 3222,
      "Ġknock": 3223,
      "Ġwhis": 3224,
      "Ġsheep": 3225,
      "Ġsea": 3226,
      "Ġsuffer": 3227,
      "Ġrate": 3228,
      "Ġrab": 3229,
      "Ġspl": 3230,
      "Ġtears": 3231,
      "Ġworst": 3232,
      "Ġsail": 3233,
      "ung": 3234,
      "Ġunf": 3235,
      "Ġvot": 3236,
      "Ġlovely": 3237,
      "Ġplayers": 3238,
      "Ġbull": 3239,
      "Ġmod": 3240,
      "Ġmobile": 3241,
      "Ġblo": 3242,
      "Ġblow": 3243,
      "Ġchanges": 3244,
      "Ġguests": 3245,
      "Ġgrab": 3246,
      "Ġident": 3247,
      "Ġawake": 3248,
      "Ġkeeps": 3249,
      "Ġaccused": 3250,
      "ires": 3251,
      "Ġmathemat": 3252,
      "Ġsingle": 3253,
      "Ġclever": 3254,
      "Ġdescri": 3255,
      "Ġruns": 3256,
      "Ġwarn": 3257,
      "Ġtowel": 3258,
      "Ġcrime": 3259,
      "Ġassist": 3260,
      "Ġmondays": 3261,
      "Ġexchan": 3262,
      "Ġrelig": 3263,
      "Ġsells": 3264,
      "Ġboring": 3265,
      "Ġfollowed": 3266,
      "Ġwrites": 3267,
      "Ġdistur": 3268,
      "Ġbright": 3269,
      "Ġfairly": 3270,
      "Ġceiling": 3271,
      "Ġignored": 3272,
      "coln": 3273,
      "Ġcourse": 3274,
      "books": 3275,
      "Ġbehavior": 3276,
      "iliar": 3277,
      "Ġenemies": 3278,
      "Ġrecognized": 3279,
      "Ġdiscovered": 3280,
      "ratul": 3281,
      "Ġpossibly": 3282,
      "Ġlincoln": 3283,
      "Ġappears": 3284,
      "Ġindustry": 3285,
      "Ġtooth": 3286,
      "Ġdestro": 3287,
      "Ġofficer": 3288,
      "Ġelectricity": 3289,
      "Ġmagazine": 3290,
      "Ġhesitated": 3291,
      "Ġcongratul": 3292,
      "exp": 3293,
      "Ġcorpor": 3294,
      "Ġcreepy": 3295,
      "Ġrabbit": 3296,
      "aim": 3297,
      "cha": 3298,
      "gest": 3299,
      "iver": 3300,
      "ker": 3301,
      "zed": 3302,
      "Ġest": 3303,
      "het": 3304,
      "Ġach": 3305,
      "Ġtong": 3306,
      "hache": 3307,
      "Ġbite": 3308,
      "Ġcro": 3309,
      "Ġlond": 3310,
      "Ġfifty": 3311,
      "aned": 3312,
      "ism": 3313,
      "ising": 3314,
      "Ġnaked": 3315,
      "Ġgam": 3316,
      "Ġhall": 3317,
      "Ġoce": 3318,
      "Ġecon": 3319,
      "lect": 3320,
      "lebr": 3321,
      "Ġmeals": 3322,
      "Ġmexic": 3323,
      "Ġrese": 3324,
      "imate": 3325,
      "Ġneck": 3326,
      "Ġneare": 3327,
      "ute": 3328,
      "Ġalco": 3329,
      "Ġalarm": 3330,
      "Ġruss": 3331,
      "Ġspan": 3332,
      "Ġwilling": 3333,
      "Ġnose": 3334,
      "Ġsaved": 3335,
      "ulous": 3336,
      "Ġfrank": 3337,
      "fered": 3338,
      "Ġdel": 3339,
      "Ġqual": 3340,
      "Ġcarr": 3341,
      "Ġwhenever": 3342,
      "Ġcomfortable": 3343,
      "Ġnowhere": 3344,
      "Ġprov": 3345,
      "Ġprogress": 3346,
      "Ġhomeless": 3347,
      "Ġvict": 3348,
      "Ġvote": 3349,
      "Ġintend": 3350,
      "Ġintention": 3351,
      "Ġamong": 3352,
      "Ġrock": 3353,
      "Ġjoking": 3354,
      "Ġboat": 3355,
      "Ġappa": 3356,
      "Ġapps": 3357,
      "Ġbecoming": 3358,
      "Ġbelieved": 3359,
      "Ġfinan": 3360,
      "Ġmonster": 3361,
      "Ġthemselves": 3362,
      "Ġcheer": 3363,
      "Ġcheated": 3364,
      "Ġbreath": 3365,
      "Ġstudies": 3366,
      "Ġcontain": 3367,
      "gging": 3368,
      "Ġfamiliar": 3369,
      "Ġattemp": 3370,
      "ailable": 3371,
      "Ġsupper": 3372,
      "Ġadvant": 3373,
      "Ġpercent": 3374,
      "Ġrepl": 3375,
      "Ġrecord": 3376,
      "Ġhunting": 3377,
      "Ġpersonally": 3378,
      "Ġmiles": 3379,
      "Ġassess": 3380,
      "Ġparking": 3381,
      "Ġsmaller": 3382,
      "Ġaccidents": 3383,
      "Ġforgotten": 3384,
      "Ġincre": 3385,
      "Ġinterview": 3386,
      "Ġsongs": 3387,
      "Ġtraveling": 3388,
      "Ġfixed": 3389,
      "Ġadmire": 3390,
      "Ġelection": 3391,
      "Ġdiscussed": 3392,
      "Ġstronger": 3393,
      "Ġflying": 3394,
      "Ġsilver": 3395,
      "Ġcelebr": 3396,
      "Ġtranslated": 3397,
      "Ġiron": 3398,
      "Ġobviously": 3399,
      "Ġwoods": 3400,
      "Ġpermission": 3401,
      "Ġcertainly": 3402,
      "Ġcenter": 3403,
      "Ġpuzz": 3404,
      "Ġoptim": 3405,
      "Ġcousin": 3406,
      "Ġcousins": 3407,
      "Ġrelaxed": 3408,
      "Ġconcern": 3409,
      "Ġfinger": 3410,
      "Ġghosts": 3411,
      "Ġsearch": 3412,
      "Ġcondition": 3413,
      "Ġattractive": 3414,
      "Ġpersuade": 3415,
      "Ġmirror": 3416,
      "Ġposition": 3417,
      "Ġviolin": 3418,
      "Ġvehicle": 3419,
      "Ġinternet": 3420,
      "Ġeducation": 3421,
      "Ġduty": 3422,
      "Ġshrimp": 3423,
      "Ġconcentrate": 3424,
      "Ġthirteen": 3425,
      "Ġschedule": 3426,
      "Ġachie": 3427,
      "Ġtongue": 3428,
      "Ġlondon": 3429,
      "Ġeconom": 3430,
      "Ġalcohol": 3431,
      "13": 3432,
      "ease": 3433,
      "fo": 3434,
      "fety": 3435,
      "how": 3436,
      "law": 3437,
      "mit": 3438,
      "ues": 3439,
      "uff": 3440,
      "vant": 3441,
      "vator": 3442,
      "zen": 3443,
      "Ġtent": 3444,
      "Ġtour": 3445,
      "Ġsons": 3446,
      "ining": 3447,
      "ines": 3448,
      "inal": 3449,
      "Ġmood": 3450,
      "Ġmouse": 3451,
      "Ġdared": 3452,
      "Ġtheater": 3453,
      "onds": 3454,
      "Ġben": 3455,
      "Ġbaked": 3456,
      "Ġcave": 3457,
      "Ġcooper": 3458,
      "Ġlid": 3459,
      "Ġlaid": 3460,
      "Ġfuss": 3461,
      "Ġpipe": 3462,
      "Ġnor": 3463,
      "Ġhill": 3464,
      "Ġhired": 3465,
      "asant": 3466,
      "itions": 3467,
      "Ġequ": 3468,
      "Ġeffe": 3469,
      "idays": 3470,
      "Ġmembers": 3471,
      "Ġstam": 3472,
      "Ġstage": 3473,
      "Ġstared": 3474,
      "Ġstories": 3475,
      "ically": 3476,
      "aled": 3477,
      "Ġgoal": 3478,
      "tern": 3479,
      "ional": 3480,
      "Ġwheel": 3481,
      "Ġraw": 3482,
      "ury": 3483,
      "ope": 3484,
      "Ġsocks": 3485,
      "Ġnoisy": 3486,
      "Ġsale": 3487,
      "Ġsafety": 3488,
      "Ġhappiness": 3489,
      "Ġdev": 3490,
      "Ġuns": 3491,
      "Ġamb": 3492,
      "Ġdrug": 3493,
      "Ġsmarter": 3494,
      "Ġadop": 3495,
      "Ġadvent": 3496,
      "Ġbelow": 3497,
      "Ġdisease": 3498,
      "Ġground": 3499,
      "Ġidiot": 3500,
      "Ġscare": 3501,
      "Ġscience": 3502,
      "Ġscrew": 3503,
      "Ġpolite": 3504,
      "Ġchecked": 3505,
      "Ġlistens": 3506,
      "Ġswims": 3507,
      "Ġteaches": 3508,
      "Ġstrict": 3509,
      "Ġstranger": 3510,
      "Ġadvance": 3511,
      "Ġwinning": 3512,
      "cially": 3513,
      "Ġcooked": 3514,
      "Ġhobby": 3515,
      "Ġvisitors": 3516,
      "Ġacted": 3517,
      "Ġenjoys": 3518,
      "Ġenjoying": 3519,
      "Ġtoward": 3520,
      "Ġclasses": 3521,
      "Ġclassroom": 3522,
      "Ġcomputers": 3523,
      "Ġcleaned": 3524,
      "Ġincred": 3525,
      "Ġincident": 3526,
      "Ġeleven": 3527,
      "Ġelevator": 3528,
      "Ġsolution": 3529,
      "Ġemploy": 3530,
      "Ġcommitted": 3531,
      "Ġtraveled": 3532,
      "Ġpolitics": 3533,
      "Ġbegins": 3534,
      "Ġillness": 3535,
      "Ġfollowing": 3536,
      "Ġhuman": 3537,
      "Ġinsane": 3538,
      "Ġsundays": 3539,
      "Ġavailable": 3540,
      "Ġelected": 3541,
      "Ġclearly": 3542,
      "Ġcouch": 3543,
      "Ġartist": 3544,
      "Ġdetails": 3545,
      "Ġparis": 3546,
      "Ġpunish": 3547,
      "Ġpunished": 3548,
      "Ġphoto": 3549,
      "Ġbehave": 3550,
      "Ġholidays": 3551,
      "Ġdivorce": 3552,
      "Ġplants": 3553,
      "Ġavoiding": 3554,
      "Ġbattery": 3555,
      "Ġcharge": 3556,
      "Ġevil": 3557,
      "Ġmisunderst": 3558,
      "Ġoptions": 3559,
      "Ġfluently": 3560,
      "Ġgermany": 3561,
      "ocr": 3562,
      "Ġcabbage": 3563,
      "Ġconstru": 3564,
      "Ġremarkable": 3565,
      "Ġslipped": 3566,
      "Ġprivate": 3567,
      "Ġrepeat": 3568,
      "Ġfurther": 3569,
      "Ġphotograph": 3570,
      "Ġweapon": 3571,
      "Ġbanan": 3572,
      "Ġbeside": 3573,
      "Ġlicense": 3574,
      "Ġfrightened": 3575,
      "Ġlamp": 3576,
      "Ġmathematics": 3577,
      "Ġocean": 3578,
      "Ġcarrots": 3579,
      "Ġapparently": 3580,
      "50": 3581,
      "bling": 3582,
      "erest": 3583,
      "iest": 3584,
      "lass": 3585,
      "ne": 3586,
      "ped": 3587,
      "plan": 3588,
      "ware": 3589,
      "word": 3590,
      "yes": 3591,
      "Ġ$": 3592,
      "Ġ9": 3593,
      "Ġwha": 3594,
      "Ġwis": 3595,
      "Ġaun": 3596,
      "Ġauth": 3597,
      "oured": 3598,
      "inary": 3599,
      "Ġmam": 3600,
      "Ġmain": 3601,
      "Ġdust": 3602,
      "Ġdea": 3603,
      "Ġdue": 3604,
      "onge": 3605,
      "Ġband": 3606,
      "Ġbored": 3607,
      "Ġbarely": 3608,
      "Ġcast": 3609,
      "Ġlugg": 3610,
      "eds": 3611,
      "Ġfait": 3612,
      "Ġpsy": 3613,
      "Ġpoured": 3614,
      "orter": 3615,
      "ences": 3616,
      "ering": 3617,
      "Ġnuts": 3618,
      "Ġhous": 3619,
      "ases": 3620,
      "atient": 3621,
      "itter": 3622,
      "Ġange": 3623,
      "lex": 3624,
      "verage": 3625,
      "Ġoffered": 3626,
      "Ġstri": 3627,
      "Ġstink": 3628,
      "Ġstate": 3629,
      "Ġreject": 3630,
      "ential": 3631,
      "aches": 3632,
      "Ġwitness": 3633,
      "Ġasp": 3634,
      "Ġaside": 3635,
      "Ġjan": 3636,
      "Ġrace": 3637,
      "Ġroof": 3638,
      "urity": 3639,
      "Ġspread": 3640,
      "Ġspider": 3641,
      "Ġsponge": 3642,
      "Ġteen": 3643,
      "Ġletting": 3644,
      "Ġfever": 3645,
      "Ġchop": 3646,
      "Ġmanage": 3647,
      "ounds": 3648,
      "Ġprove": 3649,
      "igner": 3650,
      "Ġunless": 3651,
      "Ġunexp": 3652,
      "Ġintended": 3653,
      "Ġburied": 3654,
      "Ġpray": 3655,
      "Ġdrag": 3656,
      "ague": 3657,
      "Ġexpert": 3658,
      "Ġourselves": 3659,
      "Ġdisg": 3660,
      "Ġguide": 3661,
      "Ġgrap": 3662,
      "Ġimpatient": 3663,
      "Ġwalks": 3664,
      "Ġcontribut": 3665,
      "Ġbeauty": 3666,
      "Ġsnakes": 3667,
      "Ġtrains": 3668,
      "Ġsecurity": 3669,
      "Ġhearing": 3670,
      "Ġdesp": 3671,
      "Ġshave": 3672,
      "Ġwarned": 3673,
      "Ġdoctors": 3674,
      "Ġcountries": 3675,
      "Ġchallen": 3676,
      "Ġcrash": 3677,
      "ference": 3678,
      "ieth": 3679,
      "Ġairplan": 3680,
      "Ġspeed": 3681,
      "Ġincl": 3682,
      "Ġcorner": 3683,
      "Ġlarger": 3684,
      "Ġcommun": 3685,
      "Ġstreets": 3686,
      "Ġfigured": 3687,
      "ashion": 3688,
      "Ġconfused": 3689,
      "Ġfactory": 3690,
      "ergency": 3691,
      "Ġexamination": 3692,
      "Ġdepressed": 3693,
      "Ġcolors": 3694,
      "Ġgrowing": 3695,
      "Ġprepar": 3696,
      "Ġnewspapers": 3697,
      "Ġheavily": 3698,
      "Ġcontinued": 3699,
      "Ġpunct": 3700,
      "Ġanimal": 3701,
      "Ġsurvive": 3702,
      "Ġemergency": 3703,
      "Ġpostp": 3704,
      "Ġmurdered": 3705,
      "Ġtyp": 3706,
      "Ġmidnight": 3707,
      "Ġcoward": 3708,
      "Ġ2013": 3709,
      "Ġoccas": 3710,
      "Ġoccur": 3711,
      "Ġscreamed": 3712,
      "Ġimprove": 3713,
      "Ġcrowded": 3714,
      "place": 3715,
      "Ġfilm": 3716,
      "Ġdisagreed": 3717,
      "Ġurg": 3718,
      "Ġparticular": 3719,
      "Ġbasketball": 3720,
      "Ġsuggestions": 3721,
      "Ġorders": 3722,
      "Ġintelligent": 3723,
      "Ġtalented": 3724,
      "Ġpronoun": 3725,
      "Ġcredit": 3726,
      "Ġfainted": 3727,
      "Ġblowing": 3728,
      "Ġnearest": 3729,
      "Ġadvantage": 3730,
      "Ġstamps": 3731,
      "Ġaunt": 3732,
      "Ġauthor": 3733,
      "Ġdeaf": 3734,
      "Ġluggage": 3735,
      "Ġfaith": 3736,
      "Ġunexpected": 3737,
      "bles": 3738,
      "ded": 3739,
      "dri": 3740,
      "for": 3741,
      "form": 3742,
      "ius": 3743,
      "iqu": 3744,
      "ji": 3745,
      "mar": 3746,
      "pri": 3747,
      "ses": 3748,
      "to": 3749,
      "uary": 3750,
      "yal": 3751,
      "year": 3752,
      "Ġtend": 3753,
      "Ġwink": 3754,
      "Ġwest": 3755,
      "Ġaverage": 3756,
      "Ġtoler": 3757,
      "Ġsi": 3758,
      "Ġsens": 3759,
      "rel": 3760,
      "iny": 3761,
      "Ġmt": 3762,
      "Ġdating": 3763,
      "Ġbal": 3764,
      "Ġfan": 3765,
      "Ġfit": 3766,
      "Ġflew": 3767,
      "Ġpool": 3768,
      "Ġpace": 3769,
      "Ġpity": 3770,
      "Ġpush": 3771,
      "Ġpushed": 3772,
      "Ġpants": 3773,
      "orp": 3774,
      "Ġna": 3775,
      "Ġgent": 3776,
      "arant": 3777,
      "Ġhost": 3778,
      "owled": 3779,
      "Ġthro": 3780,
      "Ġthick": 3781,
      "Ġthreat": 3782,
      "Ġoh": 3783,
      "iture": 3784,
      "ides": 3785,
      "stery": 3786,
      "Ġmel": 3787,
      "iches": 3788,
      "iculous": 3789,
      "Ġones": 3790,
      "Ġmystery": 3791,
      "iment": 3792,
      "immed": 3793,
      "antly": 3794,
      "Ġwhist": 3795,
      "adays": 3796,
      "entieth": 3797,
      "rospect": 3798,
      "Ġaband": 3799,
      "Ġabove": 3800,
      "usting": 3801,
      "urance": 3802,
      "oph": 3803,
      "ctive": 3804,
      "Ġsoap": 3805,
      "Ġnoon": 3806,
      "Ġusing": 3807,
      "iles": 3808,
      "ulty": 3809,
      "Ġfrance": 3810,
      "Ġhelpful": 3811,
      "Ġdebt": 3812,
      "Ġtells": 3813,
      "Ġcarp": 3814,
      "Ġconvers": 3815,
      "Ġnowadays": 3816,
      "Ġproper": 3817,
      "Ġcover": 3818,
      "igr": 3819,
      "Ġcliff": 3820,
      "Ġclaim": 3821,
      "Ġvan": 3822,
      "Ġrose": 3823,
      "Ġdrum": 3824,
      "Ġdrowned": 3825,
      "Ġbuses": 3826,
      "Ġexpl": 3827,
      "Ġbrave": 3828,
      "Ġours": 3829,
      "Ġjokes": 3830,
      "Ġtwentieth": 3831,
      "Ġlasted": 3832,
      "Ġcompar": 3833,
      "Ġplanet": 3834,
      "Ġdiv": 3835,
      "issors": 3836,
      "Ġguarant": 3837,
      "Ġhandy": 3838,
      "Ġhandle": 3839,
      "Ġovers": 3840,
      "Ġharm": 3841,
      "Ġflight": 3842,
      "Ġpale": 3843,
      "Ġmark": 3844,
      "Ġscorp": 3845,
      "Ġscissors": 3846,
      "Ġparties": 3847,
      "Ġaccent": 3848,
      "Ġjobs": 3849,
      "Ġsurf": 3850,
      "Ġremembering": 3851,
      "Ġgreet": 3852,
      "Ġcontent": 3853,
      "Ġmeth": 3854,
      "Ġshowing": 3855,
      "Ġattended": 3856,
      "Ġsnake": 3857,
      "Ġfox": 3858,
      "Ġanswering": 3859,
      "Ġbedtime": 3860,
      "Ġshall": 3861,
      "awn": 3862,
      "Ġwarning": 3863,
      "Ġwindy": 3864,
      "Ġcounting": 3865,
      "Ġhung": 3866,
      "Ġretrospect": 3867,
      "Ġ100": 3868,
      "Ġvisiting": 3869,
      "Ġcrim": 3870,
      "Ġcrashed": 3871,
      "Ġdifficulty": 3872,
      "orders": 3873,
      "Ġkissing": 3874,
      "Ġheaded": 3875,
      "Ġexciting": 3876,
      "Ġlights": 3877,
      "Ġarms": 3878,
      "Ġrelented": 3879,
      "Ġtries": 3880,
      "Ġincor": 3881,
      "Ġcollap": 3882,
      "Ġhug": 3883,
      "Ġsentenced": 3884,
      "Ġcomplained": 3885,
      "Ġindia": 3886,
      "Ġhumor": 3887,
      "Ġinsult": 3888,
      "Ġinsisted": 3889,
      "Ġinsurance": 3890,
      "Ġwounds": 3891,
      "Ġadmit": 3892,
      "Ġrefuse": 3893,
      "ervation": 3894,
      "Ġsandwiches": 3895,
      "Ġvegetar": 3896,
      "Ġdetail": 3897,
      "Ġgenius": 3898,
      "Ġdanced": 3899,
      "Ġdancer": 3900,
      "Ġfalling": 3901,
      "Ġreceive": 3902,
      "Ġabsence": 3903,
      "Ġpopul": 3904,
      "Ġrug": 3905,
      "Ġrespond": 3906,
      "Ġdealing": 3907,
      "Ġpieces": 3908,
      "Ġhonesty": 3909,
      "Ġdefend": 3910,
      "Ġdemand": 3911,
      "Ġclocks": 3912,
      "Ġstaring": 3913,
      "Ġsquir": 3914,
      "Ġcanceled": 3915,
      "Ġgenerally": 3916,
      "Ġloudly": 3917,
      "Ġdrawer": 3918,
      "Ġresponsib": 3919,
      "Ġlines": 3920,
      "Ġerror": 3921,
      "Ġgarbage": 3922,
      "Ġautom": 3923,
      "Ġitaly": 3924,
      "Ġitalian": 3925,
      "Ġeffort": 3926,
      "Ġefforts": 3927,
      "Ġargue": 3928,
      "Ġannoying": 3929,
      "Ġterms": 3930,
      "Ġprofessor": 3931,
      "Ġclouds": 3932,
      "Ġgloves": 3933,
      "Ġconfessed": 3934,
      "Ġillegal": 3935,
      "Ġpotatoes": 3936,
      "Ġfurniture": 3937,
      "Ġinvestig": 3938,
      "Ġsunglass": 3939,
      "Ġencour": 3940,
      "Ġblanket": 3941,
      "Ġjudge": 3942,
      "Ġhyp": 3943,
      "Ġknocking": 3944,
      "Ġscrewdri": 3945,
      "Ġincredible": 3946,
      "Ġhouses": 3947,
      "Ġteenager": 3948,
      "Ġairplane": 3949,
      "Ġpunctual": 3950,
      "Ġgentle": 3951,
      "Ġthroat": 3952,
      "Ġsunglasses": 3953,
      "Ġscrewdriver": 3954,
      "bly": 3955,
      "dile": 3956,
      "ev": 3957,
      "fa": 3958,
      "fl": 3959,
      "gth": 3960,
      "light": 3961,
      "mate": 3962,
      "mel": 3963,
      "na": 3964,
      "nes": 3965,
      "ociate": 3966,
      "rup": 3967,
      "tured": 3968,
      "tains": 3969,
      "wr": 3970,
      "ym": 3971,
      "yond": 3972,
      "Ġtip": 3973,
      "Ġtoy": 3974,
      "Ġsore": 3975,
      "Ġsour": 3976,
      "rets": 3977,
      "inate": 3978,
      "Ġment": 3979,
      "Ġmaster": 3980,
      "Ġdat": 3981,
      "Ġdess": 3982,
      "ony": 3983,
      "Ġcit": 3984,
      "Ġcult": 3985,
      "Ġlower": 3986,
      "Ġfift": 3987,
      "anced": 3988,
      "Ġpig": 3989,
      "Ġheight": 3990,
      "erve": 3991,
      "Ġnons": 3992,
      "Ġnature": 3993,
      "Ġnational": 3994,
      "Ġgif": 3995,
      "Ġgig": 3996,
      "Ġgym": 3997,
      "Ġhomes": 3998,
      "Ġthird": 3999,
      "itary": 4000,
      "Ġbeyond": 4001,
      "store": 4002,
      "sters": 4003,
      "Ġstat": 4004,
      "Ġstone": 4005,
      "Ġstab": 4006,
      "iche": 4007,
      "ril": 4008,
      "Ġknowled": 4009,
      "Ġjour": 4010,
      "Ġshorter": 4011,
      "Ġsum": 4012,
      "ndered": 4013,
      "Ġwheat": 4014,
      "Ġtrad": 4015,
      "Ġtrous": 4016,
      "Ġspain": 4017,
      "Ġspare": 4018,
      "Ġsoft": 4019,
      "Ġsofa": 4020,
      "unted": 4021,
      "Ġsomehow": 4022,
      "Ġchuck": 4023,
      "Ġcarried": 4024,
      "Ġthanked": 4025,
      "Ġafric": 4026,
      "Ġconference": 4027,
      "Ġargu": 4028,
      "iform": 4029,
      "Ġcock": 4030,
      "Ġcoach": 4031,
      "Ġunb": 4032,
      "Ġunus": 4033,
      "Ġunlo": 4034,
      "Ġunemp": 4035,
      "Ġuniform": 4036,
      "Ġvase": 4037,
      "Ġrope": 4038,
      "Ġroses": 4039,
      "Ġorig": 4040,
      "Ġpra": 4041,
      "Ġprin": 4042,
      "mbered": 4043,
      "mbled": 4044,
      "Ġprevious": 4045,
      "Ġbrit": 4046,
      "Ġjogging": 4047,
      "Ġadults": 4048,
      "Ġrights": 4049,
      "Ġchildhood": 4050,
      "Ġapplic": 4051,
      "umn": 4052,
      "Ġremain": 4053,
      "Ġgray": 4054,
      "Ġflood": 4055,
      "Ġstops": 4056,
      "Ġmars": 4057,
      "Ġcareless": 4058,
      "Ġscrat": 4059,
      "Ġdecl": 4060,
      "Ġhurried": 4061,
      "Ġopening": 4062,
      "Ġfinding": 4063,
      "Ġaccustom": 4064,
      "Ġturns": 4065,
      "Ġphoned": 4066,
      "Ġgreed": 4067,
      "Ġfoods": 4068,
      "Ġtraining": 4069,
      "Ġsecrets": 4070,
      "Ġdesper": 4071,
      "ipated": 4072,
      "Ġpassword": 4073,
      "Ġshaved": 4074,
      "Ġwins": 4075,
      "rete": 4076,
      "Ġrecent": 4077,
      "Ġkinds": 4078,
      "Ġskin": 4079,
      "Ġcooks": 4080,
      "Ġcookie": 4081,
      "Ġapril": 4082,
      "Ġacqu": 4083,
      "Ġacting": 4084,
      "Ġserve": 4085,
      "Ġresult": 4086,
      "Ġassociate": 4087,
      "Ġrealized": 4088,
      "Ġnearby": 4089,
      "Ġclosely": 4090,
      "Ġobs": 4091,
      "Ġarmed": 4092,
      "Ġbitter": 4093,
      "Ġforest": 4094,
      "Ġforeigner": 4095,
      "Ġsunb": 4096,
      "Ġsecretary": 4097,
      "Ġadded": 4098,
      "Ġspoon": 4099,
      "Ġinterrupt": 4100,
      "Ġcommit": 4101,
      "Ġselling": 4102,
      "shi": 4103,
      "Ġregard": 4104,
      "Ġholding": 4105,
      "Ġterribly": 4106,
      "Ġsalad": 4107,
      "Ġcraw": 4108,
      "Ġrestaurants": 4109,
      "Ġconfident": 4110,
      "Ġhumming": 4111,
      "Ġwriter": 4112,
      "Ġinfl": 4113,
      "Ġcupboard": 4114,
      "Ġsettle": 4115,
      "Ġcurtains": 4116,
      "Ġprepare": 4117,
      "Ġtaxes": 4118,
      "Ġprisoners": 4119,
      "Ġborrowed": 4120,
      "ival": 4121,
      "Ġridiculous": 4122,
      "Ġcomplete": 4123,
      "Ġappreci": 4124,
      "Ġapprove": 4125,
      "Ġopinions": 4126,
      "Ġdownloaded": 4127,
      "Ġirr": 4128,
      "Ġburning": 4129,
      "Ġstraw": 4130,
      "Ġplanted": 4131,
      "Ġforgiven": 4132,
      "codile": 4133,
      "Ġpermit": 4134,
      "Ġbattle": 4135,
      "olution": 4136,
      "Ġfoolish": 4137,
      "Ġclimbed": 4138,
      "Ġmemor": 4139,
      "Ġcancel": 4140,
      "Ġcancelled": 4141,
      "Ġringing": 4142,
      "Ġimproved": 4143,
      "Ġneighborhood": 4144,
      "Ġintroduce": 4145,
      "Ġintroduced": 4146,
      "Ġmotor": 4147,
      "Ġannoun": 4148,
      "Ġrobbed": 4149,
      "Ġoperation": 4150,
      "Ġliterature": 4151,
      "Ġfingers": 4152,
      "Ġgarage": 4153,
      "Ġsearched": 4154,
      "Ġlady": 4155,
      "Ġpanicked": 4156,
      "Ġfuji": 4157,
      "Ġnotebook": 4158,
      "Ġselfish": 4159,
      "Ġargument": 4160,
      "Ġvalu": 4161,
      "Ġaudience": 4162,
      "Ġdenied": 4163,
      "Ġgroaned": 4164,
      "Ġfortune": 4165,
      "Ġsurrender": 4166,
      "Ġessay": 4167,
      "Ġapplau": 4168,
      "Ġdesigned": 4169,
      "Ġhumiliated": 4170,
      "Ġsuffering": 4171,
      "Ġidentify": 4172,
      "Ġdescribe": 4173,
      "Ġcrocodile": 4174,
      "Ġassessment": 4175,
      "Ġadopted": 4176,
      "Ġpsych": 4177,
      "Ġangel": 4178,
      "Ġurgent": 4179,
      "priate": 4180,
      "Ġnaive": 4181,
      "Ġconversation": 4182,
      "Ġincorrect": 4183,
      "Ġcollapsed": 4184,
      "Ġdessert": 4185,
      "Ġstabbed": 4186,
      "Ġtrousers": 4187,
      "Ġunlocked": 4188,
      "Ġunemploy": 4189,
      "Ġdesperate": 4190,
      "ai": 4191,
      "ec": 4192,
      "fact": 4193,
      "gl": 4194,
      "go": 4195,
      "gy": 4196,
      "hm": 4197,
      "hroom": 4198,
      "hib": 4199,
      "ipt": 4200,
      "raced": 4201,
      "tes": 4202,
      "tled": 4203,
      "ump": 4204,
      "val": 4205,
      "what": 4206,
      "Ġver": 4207,
      "Ġtu": 4208,
      "Ġtha": 4209,
      "Ġtap": 4210,
      "Ġtig": 4211,
      "Ġtail": 4212,
      "Ġwa": 4213,
      "Ġwave": 4214,
      "Ġtor": 4215,
      "Ġtore": 4216,
      "Ġsir": 4217,
      "ints": 4218,
      "Ġmix": 4219,
      "Ġdouble": 4220,
      "Ġyard": 4221,
      "Ġbark": 4222,
      "Ġbunch": 4223,
      "Ġbomb": 4224,
      "Ġborders": 4225,
      "vey": 4226,
      "Ġcd": 4227,
      "Ġcy": 4228,
      "Ġcher": 4229,
      "Ġcig": 4230,
      "Ġcough": 4231,
      "Ġloo": 4232,
      "Ġlab": 4233,
      "Ġfile": 4234,
      "Ġfond": 4235,
      "Ġfits": 4236,
      "Ġfashion": 4237,
      "ances": 4238,
      "isher": 4239,
      "lley": 4240,
      "Ġpit": 4241,
      "Ġpond": 4242,
      "Ġpapers": 4243,
      "orked": 4244,
      "orough": 4245,
      "erm": 4246,
      "Ġnie": 4247,
      "Ġgri": 4248,
      "aries": 4249,
      "Ġhig": 4250,
      "Ġiss": 4251,
      "ows": 4252,
      "Ġthorough": 4253,
      "omed": 4254,
      "itam": 4255,
      "Ġweigh": 4256,
      "Ġinfect": 4257,
      "Ġbeef": 4258,
      "Ġbegged": 4259,
      "vering": 4260,
      "Ġsting": 4261,
      "icles": 4262,
      "Ġut": 4263,
      "Ġonline": 4264,
      "Ġformed": 4265,
      "riger": 4266,
      "ades": 4267,
      "ills": 4268,
      "illed": 4269,
      "Ġsevent": 4270,
      "Ġjunk": 4271,
      "irts": 4272,
      "Ġsushi": 4273,
      "Ġaboard": 4274,
      "Ġability": 4275,
      "Ġalice": 4276,
      "Ġrom": 4277,
      "Ġround": 4278,
      "Ġrude": 4279,
      "urd": 4280,
      "Ġspite": 4281,
      "Ġplain": 4282,
      "Ġnodd": 4283,
      "using": 4284,
      "uses": 4285,
      "Ġexting": 4286,
      "Ġfridge": 4287,
      "Ġloan": 4288,
      "Ġloss": 4289,
      "Ġloyal": 4290,
      "istr": 4291,
      "Ġdeli": 4292,
      "Ġworkers": 4293,
      "Ġmanager": 4294,
      "Ġwherever": 4295,
      "Ġpleasure": 4296,
      "Ġconvey": 4297,
      "Ġenv": 4298,
      "ationsh": 4299,
      "Ġvitam": 4300,
      "Ġamount": 4301,
      "Ġpepper": 4302,
      "Ġreads": 4303,
      "Ġbud": 4304,
      "Ġbucket": 4305,
      "Ġprayed": 4306,
      "Ġproof": 4307,
      "Ġpregn": 4308,
      "Ġprevented": 4309,
      "Ġbrush": 4310,
      "ures": 4311,
      "icks": 4312,
      "Ġthoughts": 4313,
      "Ġjoined": 4314,
      "Ġdownstairs": 4315,
      "Ġroommate": 4316,
      "Ġboots": 4317,
      "Ġcomplex": 4318,
      "Ġmustache": 4319,
      "Ġdiss": 4320,
      "Ġswam": 4321,
      "Ġchanging": 4322,
      "Ġpoet": 4323,
      "Ġpoker": 4324,
      "Ġgull": 4325,
      "Ġfled": 4326,
      "Ġflag": 4327,
      "Ġflash": 4328,
      "Ġfinal": 4329,
      "Ġmarri": 4330,
      "Ġcares": 4331,
      "Ġearns": 4332,
      "Ġchest": 4333,
      "Ġcheered": 4334,
      "Ġlately": 4335,
      "Ġaccomp": 4336,
      "Ġseconds": 4337,
      "Ġfoc": 4338,
      "Ġdesert": 4339,
      "Ġshock": 4340,
      "Ġshocked": 4341,
      "Ġmisses": 4342,
      "Ġcolds": 4343,
      "Ġshared": 4344,
      "Ġfully": 4345,
      "Ġsmokes": 4346,
      "Ġkindness": 4347,
      "Ġmushroom": 4348,
      "Ġowned": 4349,
      "Ġstove": 4350,
      "Ġactress": 4351,
      "Ġmusician": 4352,
      "Ġmilitary": 4353,
      "Ġresour": 4354,
      "Ġresist": 4355,
      "Ġdiscour": 4356,
      "Ġterror": 4357,
      "althy": 4358,
      "Ġfarm": 4359,
      "Ġentr": 4360,
      "Ġspec": 4361,
      "Ġrelative": 4362,
      "Ġrelief": 4363,
      "Ġrelationsh": 4364,
      "Ġforehead": 4365,
      "Ġconcrete": 4366,
      "venir": 4367,
      "Ġlargest": 4368,
      "Ġtallest": 4369,
      "Ġtouched": 4370,
      "Ġbabys": 4371,
      "ology": 4372,
      "Ġsometime": 4373,
      "Ġconscious": 4374,
      "Ġguessed": 4375,
      "Ġcomplaints": 4376,
      "Ġslower": 4377,
      "Ġlawn": 4378,
      "Ġdepart": 4379,
      "Ġsweat": 4380,
      "Ġapology": 4381,
      "Ġlesson": 4382,
      "Ġlessons": 4383,
      "Ġcurse": 4384,
      "Ġweekends": 4385,
      "Ġrefriger": 4386,
      "Ġsigned": 4387,
      "Ġexperiment": 4388,
      "Ġgrade": 4389,
      "Ġdiscussion": 4390,
      "Ġarticle": 4391,
      "Ġvoc": 4392,
      "Ġvolley": 4393,
      "Ġsymp": 4394,
      "Ġbills": 4395,
      "Ġfrequ": 4396,
      "Ġprior": 4397,
      "Ġcaptain": 4398,
      "Ġparked": 4399,
      "Ġinformed": 4400,
      "Ġsilent": 4401,
      "Ġfallen": 4402,
      "Ġreceipt": 4403,
      "Ġabsurd": 4404,
      "Ġphotos": 4405,
      "Ġwednes": 4406,
      "Ġseats": 4407,
      "Ġembraced": 4408,
      "Ġapproach": 4409,
      "Ġedge": 4410,
      "Ġdamage": 4411,
      "Ġyelling": 4412,
      "Ġgraduate": 4413,
      "cycle": 4414,
      "Ġrequire": 4415,
      "Ġpermitted": 4416,
      "Ġbeaten": 4417,
      "Ġdiscovery": 4418,
      "Ġhabits": 4419,
      "Ġexaggerating": 4420,
      "Ġfluent": 4421,
      "Ġpossibility": 4422,
      "Ġleader": 4423,
      "Ġpoems": 4424,
      "Ġcollecting": 4425,
      "Ġmirac": 4426,
      "Ġpositive": 4427,
      "Ġrats": 4428,
      "Ġcustomers": 4429,
      "Ġslipp": 4430,
      "Ġresigned": 4431,
      "Ġturning": 4432,
      "Ġstealing": 4433,
      "Ġdeceived": 4434,
      "Ġoverworked": 4435,
      "Ġsurrendered": 4436,
      "Ġmosquitoes": 4437,
      "Ġsoul": 4438,
      "Ġsouvenir": 4439,
      "Ġkilomet": 4440,
      "Ġrumor": 4441,
      "Ġrumors": 4442,
      "Ġcirc": 4443,
      "Ġimpression": 4444,
      "Ġunfair": 4445,
      "Ġvoted": 4446,
      "Ġmodel": 4447,
      "Ġexchange": 4448,
      "Ġreligious": 4449,
      "Ġdisturb": 4450,
      "Ġrussia": 4451,
      "Ġfrankly": 4452,
      "Ġbench": 4453,
      "Ġconstruction": 4454,
      "Ġmamm": 4455,
      "Ġcastle": 4456,
      "Ġstinks": 4457,
      "Ġrejected": 4458,
      "Ġaspir": 4459,
      "Ġjanuary": 4460,
      "Ġchallenge": 4461,
      "ique": 4462,
      "Ġabandoned": 4463,
      "Ġexplos": 4464,
      "Ġcomparison": 4465,
      "Ġpopulation": 4466,
      "Ġresponsibility": 4467,
      "Ġdata": 4468,
      "Ġcitiz": 4469,
      "Ġfifteen": 4470,
      "Ġnonsense": 4471,
      "Ġgigg": 4472,
      "Ġknowledge": 4473,
      "Ġunusual": 4474,
      "Ġmotorcycle": 4475,
      "Ġapplauded": 4476,
      "Ġseventeen": 4477,
      "Ġnodded": 4478,
      "Ġextingu": 4479,
      "Ġrefrigerator": 4480,
      "Ġvolleyball": 4481,
      "Ġwednesday": 4482,
      "Ġkilometers": 4483,
      "ale": 4484,
      "aired": 4485,
      "aire": 4486,
      "bar": 4487,
      "ees": 4488,
      "eight": 4489,
      "fly": 4490,
      "fers": 4491,
      "io": 4492,
      "kn": 4493,
      "look": 4494,
      "lished": 4495,
      "me": 4496,
      "men": 4497,
      "mates": 4498,
      "ocked": 4499,
      "par": 4500,
      "ti": 4501,
      "uce": 4502,
      "walk": 4503,
      "wort": 4504,
      "water": 4505,
      "xy": 4506,
      "yle": 4507,
      "zzy": 4508,
      "Ġtar": 4509,
      "Ġtune": 4510,
      "Ġip": 4511,
      "Ġwol": 4512,
      "Ġwide": 4513,
      "Ġwrest": 4514,
      "Ġsin": 4515,
      "Ġsill": 4516,
      "Ġsouth": 4517,
      "rer": 4518,
      "Ġmask": 4519,
      "Ġdawn": 4520,
      "onent": 4521,
      "Ġbree": 4522,
      "Ġbak": 4523,
      "Ġbare": 4524,
      "Ġblew": 4525,
      "Ġcaut": 4526,
      "Ġcities": 4527,
      "Ġlap": 4528,
      "Ġfas": 4529,
      "Ġfant": 4530,
      "Ġfake": 4531,
      "Ġfate": 4532,
      "Ġfought": 4533,
      "Ġfurious": 4534,
      "Ġpi": 4535,
      "Ġpet": 4536,
      "Ġpal": 4537,
      "Ġpounds": 4538,
      "Ġnort": 4539,
      "arc": 4540,
      "Ġhint": 4541,
      "Ġhamb": 4542,
      "owed": 4543,
      "Ġthie": 4544,
      "Ġdom": 4545,
      "omfortable": 4546,
      "etite": 4547,
      "ites": 4548,
      "itable": 4549,
      "itting": 4550,
      "Ġinvent": 4551,
      "Ġbeans": 4552,
      "lept": 4553,
      "Ġwasting": 4554,
      "Ġwasted": 4555,
      "icated": 4556,
      "Ġrev": 4557,
      "Ġliber": 4558,
      "Ġky": 4559,
      "Ġket": 4560,
      "Ġforty": 4561,
      "anted": 4562,
      "Ġknocked": 4563,
      "Ġatm": 4564,
      "Ġshore": 4565,
      "Ġshru": 4566,
      "Ġaloud": 4567,
      "Ġtrap": 4568,
      "Ġtricked": 4569,
      "Ġrank": 4570,
      "urs": 4571,
      "urning": 4572,
      "Ġspag": 4573,
      "Ġspicy": 4574,
      "Ġplate": 4575,
      "usion": 4576,
      "geon": 4577,
      "uled": 4578,
      "Ġdeb": 4579,
      "owning": 4580,
      "Ġagrees": 4581,
      "apore": 4582,
      "Ġarr": 4583,
      "Ġtalkative": 4584,
      "Ġcoins": 4585,
      "Ġmug": 4586,
      "Ġunp": 4587,
      "Ġunable": 4588,
      "Ġvar": 4589,
      "Ġvague": 4590,
      "Ġrolled": 4591,
      "mped": 4592,
      "Ġprime": 4593,
      "Ġlean": 4594,
      "Ġbookstore": 4595,
      "mbles": 4596,
      "agging": 4597,
      "Ġprec": 4598,
      "Ġbraz": 4599,
      "aret": 4600,
      "Ġstartled": 4601,
      "Ġadult": 4602,
      "Ġmoder": 4603,
      "Ġdism": 4604,
      "Ġdizzy": 4605,
      "Ġappeared": 4606,
      "Ġappetite": 4607,
      "Ġoldest": 4608,
      "Ġremained": 4609,
      "Ġgrown": 4610,
      "Ġgrunted": 4611,
      "Ġgranted": 4612,
      "Ġhandwr": 4613,
      "Ġoverre": 4614,
      "ittee": 4615,
      "Ġideal": 4616,
      "izes": 4617,
      "Ġputs": 4618,
      "icted": 4619,
      "Ġawoke": 4620,
      "xteen": 4621,
      "Ġscowled": 4622,
      "Ġhurting": 4623,
      "Ġdoors": 4624,
      "Ġchem": 4625,
      "Ġcheat": 4626,
      "Ġcheek": 4627,
      "Ġaccess": 4628,
      "Ġremembered": 4629,
      "Ġphys": 4630,
      "Ġmeters": 4631,
      "Ġstruck": 4632,
      "Ġstrugg": 4633,
      "Ġsingapore": 4634,
      "Ġslam": 4635,
      "Ġminister": 4636,
      "Ġperform": 4637,
      "Ġwarmer": 4638,
      "Ġlaund": 4639,
      "Ġsmoked": 4640,
      "Ġbegun": 4641,
      "Ġreturning": 4642,
      "Ġ16": 4643,
      "Ġends": 4644,
      "Ġforgetting": 4645,
      "Ġaction": 4646,
      "onscious": 4647,
      "Ġimportance": 4648,
      "Ġkidn": 4649,
      "Ġreservation": 4650,
      "Ġdiscount": 4651,
      "Ġrealistic": 4652,
      "Ġclassical": 4653,
      "Ġspending": 4654,
      "Ġfastest": 4655,
      "Ġincomp": 4656,
      "Ġsunset": 4657,
      "Ġlocated": 4658,
      "Ġinterrup": 4659,
      "Ġcommittee": 4660,
      "Ġbags": 4661,
      "Ġdaughters": 4662,
      "Ġimage": 4663,
      "Ġhumble": 4664,
      "Ġtransfer": 4665,
      "Ġcups": 4666,
      "Ġmessages": 4667,
      "Ġcurrently": 4668,
      "Ġcurtain": 4669,
      "Ġbuildings": 4670,
      "Ġsoldier": 4671,
      "Ġbasement": 4672,
      "Ġprisoner": 4673,
      "Ġeighth": 4674,
      "ground": 4675,
      "Ġpurcha": 4676,
      "Ġheavier": 4677,
      "Ġhonor": 4678,
      "Ġdeterm": 4679,
      "Ġsidewalk": 4680,
      "Ġcerem": 4681,
      "Ġhanging": 4682,
      "iversary": 4683,
      "Ġinstru": 4684,
      "Ġsupportive": 4685,
      "Ġapproved": 4686,
      "Ġappropriate": 4687,
      "Ġpatients": 4688,
      "Ġprotected": 4689,
      "Ġ194": 4690,
      "Ġ197": 4691,
      "Ġirre": 4692,
      "Ġdeeply": 4693,
      "Ġburst": 4694,
      "Ġcows": 4695,
      "Ġnovels": 4696,
      "Ġballoon": 4697,
      "Ġthrowing": 4698,
      "Ġevidence": 4699,
      "Ġstarve": 4700,
      "Ġsquee": 4701,
      "Ġmiser": 4702,
      "Ġcentury": 4703,
      "Ġgenerous": 4704,
      "Ġpretending": 4705,
      "Ġunfortunate": 4706,
      "Ġcreated": 4707,
      "Ġpaintings": 4708,
      "Ġlanded": 4709,
      "Ġanniversary": 4710,
      "Ġrobber": 4711,
      "Ġoperate": 4712,
      "Ġconcerned": 4713,
      "Ġunderest": 4714,
      "Ġindustri": 4715,
      "Ġtoothache": 4716,
      "Ġladder": 4717,
      "Ġpacking": 4718,
      "Ġbowed": 4719,
      "Ġobjection": 4720,
      "Ġastron": 4721,
      "Ġorganized": 4722,
      "Ġpressure": 4723,
      "Ġslaves": 4724,
      "Ġvolunteer": 4725,
      "Ġvolunteered": 4726,
      "Ġfortun": 4727,
      "Ġshouting": 4728,
      "Ġcloudy": 4729,
      "Ġoverweight": 4730,
      "Ġrecovered": 4731,
      "Ġcamping": 4732,
      "Ġclimbing": 4733,
      "Ġessential": 4734,
      "Ġuncomfortable": 4735,
      "Ġextraord": 4736,
      "Ġpillow": 4737,
      "Ġrelevant": 4738,
      "Ġswitch": 4739,
      "Ġswitched": 4740,
      "Ġrequested": 4741,
      "Ġlatest": 4742,
      "Ġsailor": 4743,
      "Ġsailors": 4744,
      "Ġbullet": 4745,
      "hetti": 4746,
      "Ġspanish": 4747,
      "Ġquality": 4748,
      "Ġprovide": 4749,
      "Ġvictory": 4750,
      "Ġpuzzle": 4751,
      "Ġoptimistic": 4752,
      "Ġachieved": 4753,
      "Ġeconomy": 4754,
      "Ġtourist": 4755,
      "Ġpunishment": 4756,
      "Ġdisgusting": 4757,
      "Ġgrapes": 4758,
      "Ġcommunic": 4759,
      "Ġpreparing": 4760,
      "Ġsixteen": 4761,
      "Ġsensitive": 4762,
      "Ġguarantee": 4763,
      "Ġoverslept": 4764,
      "Ġmarket": 4765,
      "Ġgreeted": 4766,
      "Ġmethod": 4767,
      "Ġcriminal": 4768,
      "Ġvegetarian": 4769,
      "Ġrugby": 4770,
      "Ġresponded": 4771,
      "Ġsquirrel": 4772,
      "Ġgifts": 4773,
      "Ġtradition": 4774,
      "Ġafrica": 4775,
      "Ġaccustomed": 4776,
      "Ġappreciated": 4777,
      "Ġstrawber": 4778,
      "Ġvaluable": 4779,
      "Ġunemployed": 4780,
      "Ġcherry": 4781,
      "Ġcigaret": 4782,
      "Ġutter": 4783,
      "Ġpregnant": 4784,
      "Ġgullible": 4785,
      "Ġmarriage": 4786,
      "Ġresources": 4787,
      "Ġentrance": 4788,
      "Ġbabysitter": 4789,
      "Ġaspirin": 4790,
      "worthy": 4791,
      "Ġsilly": 4792,
      "Ġbreeze": 4793,
      "Ġfasc": 4794,
      "Ġfantastic": 4795,
      "Ġnorth": 4796,
      "Ġhambur": 4797,
      "Ġthieves": 4798,
      "Ġshrugged": 4799,
      "Ġspaghetti": 4800,
      "Ġbrazil": 4801,
      "Ġinterrupting": 4802,
      "Ġceremony": 4803,
      ",\"": 4804,
      "bl": 4805,
      "bo": 4806,
      "bs": 4807,
      "bon": 4808,
      "bid": 4809,
      "bum": 4810,
      "bird": 4811,
      "cence": 4812,
      "dom": 4813,
      "eked": 4814,
      "jam": 4815,
      "jud": 4816,
      "ka": 4817,
      "kward": 4818,
      "lter": 4819,
      "nal": 4820,
      "ners": 4821,
      "over": 4822,
      "ram": 4823,
      "tles": 4824,
      "will": 4825,
      "ysters": 4826,
      "zing": 4827,
      "Ġtied": 4828,
      "Ġtask": 4829,
      "Ġways": 4830,
      "Ġapr": 4831,
      "Ġaug": 4832,
      "Ġtoast": 4833,
      "Ġtool": 4834,
      "ouder": 4835,
      "Ġsan": 4836,
      "Ġsarc": 4837,
      "rep": 4838,
      "rely": 4839,
      "inting": 4840,
      "inated": 4841,
      "inistr": 4842,
      "hab": 4843,
      "Ġmic": 4844,
      "Ġmort": 4845,
      "Ġmerc": 4846,
      "Ġda": 4847,
      "Ġyaw": 4848,
      "Ġba": 4849,
      "Ġble": 4850,
      "Ġbone": 4851,
      "Ġbaking": 4852,
      "Ġcared": 4853,
      "Ġciv": 4854,
      "Ġtomato": 4855,
      "Ġlame": 4856,
      "Ġlouder": 4857,
      "eding": 4858,
      "Ġfir": 4859,
      "ansp": 4860,
      "isc": 4861,
      "isions": 4862,
      "Ġpoo": 4863,
      "Ġpear": 4864,
      "Ġpard": 4865,
      "Ġpier": 4866,
      "oring": 4867,
      "eral": 4868,
      "Ġge": 4869,
      "Ġgain": 4870,
      "Ġgree": 4871,
      "Ġhaw": 4872,
      "owers": 4873,
      "esome": 4874,
      "Ġoysters": 4875,
      "eters": 4876,
      "itor": 4877,
      "itate": 4878,
      "Ġeast": 4879,
      "oth": 4880,
      "oti": 4881,
      "oto": 4882,
      "Ġbeware": 4883,
      "sticks": 4884,
      "Ġmeasure": 4885,
      "Ġstro": 4886,
      "Ġstress": 4887,
      "Ġstyle": 4888,
      "icke": 4889,
      "icipated": 4890,
      "Ġlim": 4891,
      "Ġlion": 4892,
      "Ġkore": 4893,
      "Ġkicked": 4894,
      "imeters": 4895,
      "Ġfork": 4896,
      "Ġforce": 4897,
      "Ġforbid": 4898,
      "Ġcanadi": 4899,
      "Ġgoss": 4900,
      "Ġknot": 4901,
      "Ġwhiche": 4902,
      "Ġknowing": 4903,
      "acu": 4904,
      "achache": 4905,
      "rog": 4906,
      "Ġsheet": 4907,
      "Ġshelter": 4908,
      "Ġwithin": 4909,
      "Ġsew": 4910,
      "Ġsepar": 4911,
      "Ġjam": 4912,
      "Ġshots": 4913,
      "Ġshining": 4914,
      "Ġshirts": 4915,
      "Ġsuffe": 4916,
      "Ġabst": 4917,
      "Ġabused": 4918,
      "eable": 4919,
      "Ġalbum": 4920,
      "Ġtrack": 4921,
      "Ġtransp": 4922,
      "Ġrow": 4923,
      "Ġrap": 4924,
      "Ġrush": 4925,
      "Ġtech": 4926,
      "ctions": 4927,
      "Ġsober": 4928,
      "endar": 4929,
      "rene": 4930,
      "ilities": 4931,
      "Ġoutdo": 4932,
      "Ġupside": 4933,
      "Ġsomeplace": 4934,
      "arten": 4935,
      "acks": 4936,
      "istry": 4937,
      "Ġdefe": 4938,
      "Ġdelet": 4939,
      "olars": 4940,
      "Ġworker": 4941,
      "Ġmanual": 4942,
      "Ġgoodnight": 4943,
      "Ġaffect": 4944,
      "Ġpleasant": 4945,
      "Ġconn": 4946,
      "Ġcondu": 4947,
      "Ġenvel": 4948,
      "Ġproved": 4949,
      "Ġprohib": 4950,
      "Ġstubb": 4951,
      "igil": 4952,
      "igence": 4953,
      "Ġclue": 4954,
      "Ġuniver": 4955,
      "Ġvir": 4956,
      "Ġvigil": 4957,
      "Ġroll": 4958,
      "Ġrocks": 4959,
      "mps": 4960,
      "Ġbooked": 4961,
      "ckets": 4962,
      "Ġriot": 4963,
      "Ġprefers": 4964,
      "Ġbran": 4965,
      "Ġbrand": 4966,
      "ective": 4967,
      "Ġjoy": 4968,
      "Ġwaiter": 4969,
      "agement": 4970,
      "Ġmoves": 4971,
      "Ġscholars": 4972,
      "Ġblog": 4973,
      "Ġblamed": 4974,
      "Ġblushed": 4975,
      "Ġdisli": 4976,
      "Ġdislike": 4977,
      "Ġplanets": 4978,
      "Ġapply": 4979,
      "Ġchances": 4980,
      "Ġpockets": 4981,
      "Ġgrin": 4982,
      "Ġgram": 4983,
      "Ġharvest": 4984,
      "Ġflour": 4985,
      "Ġawkward": 4986,
      "Ġawesome": 4987,
      "Ġmarbles": 4988,
      "Ġscot": 4989,
      "Ġscold": 4990,
      "Ġdecent": 4991,
      "Ġpoland": 4992,
      "Ġcheaper": 4993,
      "Ġcheating": 4994,
      "Ġengland": 4995,
      "Ġaccur": 4996,
      "Ġbreast": 4997,
      "Ġremembers": 4998,
      "nob": 4999,
      "Ġsleeps": 5000,
      "Ġuseless": 5001,
      "Ġsits": 5002,
      "Ġcleared": 5003,
      "Ġbreaks": 5004,
      "Ġshoe": 5005,
      "Ġmission": 5006,
      "Ġadvise": 5007,
      "Ġarrives": 5008,
      "Ġarrival": 5009,
      "Ġrepaired": 5010,
      "Ġrested": 5011,
      "Ġpainful": 5012,
      "Ġkinderg": 5013,
      "Ġhunter": 5014,
      "Ġskate": 5015,
      "Ġskirt": 5016,
      "Ġpromises": 5017,
      "Ġgreatest": 5018,
      "liable": 5019,
      "Ġstock": 5020,
      "Ġhobb": 5021,
      "Ġchamp": 5022,
      "Ġactive": 5023,
      "onsider": 5024,
      "Ġimported": 5025,
      "Ġcrust": 5026,
      "Ġcrack": 5027,
      "Ġserved": 5028,
      "Ġresisted": 5029,
      "Ġfireman": 5030,
      "upied": 5031,
      "Ġheads": 5032,
      "Ġobed": 5033,
      "Ġobst": 5034,
      "Ġbites": 5035,
      "Ġtribe": 5036,
      "Ġtripped": 5037,
      "Ġpengu": 5038,
      "Ġsecretive": 5039,
      "Ġdreaming": 5040,
      "pecially": 5041,
      "Ġlaughs": 5042,
      "Ġokay": 5043,
      "Ġinterp": 5044,
      "Ġpathet": 5045,
      "Ġpattern": 5046,
      "Ġwalls": 5047,
      "Ġfacebook": 5048,
      "Ġhoriz": 5049,
      "Ġhugged": 5050,
      "lings": 5051,
      "Ġregister": 5052,
      "Ġconserv": 5053,
      "Ġconsists": 5054,
      "Ġborder": 5055,
      "Ġclothing": 5056,
      "Ġsales": 5057,
      "Ġsalty": 5058,
      "Ġpolitical": 5059,
      "Ġcandid": 5060,
      "Ġespecially": 5061,
      "Ġcalendar": 5062,
      "Ġworrying": 5063,
      "Ġdifferently": 5064,
      "Ġsettled": 5065,
      "Ġsending": 5066,
      "Ġcurrent": 5067,
      "Ġgrowth": 5068,
      "Ġhidden": 5069,
      "Ġadministr": 5070,
      "Ġgrades": 5071,
      "Ġcoun": 5072,
      "Ġmedication": 5073,
      "Ġeighteen": 5074,
      "Ġpurse": 5075,
      "Ġcameras": 5076,
      "Ġchairman": 5077,
      "Ġcorrectly": 5078,
      "ivid": 5079,
      "ivity": 5080,
      "Ġruined": 5081,
      "Ġdisappoint": 5082,
      "Ġoppos": 5083,
      "Ġopposed": 5084,
      "Ġopponent": 5085,
      "Ġpicky": 5086,
      "Ġbehaved": 5087,
      "Ġroads": 5088,
      "Ġdeserves": 5089,
      "Ġcops": 5090,
      "Ġdamp": 5091,
      "Ġdamaged": 5092,
      "Ġyelled": 5093,
      "Ġrequired": 5094,
      "Ġcrossed": 5095,
      "Ġdemocr": 5096,
      "Ġburns": 5097,
      "Ġevacu": 5098,
      "Ġexercised": 5099,
      "Ġdependent": 5100,
      "Ġmagic": 5101,
      "Ġcentimeters": 5102,
      "Ġinnocence": 5103,
      "cript": 5104,
      "Ġexaggerate": 5105,
      "Ġexaggeration": 5106,
      "Ġcreative": 5107,
      "Ġcreature": 5108,
      "Ġsteep": 5109,
      "Ġstepped": 5110,
      "Ġexception": 5111,
      "Ġerr": 5112,
      "Ġmotion": 5113,
      "Ġmotiv": 5114,
      "Ġrobot": 5115,
      "Ġbutterfly": 5116,
      "Ġfiles": 5117,
      "Ġstomachache": 5118,
      "Ġconditions": 5119,
      "Ġpersuaded": 5120,
      "Ġshares": 5121,
      "Ġdestiny": 5122,
      "Ġcabin": 5123,
      "Ġpackage": 5124,
      "Ġdisagree": 5125,
      "Ġpoisoned": 5126,
      "Ġautumn": 5127,
      "Ġfund": 5128,
      "Ġneglect": 5129,
      "Ġnegoti": 5130,
      "Ġmagazines": 5131,
      "Ġasthm": 5132,
      "Ġvehicles": 5133,
      "Ġanticipated": 5134,
      "Ġengineer": 5135,
      "Ġprofessional": 5136,
      "Ġmillionaire": 5137,
      "Ġaudio": 5138,
      "Ġfrog": 5139,
      "Ġfrozen": 5140,
      "Ġdocuments": 5141,
      "Ġscarf": 5142,
      "Ġillegible": 5143,
      "Ġaimed": 5144,
      "Ġlacks": 5145,
      "Ġhumiliating": 5146,
      "Ġmajority": 5147,
      "handed": 5148,
      "Ġdigging": 5149,
      "Ġlatin": 5150,
      "Ġassistant": 5151,
      "Ġexchanged": 5152,
      "Ġreligion": 5153,
      "Ġdisturbed": 5154,
      "Ġdestroy": 5155,
      "Ġdestroyed": 5156,
      "Ġcongratulated": 5157,
      "Ġrabbits": 5158,
      "Ġgamble": 5159,
      "Ġmexico": 5160,
      "Ġmexican": 5161,
      "Ġresembles": 5162,
      "Ġdelayed": 5163,
      "Ġfinancially": 5164,
      "Ġcheerful": 5165,
      "Ġattempted": 5166,
      "Ġincrease": 5167,
      "Ġcelebrate": 5168,
      "Ġsearching": 5169,
      "Ġachieve": 5170,
      "Ġalcoholic": 5171,
      "Ġdevice": 5172,
      "Ġdrugs": 5173,
      "Ġstrictly": 5174,
      "Ġmisunderstanding": 5175,
      "Ġbanana": 5176,
      "Ġbananas": 5177,
      "Ġwhales": 5178,
      "Ġwiser": 5179,
      "Ġchopsticks": 5180,
      "Ġcontributed": 5181,
      "Ġdespise": 5182,
      "Ġpostpone": 5183,
      "Ġoccasions": 5184,
      "Ġoccurred": 5185,
      "Ġpronounce": 5186,
      "Ġtolerate": 5187,
      "Ġthreatened": 5188,
      "Ġproperly": 5189,
      "Ġsurfing": 5190,
      "Ġdemanded": 5191,
      "Ġautomo": 5192,
      "Ġhypocr": 5193,
      "Ġarguing": 5194,
      "Ġcockro": 5195,
      "Ġbritish": 5196,
      "Ġapplication": 5197,
      "Ġgreedy": 5198,
      "Ġacquired": 5199,
      "Ġhummingbird": 5200,
      "Ġirritated": 5201,
      "Ġmemorize": 5202,
      "going": 5203,
      "Ġtigers": 5204,
      "Ġwaved": 5205,
      "Ġbudget": 5206,
      "Ġrelationship": 5207,
      "Ġsympath": 5208,
      "Ġfrequently": 5209,
      "Ġslippery": 5210,
      "Ġmammals": 5211,
      "Ġexplosion": 5212,
      "Ġcitizens": 5213,
      "known": 5214,
      "Ġtarget": 5215,
      "Ġkyoto": 5216,
      "Ġkettle": 5217,
      "Ġprecise": 5218,
      "Ġhandwriting": 5219,
      "Ġchemistry": 5220,
      "Ġpurchase": 5221,
      "Ġindustrial": 5222,
      "Ġaugust": 5223,
      "Ġsarcastic": 5224,
      "Ġpardon": 5225,
      "Ġforbidden": 5226,
      "Ġcanadians": 5227,
      "Ġwhichever": 5228,
      "Ġsuffered": 5229,
      "Ġoutdoors": 5230,
      "Ġenvelope": 5231,
      "Ġstubborn": 5232,
      "Ġuniverse": 5233,
      "Ġkindergarten": 5234,
      "Ġhobbies": 5235,
      "Ġpenguin": 5236,
      "Ġpathetic": 5237,
      "Ġconservative": 5238,
      "Ġdemocracy": 5239,
      "Ġasthma": 5240,
      "bable": 5241,
      "bled": 5242,
      "cam": 5243,
      "dream": 5244,
      "dka": 5245,
      "eans": 5246,
      "fy": 5247,
      "fish": 5248,
      "gly": 5249,
      "hold": 5250,
      "ik": 5251,
      "iant": 5252,
      "ium": 5253,
      "ivor": 5254,
      "kk": 5255,
      "knob": 5256,
      "lers": 5257,
      "min": 5258,
      "mble": 5259,
      "mail": 5260,
      "nel": 5261,
      "native": 5262,
      "ole": 5263,
      "pea": 5264,
      "phan": 5265,
      "pered": 5266,
      "phab": 5267,
      "rom": 5268,
      "sing": 5269,
      "than": 5270,
      "und": 5271,
      "ufact": 5272,
      "wh": 5273,
      "wise": 5274,
      "you": 5275,
      "Ġvers": 5276,
      "Ġtag": 5277,
      "Ġtire": 5278,
      "hest": 5279,
      "Ġwid": 5280,
      "Ġsow": 5281,
      "Ġsink": 5282,
      "Ġsig": 5283,
      "res": 5284,
      "real": 5285,
      "inar": 5286,
      "inched": 5287,
      "has": 5288,
      "Ġmp": 5289,
      "Ġmr": 5290,
      "Ġmer": 5291,
      "Ġmal": 5292,
      "Ġmigr": 5293,
      "Ġded": 5294,
      "Ġdried": 5295,
      "Ġdare": 5296,
      "Ġduck": 5297,
      "Ġdug": 5298,
      "oning": 5299,
      "onment": 5300,
      "Ġbon": 5301,
      "Ġbang": 5302,
      "Ġbible": 5303,
      "Ġbased": 5304,
      "Ġchat": 5305,
      "Ġcot": 5306,
      "Ġcure": 5307,
      "Ġfest": 5308,
      "Ġfum": 5309,
      "Ġfaces": 5310,
      "ishes": 5311,
      "lling": 5312,
      "Ġpad": 5313,
      "Ġport": 5314,
      "Ġpave": 5315,
      "Ġpath": 5316,
      "Ġpens": 5317,
      "orge": 5318,
      "orate": 5319,
      "orian": 5320,
      "ene": 5321,
      "Ġheave": 5322,
      "ero": 5323,
      "Ġnin": 5324,
      "Ġner": 5325,
      "Ġnation": 5326,
      "arch": 5327,
      "Ġhoney": 5328,
      "asing": 5329,
      "Ġthri": 5330,
      "ester": 5331,
      "Ġdozen": 5332,
      "atic": 5333,
      "Ġoven": 5334,
      "Ġodd": 5335,
      "Ġomel": 5336,
      "omic": 5337,
      "etic": 5338,
      "etch": 5339,
      "ette": 5340,
      "itches": 5341,
      "Ġinsp": 5342,
      "Ġinev": 5343,
      "ids": 5344,
      "Ġbee": 5345,
      "lded": 5346,
      "Ġanger": 5347,
      "str": 5348,
      "stances": 5349,
      "vert": 5350,
      "keys": 5351,
      "Ġstir": 5352,
      "Ġstren": 5353,
      "Ġsteak": 5354,
      "Ġstare": 5355,
      "Ġstew": 5356,
      "Ġstung": 5357,
      "icag": 5358,
      "Ġufo": 5359,
      "Ġugly": 5360,
      "Ġreve": 5361,
      "Ġrefe": 5362,
      "Ġreact": 5363,
      "Ġliar": 5364,
      "Ġkar": 5365,
      "Ġnep": 5366,
      "Ġneat": 5367,
      "antic": 5368,
      "Ġknit": 5369,
      "rieked": 5370,
      "ady": 5371,
      "ading": 5372,
      "adem": 5373,
      "enth": 5374,
      "entive": 5375,
      "acing": 5376,
      "acter": 5377,
      "Ġjun": 5378,
      "Ġjew": 5379,
      "Ġjung": 5380,
      "Ġjeans": 5381,
      "iring": 5382,
      "iration": 5383,
      "ironment": 5384,
      "Ġshrieked": 5385,
      "aint": 5386,
      "eaked": 5387,
      "Ġali": 5388,
      "Ġalib": 5389,
      "Ġalphab": 5390,
      "Ġtray": 5391,
      "Ġtrout": 5392,
      "Ġtrait": 5393,
      "Ġtrash": 5394,
      "Ġtromb": 5395,
      "Ġrot": 5396,
      "Ġrome": 5397,
      "urous": 5398,
      "urable": 5399,
      "cely": 5400,
      "Ġspin": 5401,
      "Ġspell": 5402,
      "Ġtex": 5403,
      "Ġworn": 5404,
      "cted": 5405,
      "Ġplastic": 5406,
      "renic": 5407,
      "Ġexit": 5408,
      "Ġuses": 5409,
      "Ġoutlaw": 5410,
      "Ġfrowned": 5411,
      "ested": 5412,
      "Ġlog": 5413,
      "Ġdeck": 5414,
      "Ġdevel": 5415,
      "Ġchicag": 5416,
      "Ġmanufact": 5417,
      "Ġque": 5418,
      "Ġcarbon": 5419,
      "Ġcomments": 5420,
      "Ġconce": 5421,
      "Ġconven": 5422,
      "Ġenorm": 5423,
      "apless": 5424,
      "Ġarrow": 5425,
      "Ġarab": 5426,
      "Ġproceed": 5427,
      "Ġcoal": 5428,
      "Ġmud": 5429,
      "Ġmugged": 5430,
      "Ġclum": 5431,
      "Ġclapped": 5432,
      "Ġunion": 5433,
      "Ġunlock": 5434,
      "Ġunknown": 5435,
      "els": 5436,
      "elt": 5437,
      "Ġbackground": 5438,
      "Ġprim": 5439,
      "Ġleather": 5440,
      "Ġlemon": 5441,
      "Ġbush": 5442,
      "Ġoffended": 5443,
      "Ġripped": 5444,
      "Ġbrus": 5445,
      "Ġbrace": 5446,
      "icky": 5447,
      "Ġdaydream": 5448,
      "Ġundert": 5449,
      "Ġmayor": 5450,
      "Ġtwisted": 5451,
      "urned": 5452,
      "Ġrooms": 5453,
      "Ġboiling": 5454,
      "Ġcompos": 5455,
      "Ġcomplic": 5456,
      "Ġcomprom": 5457,
      "Ġmole": 5458,
      "Ġschiz": 5459,
      "Ġbless": 5460,
      "Ġblond": 5461,
      "Ġbluff": 5462,
      "Ġdisney": 5463,
      "Ġplanned": 5464,
      "Ġswore": 5465,
      "Ġswear": 5466,
      "Ġswans": 5467,
      "Ġdies": 5468,
      "Ġdiab": 5469,
      "umed": 5470,
      "Ġguard": 5471,
      "kespea": 5472,
      "aceans": 5473,
      "Ġbecomes": 5474,
      "izing": 5475,
      "ization": 5476,
      "Ġputting": 5477,
      "Ġfinance": 5478,
      "Ġreasoning": 5479,
      "Ġunderstanding": 5480,
      "Ġcareer": 5481,
      "Ġscary": 5482,
      "Ġotherwise": 5483,
      "Ġearn": 5484,
      "Ġrainy": 5485,
      "Ġdoorknob": 5486,
      "Ġkeeping": 5487,
      "Ġengaged": 5488,
      "Ġbreeds": 5489,
      "Ġquestioned": 5490,
      "Ġcamels": 5491,
      "Ġsurr": 5492,
      "Ġsurgeon": 5493,
      "Ġphr": 5494,
      "Ġmetal": 5495,
      "Ġshows": 5496,
      "Ġattentive": 5497,
      "Ġmater": 5498,
      "Ġstrang": 5499,
      "Ġstrapless": 5500,
      "Ġsings": 5501,
      "Ġelb": 5502,
      "Ġslim": 5503,
      "Ġslapped": 5504,
      "bell": 5505,
      "Ġsnee": 5506,
      "Ġsneaked": 5507,
      "Ġminor": 5508,
      "Ġrunner": 5509,
      "Ġbiggest": 5510,
      "iped": 5511,
      "Ġarriving": 5512,
      "Ġshad": 5513,
      "Ġshakespea": 5514,
      "Ġbroom": 5515,
      "Ġfuneral": 5516,
      "Ġcounts": 5517,
      "Ġreconsider": 5518,
      "Ġsmooth": 5519,
      "Ġretire": 5520,
      "Ġowns": 5521,
      "Ġowner": 5522,
      "Ġprompt": 5523,
      "Ġacadem": 5524,
      "Ġhokk": 5525,
      "Ġactions": 5526,
      "Ġtowards": 5527,
      "Ġcru": 5528,
      "Ġdriven": 5529,
      "Ġresc": 5530,
      "Ġresched": 5531,
      "Ġsnows": 5532,
      "Ġclassmates": 5533,
      "Ġdresses": 5534,
      "ups": 5535,
      "Ġfasten": 5536,
      "Ġven": 5537,
      "Ġcleaner": 5538,
      "Ġentrep": 5539,
      "Ġrelie": 5540,
      "Ġflows": 5541,
      "Ġgladly": 5542,
      "Ġeyesight": 5543,
      "Ġtrips": 5544,
      "Ġcorn": 5545,
      "Ġlocals": 5546,
      "Ġcutting": 5547,
      "osphere": 5548,
      "Ġsafely": 5549,
      "Ġdollar": 5550,
      "Ġemphas": 5551,
      "ients": 5552,
      "Ġtesting": 5553,
      "Ġtestify": 5554,
      "phoon": 5555,
      "phones": 5556,
      "Ġhorror": 5557,
      "Ġgrandson": 5558,
      "Ġterrified": 5559,
      "Ġcomplains": 5560,
      "Ġhumans": 5561,
      "Ġcalcul": 5562,
      "Ġluckily": 5563,
      "Ġchristian": 5564,
      "Ġexperi": 5565,
      "Ġbelonged": 5566,
      "Ġbelongings": 5567,
      "Ġimagination": 5568,
      "Ġmedical": 5569,
      "Ġartific": 5570,
      "Ġvodka": 5571,
      "Ġprotested": 5572,
      "Ġfourth": 5573,
      "Ġfreed": 5574,
      "Ġdetective": 5575,
      "Ġcaptured": 5576,
      "Ġpunched": 5577,
      "Ġabsor": 5578,
      "Ġsurvivor": 5579,
      "Ġignoring": 5580,
      "Ġtemper": 5581,
      "Ġemot": 5582,
      "Ġriding": 5583,
      "Ġreported": 5584,
      "Ġdisappointing": 5585,
      "Ġbankrupt": 5586,
      "Ġsupported": 5587,
      "Ġpencils": 5588,
      "Ġtranslation": 5589,
      "Ġmurde": 5590,
      "Ġ1950": 5591,
      "Ġtyphoon": 5592,
      "Ġwelcomed": 5593,
      "Ġdownloading": 5594,
      "Ġdoub": 5595,
      "Ġdeepest": 5596,
      "Ġconsidering": 5597,
      "Ġedison": 5598,
      "Ġbarber": 5599,
      "Ġbarbar": 5600,
      "Ġburgl": 5601,
      "rolog": 5602,
      "Ġwooden": 5603,
      "Ġloses": 5604,
      "Ġcontacted": 5605,
      "Ġcalmly": 5606,
      "Ġdemanding": 5607,
      "ogram": 5608,
      "Ġstarving": 5609,
      "Ġamazed": 5610,
      "Ġsquinted": 5611,
      "Ġsuits": 5612,
      "Ġsuitcases": 5613,
      "Ġcloset": 5614,
      "Ġclosest": 5615,
      "Ġgeneral": 5616,
      "Ġgeneration": 5617,
      "Ġpudd": 5618,
      "Ġwebcam": 5619,
      "Ġsharks": 5620,
      "Ġvolume": 5621,
      "Ġintroduction": 5622,
      "aido": 5623,
      "Ġtopic": 5624,
      "Ġpublished": 5625,
      "Ġpowerful": 5626,
      "Ġinviting": 5627,
      "Ġearthquakes": 5628,
      "Ġnormally": 5629,
      "Ġattracted": 5630,
      "Ġpredicted": 5631,
      "Ġsorted": 5632,
      "Ġladies": 5633,
      "Ġfailure": 5634,
      "Ġremarks": 5635,
      "Ġviolence": 5636,
      "Ġfuel": 5637,
      "Ġnegative": 5638,
      "Ġobjected": 5639,
      "Ġtextbooks": 5640,
      "Ġreminds": 5641,
      "Ġparticip": 5642,
      "Ġrepeated": 5643,
      "Ġinternational": 5644,
      "Ġannoyed": 5645,
      "Ġshooting": 5646,
      "Ġphotographer": 5647,
      "Ġfroze": 5648,
      "Ġweapons": 5649,
      "Ġshouted": 5650,
      "Ġdecember": 5651,
      "Ġcompetition": 5652,
      "Ġcompetitions": 5653,
      "Ġcellphone": 5654,
      "Ġkilogram": 5655,
      "Ġsavings": 5656,
      "Ġunconscious": 5657,
      "Ġapplied": 5658,
      "Ġcircle": 5659,
      "Ġproduct": 5660,
      "Ġdirectly": 5661,
      "Ġwhiskey": 5662,
      "Ġwhispered": 5663,
      "Ġcongratulate": 5664,
      "Ġcorporal": 5665,
      "chair": 5666,
      "Ġestab": 5667,
      "Ġgambling": 5668,
      "Ġattempt": 5669,
      "Ġreplied": 5670,
      "Ġequal": 5671,
      "Ġeffective": 5672,
      "Ġadventure": 5673,
      "Ġadventurous": 5674,
      "Ġmisunderstood": 5675,
      "Ġwhale": 5676,
      "Ġinclud": 5677,
      "Ġpostponed": 5678,
      "Ġoccasion": 5679,
      "Ġfaithful": 5680,
      "Ġwinked": 5681,
      "Ġbalance": 5682,
      "ophrenic": 5683,
      "Ġcarpet": 5684,
      "Ġclaimed": 5685,
      "Ġvanished": 5686,
      "Ġharmful": 5687,
      "Ġscorpion": 5688,
      "Ġscorpions": 5689,
      "Ġinsulted": 5690,
      "Ġdetailed": 5691,
      "Ġinvestigation": 5692,
      "Ġencouraged": 5693,
      "Ġgentleman": 5694,
      "Ġmentally": 5695,
      "Ġstatue": 5696,
      "Ġjournal": 5697,
      "Ġsumo": 5698,
      "Ġoriginal": 5699,
      "Ġpraised": 5700,
      "Ġscratched": 5701,
      "Ġsunburned": 5702,
      "Ġregardless": 5703,
      "Ġcrawl": 5704,
      "Ġinflu": 5705,
      "Ġannounced": 5706,
      "Ġthai": 5707,
      "Ġwaist": 5708,
      "Ġloop": 5709,
      "Ġgrilled": 5710,
      "Ġinfected": 5711,
      "Ġenvironment": 5712,
      "Ġvitamin": 5713,
      "Ġaccompany": 5714,
      "Ġmushrooms": 5715,
      "Ġterrorists": 5716,
      "Ġrelatives": 5717,
      "Ġdeparture": 5718,
      "Ġapproaching": 5719,
      "Ġmiracle": 5720,
      "Ġgiggled": 5721,
      "Ġextinguisher": 5722,
      "Ġbakery": 5723,
      "Ġatmosphere": 5724,
      "Ġmodern": 5725,
      "Ġstruggled": 5726,
      "Ġlaundry": 5727,
      "Ġdetermined": 5728,
      "Ġastronaut": 5729,
      "Ġfortunate": 5730,
      "Ġextraordinary": 5731,
      "Ġstrawberries": 5732,
      "Ġcigarettes": 5733,
      "Ġutterly": 5734,
      "Ġapron": 5735,
      "Ġdaily": 5736,
      "Ġbleeding": 5737,
      "Ġfirm": 5738,
      "Ġhawai": 5739,
      "Ġlimited": 5740,
      "Ġkorean": 5741,
      "Ġrapid": 5742,
      "Ġtechn": 5743,
      "Ġconnected": 5744,
      "Ġprohibited": 5745,
      "Ġvigilant": 5746,
      "Ġscholarship": 5747,
      "Ġdisliked": 5748,
      "Ġcrustaceans": 5749,
      "Ġhorizon": 5750,
      "Ġerrors": 5751,
      "Ġautomobile": 5752,
      "Ġcockroaches": 5753,
      "minute": 5754,
      "Ġmigrain": 5755,
      "Ġdedicated": 5756,
      "Ġfestival": 5757,
      "Ġpavement": 5758,
      "Ġheaven": 5759,
      "Ġinspiration": 5760,
      "Ġinevitable": 5761,
      "Ġstrength": 5762,
      "Ġjunior": 5763,
      "Ġjungle": 5764,
      "Ġalphabet": 5765,
      "Ġtraitor": 5766,
      "Ġtrombone": 5767,
      "Ġdevelop": 5768,
      "Ġchicago": 5769,
      "Ġconvenient": 5770,
      "Ġenormous": 5771,
      "Ġdaydreaming": 5772,
      "Ġcomplicated": 5773,
      "Ġschizophrenic": 5774,
      "Ġbluffing": 5775,
      "Ġshakespeare": 5776,
      "Ġhokkaido": 5777,
      "Ġentreprene": 5778,
      "Ġartificial": 5779,
      "Ġmurderer": 5780,
      "!\"": 5781,
      "%.": 5782,
      "39": 5783,
      "88": 5784,
      "ah": 5785,
      "avery": 5786,
      "aus": 5787,
      "avor": 5788,
      "bag": 5789,
      "can": 5790,
      "com": 5791,
      "come": 5792,
      "cher": 5793,
      "cake": 5794,
      "cast": 5795,
      "cakes": 5796,
      "cling": 5797,
      "cuff": 5798,
      "equ": 5799,
      "fed": 5800,
      "five": 5801,
      "gage": 5802,
      "gue": 5803,
      "ially": 5804,
      "ipper": 5805,
      "kin": 5806,
      "kle": 5807,
      "kers": 5808,
      "lim": 5809,
      "lace": 5810,
      "lict": 5811,
      "luck": 5812,
      "listed": 5813,
      "my": 5814,
      "met": 5815,
      "mons": 5816,
      "oe": 5817,
      "oved": 5818,
      "ods": 5819,
      "oided": 5820,
      "pa": 5821,
      "ply": 5822,
      "pack": 5823,
      "rm": 5824,
      "rust": 5825,
      "rise": 5826,
      "rument": 5827,
      "sc": 5828,
      "sen": 5829,
      "sak": 5830,
      "sons": 5831,
      "town": 5832,
      "tail": 5833,
      "vated": 5834,
      "vial": 5835,
      "xide": 5836,
      "yard": 5837,
      "âĢ": 5838,
      "Ġtun": 5839,
      "Ġtack": 5840,
      "Ġtails": 5841,
      "Ġiv": 5842,
      "hew": 5843,
      "heart": 5844,
      "healthy": 5845,
      "Ġwings": 5846,
      "Ġwires": 5847,
      "Ġtoaster": 5848,
      "ouch": 5849,
      "Ġsant": 5850,
      "Ġsam": 5851,
      "Ġsake": 5852,
      "Ġsate": 5853,
      "Ġsib": 5854,
      "Ġsides": 5855,
      "reet": 5856,
      "rector": 5857,
      "resent": 5858,
      "inter": 5859,
      "inea": 5860,
      "harm": 5861,
      "Ġmoose": 5862,
      "Ġdish": 5863,
      "Ġdough": 5864,
      "Ġdrew": 5865,
      "Ġtheft": 5866,
      "onven": 5867,
      "onna": 5868,
      "onstr": 5869,
      "Ġbul": 5870,
      "Ġbars": 5871,
      "Ġbache": 5872,
      "Ġbitten": 5873,
      "vember": 5874,
      "verest": 5875,
      "velled": 5876,
      "Ġcage": 5877,
      "Ġcakes": 5878,
      "Ġcem": 5879,
      "Ġcub": 5880,
      "Ġcuri": 5881,
      "Ġlen": 5882,
      "Ġlink": 5883,
      "Ġleak": 5884,
      "Ġloose": 5885,
      "ingu": 5886,
      "inger": 5887,
      "edition": 5888,
      "Ġfal": 5889,
      "Ġfost": 5890,
      "Ġfart": 5891,
      "Ġfab": 5892,
      "Ġfier": 5893,
      "isible": 5894,
      "Ġpant": 5895,
      "Ġpil": 5896,
      "Ġpist": 5897,
      "Ġpork": 5898,
      "Ġpages": 5899,
      "Ġpooper": 5900,
      "Ġpowers": 5901,
      "Ġpharm": 5902,
      "orary": 5903,
      "Ġheal": 5904,
      "erous": 5905,
      "eria": 5906,
      "Ġnag": 5907,
      "Ġnick": 5908,
      "Ġnails": 5909,
      "Ġgather": 5910,
      "Ġgroom": 5911,
      "Ġgoose": 5912,
      "Ġgoof": 5913,
      "Ġgathe": 5914,
      "Ġgorge": 5915,
      "Ġgonna": 5916,
      "Ġginger": 5917,
      "aroo": 5918,
      "Ġhood": 5919,
      "Ġhilar": 5920,
      "Ġhomet": 5921,
      "Ġisol": 5922,
      "Ġthurs": 5923,
      "escri": 5924,
      "Ġdolp": 5925,
      "Ġdozed": 5926,
      "ats": 5927,
      "athing": 5928,
      "ators": 5929,
      "Ġosak": 5930,
      "ompl": 5931,
      "etent": 5932,
      "etery": 5933,
      "iter": 5934,
      "itude": 5935,
      "Ġwealthy": 5936,
      "Ġinha": 5937,
      "Ġitch": 5938,
      "Ġitself": 5939,
      "Ġitem": 5940,
      "Ġec": 5941,
      "Ġep": 5942,
      "Ġeag": 5943,
      "Ġegy": 5944,
      "otion": 5945,
      "Ġbees": 5946,
      "Ġankle": 5947,
      "stand": 5948,
      "Ġstun": 5949,
      "Ġstays": 5950,
      "Ġstret": 5951,
      "Ġstiff": 5952,
      "Ġstitches": 5953,
      "ica": 5954,
      "icing": 5955,
      "icher": 5956,
      "Ġreb": 5957,
      "Ġrein": 5958,
      "Ġrely": 5959,
      "Ġreap": 5960,
      "Ġrept": 5961,
      "Ġreno": 5962,
      "Ġreward": 5963,
      "Ġreliable": 5964,
      "Ġlips": 5965,
      "Ġlimit": 5966,
      "Ġkang": 5967,
      "Ġkitten": 5968,
      "Ġonions": 5969,
      "Ġmyster": 5970,
      "ima": 5971,
      "imid": 5972,
      "Ġford": 5973,
      "sequ": 5974,
      "aly": 5975,
      "alog": 5976,
      "Ġknees": 5977,
      "Ġknelt": 5978,
      "rived": 5979,
      "rigu": 5980,
      "Ġnotes": 5981,
      "ama": 5982,
      "uted": 5983,
      "Ġseas": 5984,
      "Ġsees": 5985,
      "Ġseaf": 5986,
      "Ġatomic": 5987,
      "Ġasse": 5988,
      "Ġjell": 5989,
      "Ġjune": 5990,
      "Ġjury": 5991,
      "Ġshine": 5992,
      "ionate": 5993,
      "ionist": 5994,
      "Ġanytime": 5995,
      "Ġalert": 5996,
      "Ġaltern": 5997,
      "Ġtrou": 5998,
      "Ġtrapped": 5999,
      "Ġrack": 6000,
      "Ġrise": 6001,
      "Ġrail": 6002,
      "Ġruth": 6003,
      "Ġrub": 6004,
      "Ġricher": 6005,
      "celer": 6006,
      "Ġspr": 6007,
      "Ġspect": 6008,
      "Ġspark": 6009,
      "Ġspade": 6010,
      "Ġworries": 6011,
      "Ġplates": 6012,
      "Ġsole": 6013,
      "Ġsock": 6014,
      "Ġsoci": 6015,
      "Ġnovember": 6016,
      "usi": 6017,
      "Ġexec": 6018,
      "ilies": 6019,
      "Ġsafer": 6020,
      "unci": 6021,
      "Ġoutr": 6022,
      "redict": 6023,
      "Ġupon": 6024,
      "ulance": 6025,
      "fere": 6026,
      "asty": 6027,
      "Ġhers": 6028,
      "Ġhappily": 6029,
      "Ġfee": 6030,
      "andfather": 6031,
      "Ġlobby": 6032,
      "Ġloaded": 6033,
      "ategy": 6034,
      "Ġdeer": 6035,
      "Ġjustice": 6036,
      "Ġchim": 6037,
      "Ġchores": 6038,
      "oli": 6039,
      "olks": 6040,
      "Ġquot": 6041,
      "Ġagric": 6042,
      "Ġaggress": 6043,
      "Ġcomic": 6044,
      "Ġcomment": 6045,
      "Ġcomfort": 6046,
      "Ġcomics": 6047,
      "Ġconsent": 6048,
      "Ġconsequ": 6049,
      "Ġenlisted": 6050,
      "aph": 6051,
      "aped": 6052,
      "ept": 6053,
      "epend": 6054,
      "Ġarrog": 6055,
      "Ġprocess": 6056,
      "iforn": 6057,
      "Ġstumbled": 6058,
      "Ġcloud": 6059,
      "Ġunw": 6060,
      "Ġunim": 6061,
      "Ġunint": 6062,
      "Ġunne": 6063,
      "Ġunluck": 6064,
      "Ġunhealthy": 6065,
      "Ġvain": 6066,
      "Ġintimid": 6067,
      "Ġintrigu": 6068,
      "eless": 6069,
      "Ġbackpack": 6070,
      "Ġbackyard": 6071,
      "Ġpean": 6072,
      "Ġroot": 6073,
      "Ġbuzz": 6074,
      "Ġprince": 6075,
      "Ġlevel": 6076,
      "Ġdrowning": 6077,
      "mbol": 6078,
      "agon": 6079,
      "agious": 6080,
      "Ġwrink": 6081,
      "Ġwrist": 6082,
      "Ġripe": 6083,
      "Ġexpedition": 6084,
      "Ġprev": 6085,
      "Ġprevent": 6086,
      "Ġprejud": 6087,
      "Ġsmiles": 6088,
      "Ġbru": 6089,
      "Ġbragging": 6090,
      "thirty": 6091,
      "Ġleap": 6092,
      "osis": 6093,
      "osity": 6094,
      "Ġunderne": 6095,
      "Ġadj": 6096,
      "Ġadvert": 6097,
      "Ġadequ": 6098,
      "ccoli": 6099,
      "Ġdowntown": 6100,
      "abs": 6101,
      "Ġbelt": 6102,
      "Ġblink": 6103,
      "Ġdiso": 6104,
      "acted": 6105,
      "Ġswall": 6106,
      "Ġsword": 6107,
      "Ġswept": 6108,
      "Ġdirector": 6109,
      "Ġschools": 6110,
      "Ġappend": 6111,
      "umstances": 6112,
      "Ġpoll": 6113,
      "Ġpointed": 6114,
      "Ġpoints": 6115,
      "Ġremar": 6116,
      "Ġremains": 6117,
      "Ġremoved": 6118,
      "Ġhandbag": 6119,
      "Ġhandcuff": 6120,
      "Ġoverdo": 6121,
      "Ġflat": 6122,
      "Ġflinched": 6123,
      "Ġflavor": 6124,
      "ressing": 6125,
      "ression": 6126,
      "Ġcattle": 6127,
      "Ġawait": 6128,
      "Ġpaused": 6129,
      "Ġpajam": 6130,
      "Ġfinishes": 6131,
      "Ġfinicky": 6132,
      "Ġmarks": 6133,
      "Ġmarvelled": 6134,
      "Ġimply": 6135,
      "Ġimpol": 6136,
      "Ġimpact": 6137,
      "Ġscore": 6138,
      "Ġscient": 6139,
      "Ġscram": 6140,
      "Ġscene": 6141,
      "Ġmorally": 6142,
      "Ġslee": 6143,
      "Ġmonkeys": 6144,
      "Ġdecline": 6145,
      "Ġdecades": 6146,
      "Ġdecisions": 6147,
      "Ġdoorbell": 6148,
      "Ġfinds": 6149,
      "Ġhatred": 6150,
      "Ġengagement": 6151,
      "Ġaccompl": 6152,
      "Ġdripping": 6153,
      "Ġfriendship": 6154,
      "Ġglanced": 6155,
      "Ġphoning": 6156,
      "Ġfounded": 6157,
      "Ġcontagious": 6158,
      "ulture": 6159,
      "ggy": 6160,
      "Ġtheirs": 6161,
      "Ġfamilies": 6162,
      "Ġattach": 6163,
      "Ġstrategy": 6164,
      "Ġslope": 6165,
      "Ġslavery": 6166,
      "Ġsniff": 6167,
      "Ġsnicke": 6168,
      "Ġsnacks": 6169,
      "Ġdesire": 6170,
      "Ġpayment": 6171,
      "Ġpassing": 6172,
      "Ġcolder": 6173,
      "ficient": 6174,
      "Ġpercept": 6175,
      "Ġshade": 6176,
      "Ġrepub": 6177,
      "Ġreports": 6178,
      "Ġrepresent": 6179,
      "Ġbroccoli": 6180,
      "Ġcounted": 6181,
      "Ġrecipe": 6182,
      "Ġresting": 6183,
      "Ġpainter": 6184,
      "Ġ12": 6185,
      "Ġskip": 6186,
      "Ġskimmed": 6187,
      "Ġskills": 6188,
      "Ġdiner": 6189,
      "Ġtrusts": 6190,
      "Ġtrustworthy": 6191,
      "bercul": 6192,
      "Ġacceler": 6193,
      "Ġacts": 6194,
      "Ġtower": 6195,
      "Ġcris": 6196,
      "Ġcrabs": 6197,
      "Ġsurprises": 6198,
      "Ġserv": 6199,
      "Ġreserve": 6200,
      "Ġfireplace": 6201,
      "Ġsnowed": 6202,
      "Ġassumed": 6203,
      "Ġsounded": 6204,
      "Ġdifficulties": 6205,
      "Ġsmallest": 6206,
      "Ġheading": 6207,
      "iety": 6208,
      "Ġfreezing": 6209,
      "Ġjug": 6210,
      "Ġmommy": 6211,
      "Ġvet": 6212,
      "Ġveter": 6213,
      "Ġlighter": 6214,
      "Ġlightning": 6215,
      "Ġtrial": 6216,
      "Ġtrivial": 6217,
      "Ġincome": 6218,
      "Ġinconven": 6219,
      "Ġcollea": 6220,
      "Ġsunny": 6221,
      "Ġsunrise": 6222,
      "Ġsecretly": 6223,
      "Ġsecretaries": 6224,
      "Ġ25": 6225,
      "Ġdreamed": 6226,
      "Ġelephan": 6227,
      "Ġaddict": 6228,
      "brush": 6229,
      "Ġspoiled": 6230,
      "Ġinterfere": 6231,
      "Ġsolid": 6232,
      "apping": 6233,
      "appro": 6234,
      "Ġnumbers": 6235,
      "Ġagreement": 6236,
      "Ġtests": 6237,
      "Ġcommanding": 6238,
      "ologist": 6239,
      "Ġgrandpa": 6240,
      "Ġshortly": 6241,
      "Ġquitting": 6242,
      "shot": 6243,
      "ships": 6244,
      "Ġregion": 6245,
      "Ġregular": 6246,
      "Ġboxes": 6247,
      "Ġsentences": 6248,
      "Ġcloth": 6249,
      "Ġcomplaint": 6250,
      "Ġblackmail": 6251,
      "ibly": 6252,
      "Ġfloors": 6253,
      "Ġconfir": 6254,
      "Ġconfidence": 6255,
      "Ġconflict": 6256,
      "Ġsimply": 6257,
      "Ġsixty": 6258,
      "Ġfixing": 6259,
      "Ġindescri": 6260,
      "Ġexamine": 6261,
      "Ġdepression": 6262,
      "Ġcalmed": 6263,
      "Ġcalories": 6264,
      "Ġcaliforn": 6265,
      "Ġsmelled": 6266,
      "Ġsweated": 6267,
      "Ġsweets": 6268,
      "Ġcurry": 6269,
      "Ġcursed": 6270,
      "Ġgrows": 6271,
      "Ġavoided": 6272,
      "Ġrefilled": 6273,
      "Ġdistribut": 6274,
      "Ġdistingu": 6275,
      "Ġbribe": 6276,
      "Ġgradually": 6277,
      "Ġdiscussing": 6278,
      "Ġescaping": 6279,
      "Ġbiology": 6280,
      "Ġconvicted": 6281,
      "Ġprotests": 6282,
      "Ġgardening": 6283,
      "Ġumbrellas": 6284,
      "grandfather": 6285,
      "Ġowl": 6286,
      "Ġowes": 6287,
      "Ġsymbol": 6288,
      "Ġfreak": 6289,
      "Ġpurs": 6290,
      "Ġparan": 6291,
      "Ġpoorly": 6292,
      "Ġchairs": 6293,
      "Ġsilk": 6294,
      "Ġfalls": 6295,
      "Ġhangover": 6296,
      "Ġsurvival": 6297,
      "Ġtemple": 6298,
      "Ġtemporary": 6299,
      "Ġunclear": 6300,
      "Ġvacu": 6301,
      "Ġheartb": 6302,
      "Ġtasted": 6303,
      "Ġinstin": 6304,
      "Ġinstrument": 6305,
      "Ġsteps": 6306,
      "Ġstephen": 6307,
      "Ġextent": 6308,
      "Ġruled": 6309,
      "Ġfruits": 6310,
      "Ġcompleted": 6311,
      "Ġpicking": 6312,
      "Ġrisen": 6313,
      "Ġrises": 6314,
      "Ġsituations": 6315,
      "Ġdeserted": 6316,
      "Ġbury": 6317,
      "Ġcowards": 6318,
      "coat": 6319,
      "Ġrented": 6320,
      "Ġgolden": 6321,
      "Ġpracticed": 6322,
      "Ġpractical": 6323,
      "Ġballs": 6324,
      "Ġgasps": 6325,
      "Ġskipped": 6326,
      "Ġzipper": 6327,
      "Ġaffair": 6328,
      "Ġmuseums": 6329,
      "Ġgovernor": 6330,
      "Ġcrossing": 6331,
      "Ġfeeds": 6332,
      "Ġdemonstr": 6333,
      "Ġcharity": 6334,
      "Ġcharacter": 6335,
      "Ġbodygu": 6336,
      "Ġeuros": 6337,
      "Ġexercising": 6338,
      "Ġpossess": 6339,
      "Ġspecialist": 6340,
      "Ġbothering": 6341,
      "Ġoccupied": 6342,
      "Ġsuitable": 6343,
      "Ġscreaming": 6344,
      "Ġaccountant": 6345,
      "Ġrespected": 6346,
      "Ġsuspended": 6347,
      "Ġdrawing": 6348,
      "Ġimprov": 6349,
      "Ġsubjects": 6350,
      "Ġexaggerated": 6351,
      "Ġsteady": 6352,
      "ctioning": 6353,
      "Ġexceptions": 6354,
      "Ġclubs": 6355,
      "Ġeuropean": 6356,
      "Ġpowerless": 6357,
      "Ġannually": 6358,
      "Ġopera": 6359,
      "Ġsticks": 6360,
      "Ġundressing": 6361,
      "Ġappearance": 6362,
      "Ġpacked": 6363,
      "Ġconstant": 6364,
      "Ġconstantly": 6365,
      "Ġappointed": 6366,
      "Ġpoisonous": 6367,
      "Ġpersonality": 6368,
      "Ġtotal": 6369,
      "Ġmentioned": 6370,
      "Ġbowl": 6371,
      "Ġbowling": 6372,
      "Ġobeyed": 6373,
      "Ġbelly": 6374,
      "Ġchickens": 6375,
      "Ġsharpen": 6376,
      "Ġastrolog": 6377,
      "Ġhesitate": 6378,
      "Ġurge": 6379,
      "Ġnotebooks": 6380,
      "Ġreminded": 6381,
      "Ġcheesecake": 6382,
      "Ġtreatment": 6383,
      "Ġopportun": 6384,
      "Ġturkey": 6385,
      "Ġturtles": 6386,
      "Ġantique": 6387,
      "Ġboarded": 6388,
      "Ġlowered": 6389,
      "aneous": 6390,
      "Ġgroans": 6391,
      "Ġgrocer": 6392,
      "Ġcompetent": 6393,
      "Ġscarcely": 6394,
      "Ġglob": 6395,
      "Ġrecover": 6396,
      "Ġcritical": 6397,
      "Ġcontinents": 6398,
      "Ġthousands": 6399,
      "Ġnapole": 6400,
      "Ġordinary": 6401,
      "Ġintelligence": 6402,
      "Ġfurnished": 6403,
      "Ġpills": 6404,
      "Ġrelease": 6405,
      "Ġreleased": 6406,
      "Ġproducts": 6407,
      "Ġpronunci": 6408,
      "Ġimpressive": 6409,
      "Ġbottoms": 6410,
      "Ġjudging": 6411,
      "Ġentirely": 6412,
      "Ġsplit": 6413,
      "Ġbloom": 6414,
      "Ġbloss": 6415,
      "Ġgrabbed": 6416,
      "Ġcorporations": 6417,
      "Ġestate": 6418,
      "Ġnecklace": 6419,
      "Ġrussian": 6420,
      "Ġvictorian": 6421,
      "Ġfinancial": 6422,
      "Ġcontainer": 6423,
      "Ġincreasing": 6424,
      "Ġpuzzles": 6425,
      "Ġconditioner": 6426,
      "foot": 6427,
      "Ġtourists": 6428,
      "Ġcooperation": 6429,
      "Ġcooperating": 6430,
      "Ġeffects": 6431,
      "Ġambition": 6432,
      "Ġambulance": 6433,
      "Ġphotographs": 6434,
      "Ġstrike": 6435,
      "Ġdragged": 6436,
      "Ġtyping": 6437,
      "Ġparticularly": 6438,
      "Ġauthority": 6439,
      "forward": 6440,
      "Ġtends": 6441,
      "Ġhostages": 6442,
      "Ġmelted": 6443,
      "Ġwhistled": 6444,
      "igrants": 6445,
      "Ġclaims": 6446,
      "Ġdrums": 6447,
      "Ġdivided": 6448,
      "Ġinvestigate": 6449,
      "Ġpunctuality": 6450,
      "Ġsource": 6451,
      "Ġculture": 6452,
      "Ġheights": 6453,
      "Ġjourney": 6454,
      "Ġchuckled": 6455,
      "Ġunbear": 6456,
      "Ġprincess": 6457,
      "Ġscratch": 6458,
      "Ġdeclined": 6459,
      "Ġskinny": 6460,
      "Ġannouncer": 6461,
      "Ġpsychic": 6462,
      "Ġtubercul": 6463,
      "Ġtortured": 6464,
      "Ġbarks": 6465,
      "Ġcycling": 6466,
      "Ġniece": 6467,
      "Ġnieces": 6468,
      "Ġhigher": 6469,
      "Ġhighest": 6470,
      "Ġissues": 6471,
      "Ġromantic": 6472,
      "Ġdissol": 6473,
      "Ġflashlight": 6474,
      "Ġfocus": 6475,
      "Ġfocused": 6476,
      "Ġdiscouraged": 6477,
      "Ġspecies": 6478,
      "Ġvocation": 6479,
      "Ġsouvenirs": 6480,
      "Ġcircumstances": 6481,
      "Ġdisturbing": 6482,
      "looking": 6483,
      "Ġipod": 6484,
      "Ġwolves": 6485,
      "Ġbarefoot": 6486,
      "Ġcaution": 6487,
      "Ġrevolution": 6488,
      "Ġliberty": 6489,
      "Ġarrang": 6490,
      "Ġunpredict": 6491,
      "Ġoverreacted": 6492,
      "Ġcheeks": 6493,
      "Ġphysics": 6494,
      "Ġperformance": 6495,
      "Ġincompetent": 6496,
      "Ġtransferred": 6497,
      "Ġinstructions": 6498,
      "Ġ1945": 6499,
      "Ġsqueeze": 6500,
      "Ġmiserably": 6501,
      "Ġrobbery": 6502,
      "Ġunderestimate": 6503,
      "Ġcommunication": 6504,
      "Ġfascinate": 6505,
      "Ġhamburgers": 6506,
      "Ġmortal": 6507,
      "Ġmerciful": 6508,
      "Ġbald": 6509,
      "Ġpierced": 6510,
      "Ġgreece": 6511,
      "Ġstrolled": 6512,
      "Ġgossip": 6513,
      "Ġdefeated": 6514,
      "Ġdelete": 6515,
      "Ġvirus": 6516,
      "Ġgrinned": 6517,
      "Ġscotland": 6518,
      "Ġscolded": 6519,
      "Ġaccuracy": 6520,
      "Ġchampion": 6521,
      "Ġobedience": 6522,
      "Ġobstinate": 6523,
      "Ġinterpre": 6524,
      "Ġcandidate": 6525,
      "Ġcouncil": 6526,
      "Ġcabinet": 6527,
      "Ġfunds": 6528,
      "Ġaudiobooks": 6529,
      "thank": 6530,
      "Ġversion": 6531,
      "Ġsighed": 6532,
      "Ġfuming": 6533,
      "Ġnerves": 6534,
      "Ġomelette": 6535,
      "Ġrevealed": 6536,
      "Ġnephew": 6537,
      "Ġalibi": 6538,
      "Ġrotten": 6539,
      "Ġspinach": 6540,
      "Ġarabic": 6541,
      "Ġclumsy": 6542,
      "Ġbrushes": 6543,
      "Ġcompromise": 6544,
      "Ġmoleh": 6545,
      "Ġsurround": 6546,
      "Ġmaterial": 6547,
      "Ġacademy": 6548,
      "Ġrescheduled": 6549,
      "Ġemphasize": 6550,
      "Ġbarbaric": 6551,
      "Ġburglar": 6552,
      "Ġpudding": 6553,
      "Ġparticipate": 6554,
      "Ġkilograms": 6555,
      "Ġjournalist": 6556,
      "Ġrapidly": 6557,
      "Ġmigraines": 6558,
      "âĢĻ": 6559,
      "Ġsanta": 6560,
      "Ġsatell": 6561,
      "Ġsiblings": 6562,
      "Ġbachel": 6563,
      "Ġcemetery": 6564,
      "Ġcuriosity": 6565,
      "Ġfalse": 6566,
      "Ġfoster": 6567,
      "Ġpistol": 6568,
      "Ġgoofed": 6569,
      "Ġgathered": 6570,
      "Ġgorgeous": 6571,
      "Ġhilarious": 6572,
      "Ġhometown": 6573,
      "Ġisolated": 6574,
      "Ġthursday": 6575,
      "Ġdolph": 6576,
      "Ġosaka": 6577,
      "Ġeagle": 6578,
      "Ġegypt": 6579,
      "Ġreptiles": 6580,
      "Ġkangaroo": 6581,
      "alogue": 6582,
      "Ġseafood": 6583,
      "Ġjelly": 6584,
      "Ġalternative": 6585,
      "Ġruthless": 6586,
      "Ġaggressive": 6587,
      "Ġconsequences": 6588,
      "Ġuninterest": 6589,
      "Ġunnecessary": 6590,
      "Ġunlucky": 6591,
      "Ġunderneath": 6592,
      "Ġadequate": 6593,
      "Ġhandcuffs": 6594,
      "Ġpajamas": 6595,
      "Ġscrambled": 6596,
      "Ġsnickered": 6597,
      "Ġperceptive": 6598,
      "Ġrepublic": 6599,
      "Ġaccelerated": 6600,
      "Ġindescribable": 6601,
      "Ġcalifornia": 6602,
      "Ġastrology": 6603,
      "Ġnapoleon": 6604,
      "Ġtuberculosis": 6605,
      "Ġunpredictable": 6606,
      "03": 6607,
      "15": 6608,
      "40": 6609,
      "aff": 6610,
      "aoke": 6611,
      "brow": 6612,
      "cut": 6613,
      "cook": 6614,
      "chan": 6615,
      "cest": 6616,
      "cles": 6617,
      "cip": 6618,
      "corn": 6619,
      "coming": 6620,
      "ckey": 6621,
      "dge": 6622,
      "dling": 6623,
      "eed": 6624,
      "eor": 6625,
      "east": 6626,
      "ember": 6627,
      "eenth": 6628,
      "fi": 6629,
      "fun": 6630,
      "four": 6631,
      "free": 6632,
      "fty": 6633,
      "fire": 6634,
      "fashion": 6635,
      "fficient": 6636,
      "gen": 6637,
      "gun": 6638,
      "gred": 6639,
      "giving": 6640,
      "great": 6641,
      "hs": 6642,
      "hop": 6643,
      "hog": 6644,
      "husi": 6645,
      "iar": 6646,
      "ipped": 6647,
      "iots": 6648,
      "kind": 6649,
      "lon": 6650,
      "lant": 6651,
      "live": 6652,
      "lies": 6653,
      "laim": 6654,
      "lusion": 6655,
      "lmet": 6656,
      "mo": 6657,
      "ms": 6658,
      "may": 6659,
      "mick": 6660,
      "mare": 6661,
      "mia": 6662,
      "mitted": 6663,
      "nn": 6664,
      "name": 6665,
      "nowled": 6666,
      "of": 6667,
      "occ": 6668,
      "oven": 6669,
      "oxide": 6670,
      "pter": 6671,
      "ples": 6672,
      "pock": 6673,
      "poke": 6674,
      "rit": 6675,
      "rot": 6676,
      "sha": 6677,
      "sion": 6678,
      "sive": 6679,
      "sions": 6680,
      "scri": 6681,
      "the": 6682,
      "tion": 6683,
      "top": 6684,
      "tight": 6685,
      "ties": 6686,
      "tell": 6687,
      "tied": 6688,
      "teen": 6689,
      "tier": 6690,
      "toned": 6691,
      "uing": 6692,
      "umb": 6693,
      "uine": 6694,
      "uries": 6695,
      "ugged": 6696,
      "uction": 6697,
      "vable": 6698,
      "win": 6699,
      "worm": 6700,
      "why": 6701,
      "Ġties": 6702,
      "Ġtips": 6703,
      "Ġtues": 6704,
      "Ġtiny": 6705,
      "Ġiphone": 6706,
      "hend": 6707,
      "helf": 6708,
      "Ġwi": 6709,
      "Ġwo": 6710,
      "Ġwished": 6711,
      "Ġwishing": 6712,
      "Ġwiped": 6713,
      "Ġack": 6714,
      "Ġtoss": 6715,
      "Ġtoys": 6716,
      "oust": 6717,
      "oups": 6718,
      "Ġske": 6719,
      "Ġsac": 6720,
      "Ġsite": 6721,
      "Ġsip": 6722,
      "Ġsank": 6723,
      "Ġsets": 6724,
      "Ġsorts": 6725,
      "Ġsoph": 6726,
      "reen": 6727,
      "reated": 6728,
      "rels": 6729,
      "inating": 6730,
      "ham": 6731,
      "hara": 6732,
      "Ġmow": 6733,
      "Ġmut": 6734,
      "Ġmoust": 6735,
      "Ġdar": 6736,
      "Ġdim": 6737,
      "Ġdive": 6738,
      "Ġdil": 6739,
      "Ġdict": 6740,
      "Ġdorm": 6741,
      "Ġdyed": 6742,
      "Ġyeast": 6743,
      "ona": 6744,
      "onse": 6745,
      "Ġbas": 6746,
      "Ġbent": 6747,
      "Ġbol": 6748,
      "Ġbound": 6749,
      "Ġbass": 6750,
      "Ġbores": 6751,
      "Ġcu": 6752,
      "Ġcas": 6753,
      "Ġcore": 6754,
      "Ġcured": 6755,
      "Ġcases": 6756,
      "Ġcnn": 6757,
      "Ġly": 6758,
      "Ġled": 6759,
      "Ġlined": 6760,
      "inged": 6761,
      "edly": 6762,
      "Ġfried": 6763,
      "Ġfans": 6764,
      "Ġfries": 6765,
      "anc": 6766,
      "ania": 6767,
      "isod": 6768,
      "lliant": 6769,
      "Ġpink": 6770,
      "Ġpul": 6771,
      "Ġpour": 6772,
      "Ġpays": 6773,
      "Ġpess": 6774,
      "Ġpunch": 6775,
      "orch": 6776,
      "ords": 6777,
      "enic": 6778,
      "eness": 6779,
      "Ġheating": 6780,
      "Ġhealed": 6781,
      "Ġhedge": 6782,
      "Ġhelmet": 6783,
      "erk": 6784,
      "erved": 6785,
      "erced": 6786,
      "ercial": 6787,
      "Ġnar": 6788,
      "Ġnood": 6789,
      "Ġnest": 6790,
      "Ġnum": 6791,
      "Ġnail": 6792,
      "Ġnasty": 6793,
      "Ġgim": 6794,
      "Ġgest": 6795,
      "Ġgra": 6796,
      "Ġgum": 6797,
      "Ġgained": 6798,
      "arse": 6799,
      "Ġham": 6800,
      "Ġhay": 6801,
      "Ġhare": 6802,
      "Ġhack": 6803,
      "Ġhammer": 6804,
      "Ġhairsty": 6805,
      "asive": 6806,
      "Ġthunder": 6807,
      "Ġthunderst": 6808,
      "esus": 6809,
      "Ġdove": 6810,
      "atis": 6811,
      "atically": 6812,
      "Ġoly": 6813,
      "Ġoxy": 6814,
      "Ġoverest": 6815,
      "Ġolive": 6816,
      "etot": 6817,
      "etically": 6818,
      "itis": 6819,
      "Ġwept": 6820,
      "Ġwealth": 6821,
      "Ġwelded": 6822,
      "Ġinit": 6823,
      "Ġinch": 6824,
      "Ġinher": 6825,
      "Ġinexp": 6826,
      "Ġinappro": 6827,
      "Ġingred": 6828,
      "oted": 6829,
      "otaped": 6830,
      "Ġbeep": 6831,
      "Ġbears": 6832,
      "Ġbeating": 6833,
      "Ġbeeth": 6834,
      "Ġang": 6835,
      "Ġancest": 6836,
      "levant": 6837,
      "ste": 6838,
      "step": 6839,
      "storm": 6840,
      "verted": 6841,
      "Ġmeas": 6842,
      "Ġmead": 6843,
      "Ġmember": 6844,
      "Ġmechan": 6845,
      "Ġwashes": 6846,
      "Ġstakes": 6847,
      "Ġstork": 6848,
      "Ġreun": 6849,
      "Ġliver": 6850,
      "Ġlions": 6851,
      "Ġkick": 6852,
      "Ġonto": 6853,
      "Ġdonated": 6854,
      "imated": 6855,
      "imistic": 6856,
      "Ġformer": 6857,
      "Ġwhatso": 6858,
      "chite": 6859,
      "chief": 6860,
      "alty": 6861,
      "Ġgoals": 6862,
      "Ġknee": 6863,
      "Ġwhip": 6864,
      "ador": 6865,
      "Ġwanting": 6866,
      "enter": 6867,
      "Ġnoted": 6868,
      "Ġnotified": 6869,
      "acist": 6870,
      "acel": 6871,
      "acting": 6872,
      "acity": 6873,
      "acular": 6874,
      "aceable": 6875,
      "illa": 6876,
      "rop": 6877,
      "rosh": 6878,
      "allel": 6879,
      "oneer": 6880,
      "aming": 6881,
      "ament": 6882,
      "amonds": 6883,
      "utation": 6884,
      "utions": 6885,
      "Ġseve": 6886,
      "Ġseed": 6887,
      "Ġseag": 6888,
      "Ġseated": 6889,
      "Ġseeds": 6890,
      "Ġsexy": 6891,
      "Ġasia": 6892,
      "Ġjar": 6893,
      "Ġjesus": 6894,
      "irth": 6895,
      "Ġshield": 6896,
      "Ġshiver": 6897,
      "Ġsue": 6898,
      "Ġsuff": 6899,
      "ndle": 6900,
      "Ġabol": 6901,
      "Ġabilities": 6902,
      "Ġtrick": 6903,
      "Ġtrace": 6904,
      "Ġtrimmed": 6905,
      "Ġrust": 6906,
      "Ġrough": 6907,
      "Ġrational": 6908,
      "Ġriche": 6909,
      "cel": 6910,
      "Ġspy": 6911,
      "Ġspit": 6912,
      "Ġspot": 6913,
      "Ġspill": 6914,
      "Ġspir": 6915,
      "Ġspont": 6916,
      "Ġtear": 6917,
      "Ġteetot": 6918,
      "Ġplug": 6919,
      "Ġplague": 6920,
      "Ġsoaking": 6921,
      "ender": 6922,
      "endid": 6923,
      "Ġwhoever": 6924,
      "ushing": 6925,
      "uscript": 6926,
      "ives": 6927,
      "Ġneeding": 6928,
      "Ġneedle": 6929,
      "Ġexisted": 6930,
      "Ġsahara": 6931,
      "Ġoutcome": 6932,
      "Ġupload": 6933,
      "Ġseek": 6934,
      "ulary": 6935,
      "ulated": 6936,
      "Ġeater": 6937,
      "Ġeaters": 6938,
      "este": 6939,
      "estic": 6940,
      "Ġfeature": 6941,
      "andal": 6942,
      "andering": 6943,
      "Ġlob": 6944,
      "Ġload": 6945,
      "Ġloving": 6946,
      "istent": 6947,
      "Ġdeg": 6948,
      "Ġchos": 6949,
      "Ġchief": 6950,
      "Ġchips": 6951,
      "Ġmanuscript": 6952,
      "Ġquar": 6953,
      "Ġquant": 6954,
      "Ġqueen": 6955,
      "Ġquote": 6956,
      "erson": 6957,
      "Ġagency": 6958,
      "Ġcomb": 6959,
      "Ġcomed": 6960,
      "Ġconqu": 6961,
      "eping": 6962,
      "Ġarchite": 6963,
      "Ġproves": 6964,
      "Ġpropose": 6965,
      "ously": 6966,
      "Ġcoc": 6967,
      "Ġcoerced": 6968,
      "Ġmuff": 6969,
      "Ġclown": 6970,
      "Ġclap": 6971,
      "Ġclaus": 6972,
      "Ġunre": 6973,
      "Ġunple": 6974,
      "Ġunav": 6975,
      "Ġunbut": 6976,
      "Ġunmar": 6977,
      "Ġvom": 6978,
      "Ġvivid": 6979,
      "Ġintent": 6980,
      "Ġintense": 6981,
      "elry": 6982,
      "elie": 6983,
      "Ġpeaches": 6984,
      "rowave": 6985,
      "Ġbutt": 6986,
      "Ġbug": 6987,
      "Ġbundle": 6988,
      "Ġprint": 6989,
      "Ġdrought": 6990,
      "Ġdrastic": 6991,
      "Ġbookworm": 6992,
      "agers": 6993,
      "Ġwrap": 6994,
      "Ġbusiest": 6995,
      "Ġoffset": 6996,
      "Ġriots": 6997,
      "Ġexpand": 6998,
      "Ġexplic": 6999,
      "Ġexports": 7000,
      "Ġexpressed": 7001,
      "Ġsmashed": 7002,
      "ineering": 7003,
      "asso": 7004,
      "assador": 7005,
      "Ġlottery": 7006,
      "Ġbrakes": 7007,
      "Ġbrushed": 7008,
      "Ġbracel": 7009,
      "thy": 7010,
      "Ġlongest": 7011,
      "Ġunderwater": 7012,
      "Ġhousehold": 7013,
      "Ġtwin": 7014,
      "Ġlasts": 7015,
      "aborate": 7016,
      "abulary": 7017,
      "Ġbelched": 7018,
      "Ġboil": 7019,
      "Ġboiled": 7020,
      "Ġcompre": 7021,
      "Ġcompan": 7022,
      "Ġcomposed": 7023,
      "Ġblames": 7024,
      "Ġblaming": 7025,
      "Ġfaults": 7026,
      "aves": 7027,
      "Ġdisre": 7028,
      "Ġdiseas": 7029,
      "Ġdisaster": 7030,
      "Ġdisgu": 7031,
      "Ġswell": 7032,
      "Ġsworn": 7033,
      "Ġdiamonds": 7034,
      "raised": 7035,
      "Ġappraised": 7036,
      "umns": 7037,
      "issed": 7038,
      "Ġguid": 7039,
      "Ġguest": 7040,
      "Ġremove": 7041,
      "Ġgroups": 7042,
      "Ġhandker": 7043,
      "Ġoverall": 7044,
      "Ġovernight": 7045,
      "Ġovertime": 7046,
      "Ġoverlook": 7047,
      "Ġharass": 7048,
      "Ġharmon": 7049,
      "Ġidiots": 7050,
      "Ġflame": 7051,
      "Ġflies": 7052,
      "Ġflute": 7053,
      "Ġcatches": 7054,
      "Ġcathol": 7055,
      "Ġcatalogue": 7056,
      "Ġawfully": 7057,
      "Ġpav": 7058,
      "Ġfinishing": 7059,
      "Ġfinland": 7060,
      "Ġmarked": 7061,
      "Ġmarath": 7062,
      "Ġmarsh": 7063,
      "Ġhopeless": 7064,
      "ption": 7065,
      "Ġasks": 7066,
      "Ġscan": 7067,
      "Ġscri": 7068,
      "Ġscam": 7069,
      "Ġscored": 7070,
      "Ġscandal": 7071,
      "Ġmoron": 7072,
      "Ġmonop": 7073,
      "Ġdecade": 7074,
      "Ġearning": 7075,
      "Ġearring": 7076,
      "Ġpolitely": 7077,
      "Ġparts": 7078,
      "Ġpartly": 7079,
      "Ġpartner": 7080,
      "Ġtensions": 7081,
      "Ġchef": 7082,
      "Ġhating": 7083,
      "ilege": 7084,
      "Ġnights": 7085,
      "Ġnightmare": 7086,
      "Ġbreed": 7087,
      "Ġbadgers": 7088,
      "Ġglue": 7089,
      "Ġmeteor": 7090,
      "Ġhourly": 7091,
      "Ġattached": 7092,
      "Ġattitude": 7093,
      "Ġenglishman": 7094,
      "Ġmature": 7095,
      "Ġmatches": 7096,
      "ffel": 7097,
      "Ġelaborate": 7098,
      "ogenic": 7099,
      "Ġslimmed": 7100,
      "Ġwatering": 7101,
      "Ġwatermel": 7102,
      "bec": 7103,
      "beha": 7104,
      "Ġfoggy": 7105,
      "aughter": 7106,
      "Ġpayments": 7107,
      "Ġyoungest": 7108,
      "Ġmisspoke": 7109,
      "Ġpasses": 7110,
      "Ġpassage": 7111,
      "Ġpassionate": 7112,
      "Ġadvanced": 7113,
      "Ġminds": 7114,
      "Ġfewer": 7115,
      "Ġmeetings": 7116,
      "Ġbedside": 7117,
      "Ġperu": 7118,
      "Ġshaken": 7119,
      "Ġshame": 7120,
      "Ġwars": 7121,
      "Ġwarming": 7122,
      "Ġeaster": 7123,
      "Ġreputation": 7124,
      "Ġinvaded": 7125,
      "Ġinvisible": 7126,
      "Ġbroad": 7127,
      "Ġprettier": 7128,
      "athlon": 7129,
      "Ġrestr": 7130,
      "Ġrestroom": 7131,
      "Ġexpects": 7132,
      "ustrated": 7133,
      "cient": 7134,
      "cience": 7135,
      "Ġkindly": 7136,
      "orms": 7137,
      "ormal": 7138,
      "Ġretreated": 7139,
      "proof": 7140,
      "prints": 7141,
      "Ġ11": 7142,
      "Ġ13": 7143,
      "Ġsketch": 7144,
      "Ġmuscles": 7145,
      "ensed": 7146,
      "Ġpromotion": 7147,
      "Ġdining": 7148,
      "Ġbookshelf": 7149,
      "berg": 7150,
      "Ġmistook": 7151,
      "Ġached": 7152,
      "Ġhockey": 7153,
      "Ġending": 7154,
      "Ġforgetful": 7155,
      "clear": 7156,
      "Ġchase": 7157,
      "Ġchased": 7158,
      "Ġchapter": 7159,
      "Ġactivity": 7160,
      "Ġcras": 7161,
      "Ġcringed": 7162,
      "Ġserver": 7163,
      "Ġserving": 7164,
      "loc": 7165,
      "angement": 7166,
      "Ġfirefo": 7167,
      "Ġmostly": 7168,
      "Ġsnowstorm": 7169,
      "Ġassump": 7170,
      "Ġreality": 7171,
      "Ġsickness": 7172,
      "Ġsoundly": 7173,
      "fering": 7174,
      "Ġsincere": 7175,
      "Ġsincerely": 7176,
      "Ġparks": 7177,
      "Ġreduce": 7178,
      "Ġfreeze": 7179,
      "Ġjuly": 7180,
      "Ġfasted": 7181,
      "Ġexcess": 7182,
      "Ġvest": 7183,
      "Ġvegan": 7184,
      "Ġfarmer": 7185,
      "Ġoboe": 7186,
      "Ġobama": 7187,
      "Ġeasygoing": 7188,
      "Ġentry": 7189,
      "Ġenthusi": 7190,
      "Ġaccidentally": 7191,
      "Ġbiting": 7192,
      "Ġtriathlon": 7193,
      "Ġincurable": 7194,
      "Ġpenalty": 7195,
      "Ġhealthier": 7196,
      "Ġsunfl": 7197,
      "Ġ200": 7198,
      "Ġconclusion": 7199,
      "Ġaddition": 7200,
      "Ġreturns": 7201,
      "Ġcorrupt": 7202,
      "vened": 7203,
      "Ġbringing": 7204,
      "Ġdarkness": 7205,
      "Ġuntrust": 7206,
      "Ġinterfering": 7207,
      "Ġintervened": 7208,
      "Ġdeadline": 7209,
      "Ġnumb": 7210,
      "Ġnuclear": 7211,
      "Ġdolls": 7212,
      "Ġemptied": 7213,
      "Ġtested": 7214,
      "Ġcommercial": 7215,
      "Ġbabbling": 7216,
      "Ġhospitals": 7217,
      "Ġtreating": 7218,
      "Ġtreasure": 7219,
      "Ġtowns": 7220,
      "shirt": 7221,
      "Ġregards": 7222,
      "Ġconsum": 7223,
      "pering": 7224,
      "Ġevenings": 7225,
      "Ġdisappear": 7226,
      "Ġmoments": 7227,
      "ibiot": 7228,
      "Ġsalmon": 7229,
      "Ġcrafty": 7230,
      "Ġjacksons": 7231,
      "Ġkeyboard": 7232,
      "Ġbeginners": 7233,
      "Ġilliter": 7234,
      "Ġindic": 7235,
      "Ġindif": 7236,
      "Ġindivid": 7237,
      "Ġindepend": 7238,
      "Ġdepth": 7239,
      "Ġdeprived": 7240,
      "Ġsubst": 7241,
      "Ġsubscri": 7242,
      "Ġcountryside": 7243,
      "Ġinsul": 7244,
      "teous": 7245,
      "Ġcolumn": 7246,
      "Ġcolumns": 7247,
      "Ġthanksgiving": 7248,
      "Ġsetting": 7249,
      "Ġcursing": 7250,
      "Ġavid": 7251,
      "Ġadmired": 7252,
      "Ġelectron": 7253,
      "Ġrefusing": 7254,
      "Ġrefres": 7255,
      "Ġdistract": 7256,
      "Ġbrilliant": 7257,
      "Ġgolfer": 7258,
      "portant": 7259,
      "Ġimmigrants": 7260,
      "Ġmenu": 7261,
      "Ġpianist": 7262,
      "Ġbiograp": 7263,
      "Ġcoughed": 7264,
      "Ġconvict": 7265,
      "Ġmedications": 7266,
      "bitious": 7267,
      "Ġfairy": 7268,
      "Ġneighbour": 7269,
      "Ġowed": 7270,
      "Ġaddressed": 7271,
      "Ġguns": 7272,
      "Ġgunshot": 7273,
      "Ġvegetable": 7274,
      "Ġtouching": 7275,
      "Ġdetour": 7276,
      "Ġdetained": 7277,
      "Ġcapable": 7278,
      "Ġparaly": 7279,
      "Ġparrot": 7280,
      "Ġparallel": 7281,
      "Ġparcel": 7282,
      "Ġgenuine": 7283,
      "Ġgenetically": 7284,
      "Ġdances": 7285,
      "Ġcereal": 7286,
      "Ġhangs": 7287,
      "Ġreceiver": 7288,
      "Ġlegal": 7289,
      "Ġlegend": 7290,
      "Ġtempt": 7291,
      "Ġtempting": 7292,
      "Ġtempted": 7293,
      "loaded": 7294,
      "Ġpopcorn": 7295,
      "Ġphotogenic": 7296,
      "Ġperfectionist": 7297,
      "Ġbanks": 7298,
      "Ġpostc": 7299,
      "Ġposted": 7300,
      "Ġoppose": 7301,
      "Ġinstall": 7302,
      "Ġinstantly": 7303,
      "Ġtravels": 7304,
      "Ġcourt": 7305,
      "Ġresponse": 7306,
      "Ġdealt": 7307,
      "Ġpickpock": 7308,
      "Ġrising": 7309,
      "Ġrisky": 7310,
      "Ġrisks": 7311,
      "Ġapproached": 7312,
      "Ġprotection": 7313,
      "Ġ195": 7314,
      "Ġ198": 7315,
      "Ġ1939": 7316,
      "Ġsuggesting": 7317,
      "Ġbehalf": 7318,
      "Ġjumping": 7319,
      "Ġironed": 7320,
      "Ġpasta": 7321,
      "Ġconsideration": 7322,
      "Ġbarn": 7323,
      "Ġburnt": 7324,
      "Ġcopies": 7325,
      "Ġseventy": 7326,
      "Ġsportsman": 7327,
      "Ġcafe": 7328,
      "Ġcauses": 7329,
      "ilians": 7330,
      "Ġpractices": 7331,
      "Ġpracticing": 7332,
      "Ġattacks": 7333,
      "Ġcertific": 7334,
      "Ġgasped": 7335,
      "Ġloser": 7336,
      "Ġgraduating": 7337,
      "Ġzero": 7338,
      "Ġhundreds": 7339,
      "Ġbats": 7340,
      "Ġfatig": 7341,
      "Ġbloody": 7342,
      "Ġcharged": 7343,
      "Ġsatisfy": 7344,
      "Ġhideous": 7345,
      "Ġexercises": 7346,
      "Ġclimate": 7347,
      "Ġaccordion": 7348,
      "ounter": 7349,
      "Ġsquare": 7350,
      "Ġshops": 7351,
      "isticated": 7352,
      "Ġscreams": 7353,
      "Ġsaturdays": 7354,
      "Ġpuppy": 7355,
      "Ġrespectful": 7356,
      "Ġships": 7357,
      "Ġexaggerates": 7358,
      "Ġembarrassing": 7359,
      "Ġcreate": 7360,
      "Ġsteam": 7361,
      "Ġsuspected": 7362,
      "Ġexhaled": 7363,
      "Ġexhausting": 7364,
      "Ġeyebrow": 7365,
      "Ġpresidential": 7366,
      "Ġinjuries": 7367,
      "Ġallergies": 7368,
      "Ġprofit": 7369,
      "Ġprograms": 7370,
      "Ġprogramming": 7371,
      "Ġprogrammer": 7372,
      "Ġblinded": 7373,
      "Ġfreshwater": 7374,
      "Ġstraightforward": 7375,
      "Ġpossibilities": 7376,
      "Ġvideotaped": 7377,
      "Ġleading": 7378,
      "Ġdieting": 7379,
      "Ġentering": 7380,
      "Ġerase": 7381,
      "Ġannual": 7382,
      "Ġvillages": 7383,
      "Ġvillagers": 7384,
      "Ġcollector": 7385,
      "Ġcollection": 7386,
      "cony": 7387,
      "Ġfilthy": 7388,
      "Ġgarlic": 7389,
      "Ġpanic": 7390,
      "Ġpicasso": 7391,
      "Ġofficers": 7392,
      "Ġdisagrees": 7393,
      "Ġ40": 7394,
      "Ġ50": 7395,
      "Ġ500": 7396,
      "Ġcustomer": 7397,
      "Ġnegl": 7398,
      "ifications": 7399,
      "Ġobjects": 7400,
      "Ġobjective": 7401,
      "Ġprivacy": 7402,
      "Ġprivilege": 7403,
      "Ġcourageous": 7404,
      "Ġorganic": 7405,
      "Ġorganization": 7406,
      "Ġbetray": 7407,
      "Ġparticipated": 7408,
      "Ġrepairing": 7409,
      "Ġtightly": 7410,
      "Ġantibiot": 7411,
      "Ġvalid": 7412,
      "Ġvalue": 7413,
      "Ġvolunteers": 7414,
      "Ġ70": 7415,
      "Ġdeny": 7416,
      "Ġdutch": 7417,
      "Ġcongress": 7418,
      "Ġshrank": 7419,
      "Ġpeeling": 7420,
      "Ġpeeled": 7421,
      "Ġgloated": 7422,
      "Ġrecovery": 7423,
      "Ġcriticized": 7424,
      "Ġbesides": 7425,
      "Ġcello": 7426,
      "Ġcellar": 7427,
      "Ġlicensed": 7428,
      "Ġhirosh": 7429,
      "Ġexpression": 7430,
      "Ġtalent": 7431,
      "Ġencounter": 7432,
      "Ġdirections": 7433,
      "Ġdumps": 7434,
      "Ġduffel": 7435,
      "Ġsplitting": 7436,
      "Ġsplinter": 7437,
      "Ġsplendid": 7438,
      "Ġunfor": 7439,
      "Ġvoting": 7440,
      "Ġvotes": 7441,
      "Ġbullets": 7442,
      "Ġmodest": 7443,
      "Ġmodified": 7444,
      "Ġblocked": 7445,
      "Ġidentity": 7446,
      "Ġdescription": 7447,
      "Ġassistance": 7448,
      "Ġbrightly": 7449,
      "Ġtoothbrush": 7450,
      "Ġcongratulations": 7451,
      "Ġcorporate": 7452,
      "lected": 7453,
      "Ġresemble": 7454,
      "Ġresearch": 7455,
      "Ġdelight": 7456,
      "Ġqualified": 7457,
      "Ġqualifications": 7458,
      "Ġprovided": 7459,
      "Ġintentionally": 7460,
      "Ġreplace": 7461,
      "Ġreplaced": 7462,
      "Ġincreased": 7463,
      "Ġcelebrating": 7464,
      "Ġironing": 7465,
      "Ġoptimism": 7466,
      "Ġviolinist": 7467,
      "Ġeffect": 7468,
      "Ġwheels": 7469,
      "Ġwheelchair": 7470,
      "Ġunsc": 7471,
      "Ġunsure": 7472,
      "Ġunsolved": 7473,
      "Ġambassador": 7474,
      "Ġadopt": 7475,
      "Ġgrounded": 7476,
      "Ġscares": 7477,
      "Ġemployed": 7478,
      "Ġwisdom": 7479,
      "Ġmama": 7480,
      "Ġstripped": 7481,
      "Ġstatement": 7482,
      "Ġrejection": 7483,
      "Ġjanitor": 7484,
      "Ġchopin": 7485,
      "Ġdragon": 7486,
      "Ġdespite": 7487,
      "Ġinclude": 7488,
      "Ġpreparations": 7489,
      "Ġtypes": 7490,
      "Ġpronounced": 7491,
      "Ġtolerant": 7492,
      "Ġbalcony": 7493,
      "Ġpushups": 7494,
      "Ġwhistle": 7495,
      "Ġwhistling": 7496,
      "Ġcarpenter": 7497,
      "Ġvanilla": 7498,
      "Ġdivide": 7499,
      "Ġoversight": 7500,
      "Ġmethods": 7501,
      "Ġvegetarians": 7502,
      "Ġsquirrels": 7503,
      "Ġautomatically": 7504,
      "Ġmental": 7505,
      "Ġpigs": 7506,
      "Ġhomesick": 7507,
      "Ġstatus": 7508,
      "Ġsoftware": 7509,
      "Ġcocktail": 7510,
      "Ġunbelie": 7511,
      "Ġuniforms": 7512,
      "Ġpraise": 7513,
      "Ġprincip": 7514,
      "Ġbritain": 7515,
      "Ġflooded": 7516,
      "Ġforests": 7517,
      "Ġcrawled": 7518,
      "Ġinflation": 7519,
      "Ġsettlement": 7520,
      "Ġfoolishly": 7521,
      "Ġverb": 7522,
      "Ġtuition": 7523,
      "Ġlabor": 7524,
      "Ġlabel": 7525,
      "Ġpitched": 7526,
      "Ġgrill": 7527,
      "Ġthoroughly": 7528,
      "Ġweighs": 7529,
      "Ġvitamins": 7530,
      "Ġdissatis": 7531,
      "Ġspecific": 7532,
      "Ġconsciousness": 7533,
      "Ġvocabulary": 7534,
      "Ġpriorities": 7535,
      "Ġmiracles": 7536,
      "Ġipad": 7537,
      "Ġwolf": 7538,
      "Ġwrestling": 7539,
      "Ġcautious": 7540,
      "Ġlaptop": 7541,
      "Ġpioneer": 7542,
      "Ġpalace": 7543,
      "Ġdomestic": 7544,
      "Ġdomineering": 7545,
      "Ġinvention": 7546,
      "Ġdebate": 7547,
      "Ġdebts": 7548,
      "Ġarrangement": 7549,
      "Ġvarious": 7550,
      "Ġleaning": 7551,
      "Ġdismissed": 7552,
      "Ġoverreacting": 7553,
      "Ġaccessible": 7554,
      "Ġphysical": 7555,
      "Ġslammed": 7556,
      "Ġkidnapped": 7557,
      "Ġ1974": 7558,
      "Ġirrelevant": 7559,
      "Ġsqueezed": 7560,
      "Ġmiserable": 7561,
      "Ġcommunicate": 7562,
      "Ġfascinating": 7563,
      "Ġhamburger": 7564,
      "Ġtasks": 7565,
      "Ġtools": 7566,
      "Ġsanity": 7567,
      "Ġmicro": 7568,
      "Ġmicrowave": 7569,
      "Ġyawning": 7570,
      "Ġyawned": 7571,
      "Ġcivil": 7572,
      "Ġcivilians": 7573,
      "Ġtomatoes": 7574,
      "Ġpoorest": 7575,
      "Ġsewing": 7576,
      "Ġseparated": 7577,
      "Ġroller": 7578,
      "Ġbranch": 7579,
      "Ġgrammar": 7580,
      "Ġhunters": 7581,
      "Ġadministration": 7582,
      "Ġopposition": 7583,
      "Ġevacuate": 7584,
      "Ġmagician": 7585,
      "Ġexceptionally": 7586,
      "Ġneglected": 7587,
      "Ġnegotiate": 7588,
      "Ġfrogs": 7589,
      "Ġhypocrite": 7590,
      "Ġhypocrisy": 7591,
      "Ġprecisely": 7592,
      "while": 7593,
      "Ġwidower": 7594,
      "inarily": 7595,
      "Ġmalfun": 7596,
      "Ġcotton": 7597,
      "Ġninj": 7598,
      "Ġthrilling": 7599,
      "Ġreferee": 7600,
      "Ġkaraoke": 7601,
      "Ġneatly": 7602,
      "Ġjewelry": 7603,
      "Ġaliens": 7604,
      "Ġtexting": 7605,
      "Ġoutlawed": 7606,
      "Ġmanufacture": 7607,
      "Ġqueue": 7608,
      "Ġconceal": 7609,
      "Ġprimary": 7610,
      "Ġcomposer": 7611,
      "Ġblonde": 7612,
      "Ġdisneyland": 7613,
      "Ġdiabetic": 7614,
      "Ġphrased": 7615,
      "Ġstrangers": 7616,
      "Ġsneezed": 7617,
      "Ġshadow": 7618,
      "Ġsmoothly": 7619,
      "Ġcruel": 7620,
      "Ġrescued": 7621,
      "Ġrelieved": 7622,
      "Ġexperienced": 7623,
      "Ġfreedom": 7624,
      "Ġsurvivors": 7625,
      "Ġemotions": 7626,
      "Ġdoubts": 7627,
      "Ġestablish": 7628,
      "Ġincluded": 7629,
      "Ġhawaii": 7630,
      "Ġentrepreneur": 7631,
      "heartedly": 7632,
      "Ġdoughn": 7633,
      "Ġbulb": 7634,
      "Ġlength": 7635,
      "Ġfierce": 7636,
      "Ġpanting": 7637,
      "Ġpilot": 7638,
      "Ġnickname": 7639,
      "Ġepisod": 7640,
      "Ġreinfor": 7641,
      "Ġrenovated": 7642,
      "Ġmysteries": 7643,
      "Ġseaside": 7644,
      "Ġassembled": 7645,
      "Ġtroubles": 7646,
      "Ġracket": 7647,
      "Ġspectacular": 7648,
      "Ġsparks": 7649,
      "Ġsociety": 7650,
      "Ġchimney": 7651,
      "Ġquotes": 7652,
      "Ġagriculture": 7653,
      "Ġarrogant": 7654,
      "Ġpeanut": 7655,
      "Ġwrinkles": 7656,
      "Ġprevail": 7657,
      "Ġprejudiced": 7658,
      "Ġbruise": 7659,
      "Ġadjust": 7660,
      "Ġadvertising": 7661,
      "Ġblinked": 7662,
      "Ġdisobey": 7663,
      "Ġremarried": 7664,
      "Ġimpolite": 7665,
      "Ġscientist": 7666,
      "Ġaccomplished": 7667,
      "Ġrepresentative": 7668,
      "Ġcrisis": 7669,
      "Ġservice": 7670,
      "Ġinconvenience": 7671,
      "Ġcolleague": 7672,
      "Ġgrandparents": 7673,
      "Ġblackmailed": 7674,
      "Ġconfirmed": 7675,
      "Ġdistributed": 7676,
      "Ġdistinguish": 7677,
      "Ġparanormal": 7678,
      "Ġvacuum": 7679,
      "Ġinstincts": 7680,
      "Ġopportunities": 7681,
      "Ġgrocery": 7682,
      "Ġglobal": 7683,
      "Ġpronunciation": 7684,
      "Ġblossom": 7685,
      "Ġunbearable": 7686,
      "Ġdissolves": 7687,
      "Ġinterpreted": 7688,
      "Ġsatellite": 7689,
      "Ġbachelor": 7690,
      "Ġdolphins": 7691,
      "Ġuninterested": 7692,
      "fashioned": 7693,
      "nowledged": 7694,
      "Ġtuesday": 7695,
      "Ġacknowledged": 7696,
      "Ġmutual": 7697,
      "Ġmoustache": 7698,
      "Ġdarwin": 7699,
      "Ġdiligent": 7700,
      "Ġbassoon": 7701,
      "Ġcasual": 7702,
      "Ġpulse": 7703,
      "Ġpessimistic": 7704,
      "Ġhedgehog": 7705,
      "Ġnarrow": 7706,
      "Ġnoodles": 7707,
      "Ġnumerous": 7708,
      "Ġgimmick": 7709,
      "Ġhairstyle": 7710,
      "Ġthunderstorms": 7711,
      "Ġolymp": 7712,
      "Ġoxygen": 7713,
      "Ġoverestimate": 7714,
      "Ġinherited": 7715,
      "Ġinexpensive": 7716,
      "Ġingredients": 7717,
      "Ġbeethoven": 7718,
      "Ġancestors": 7719,
      "Ġmeadow": 7720,
      "Ġmechanic": 7721,
      "Ġwhatsoever": 7722,
      "Ġseagull": 7723,
      "Ġshivering": 7724,
      "Ġrichest": 7725,
      "Ġspontaneous": 7726,
      "Ġchosen": 7727,
      "Ġarchitect": 7728,
      "Ġunpleasant": 7729,
      "Ġunbuttoned": 7730,
      "Ġunmarried": 7731,
      "Ġexplicit": 7732,
      "Ġbracelet": 7733,
      "Ġdiseases": 7734,
      "Ġhandkerchief": 7735,
      "Ġharmonica": 7736,
      "Ġcatholic": 7737,
      "Ġmarathon": 7738,
      "Ġearrings": 7739,
      "Ġfirefox": 7740,
      "Ġassumption": 7741,
      "Ġuntrustworthy": 7742,
      "Ġindividual": 7743,
      "Ġindependent": 7744,
      "Ġelectronics": 7745,
      "Ġdistracted": 7746,
      "Ġparalyzed": 7747,
      "Ġcertificate": 7748,
      "Ġantibiotics": 7749,
      "Ġhiroshima": 7750,
      "Ġepisode": 7751,
      ".?": 7752,
      "10": 7753,
      "11": 7754,
      "200": 7755,
      "500": 7756,
      "60": 7757,
      "ae": 7758,
      "affe": 7759,
      "alect": 7760,
      "ba": 7761,
      "bu": 7762,
      "ban": 7763,
      "bow": 7764,
      "bes": 7765,
      "bics": 7766,
      "birth": 7767,
      "cl": 7768,
      "cet": 7769,
      "cus": 7770,
      "cule": 7771,
      "conscious": 7772,
      "cups": 7773,
      "dro": 7774,
      "date": 7775,
      "down": 7776,
      "ders": 7777,
      "dress": 7778,
      "dog": 7779,
      "def": 7780,
      "dened": 7781,
      "dney": 7782,
      "dram": 7783,
      "every": 7784,
      "ece": 7785,
      "effe": 7786,
      "eret": 7787,
      "eba": 7788,
      "fing": 7789,
      "fet": 7790,
      "fall": 7791,
      "fight": 7792,
      "fident": 7793,
      "fiction": 7794,
      "fold": 7795,
      "fusion": 7796,
      "gle": 7797,
      "gam": 7798,
      "gain": 7799,
      "gones": 7800,
      "gium": 7801,
      "hi": 7802,
      "hj": 7803,
      "hor": 7804,
      "hies": 7805,
      "ij": 7806,
      "iat": 7807,
      "iate": 7808,
      "ials": 7809,
      "iod": 7810,
      "jo": 7811,
      "jack": 7812,
      "kal": 7813,
      "lin": 7814,
      "lit": 7815,
      "lig": 7816,
      "lined": 7817,
      "liment": 7818,
      "mun": 7819,
      "mak": 7820,
      "mans": 7821,
      "mint": 7822,
      "moon": 7823,
      "mission": 7824,
      "male": 7825,
      "mester": 7826,
      "nan": 7827,
      "nch": 7828,
      "new": 7829,
      "nia": 7830,
      "nosed": 7831,
      "nical": 7832,
      "nails": 7833,
      "ob": 7834,
      "ok": 7835,
      "oen": 7836,
      "oly": 7837,
      "ollen": 7838,
      "pow": 7839,
      "past": 7840,
      "pass": 7841,
      "pens": 7842,
      "paid": 7843,
      "pants": 7844,
      "ray": 7845,
      "rim": 7846,
      "rant": 7847,
      "ral": 7848,
      "rait": 7849,
      "rict": 7850,
      "rated": 7851,
      "rison": 7852,
      "sur": 7853,
      "sure": 7854,
      "sized": 7855,
      "smo": 7856,
      "science": 7857,
      "tz": 7858,
      "that": 7859,
      "table": 7860,
      "tage": 7861,
      "tub": 7862,
      "tiff": 7863,
      "ua": 7864,
      "uke": 7865,
      "uly": 7866,
      "uct": 7867,
      "uge": 7868,
      "uate": 7869,
      "uffe": 7870,
      "umbers": 7871,
      "ucture": 7872,
      "vd": 7873,
      "vi": 7874,
      "vour": 7875,
      "vals": 7876,
      "wa": 7877,
      "wat": 7878,
      "would": 7879,
      "when": 7880,
      "words": 7881,
      "wives": 7882,
      "xed": 7883,
      "zer": 7884,
      "zona": 7885,
      "Ã©": 7886,
      "âĤ": 7887,
      "Ġet": 7888,
      "ĠâĤ": 7889,
      "Ġta": 7890,
      "Ġtin": 7891,
      "Ġtid": 7892,
      "Ġtang": 7893,
      "Ġtact": 7894,
      "Ġtiss": 7895,
      "Ġtanger": 7896,
      "Ġtub": 7897,
      "Ġtale": 7898,
      "Ġtiring": 7899,
      "Ġii": 7900,
      "Ġimb": 7901,
      "Ġigl": 7902,
      "hel": 7903,
      "heasant": 7904,
      "Ġwre": 7905,
      "Ġwow": 7906,
      "Ġwoo": 7907,
      "Ġwal": 7908,
      "Ġwig": 7909,
      "Ġwool": 7910,
      "Ġwage": 7911,
      "Ġwire": 7912,
      "Ġwakes": 7913,
      "Ġwages": 7914,
      "Ġwipe": 7915,
      "Ġwimp": 7916,
      "Ġwik": 7917,
      "Ġwandering": 7918,
      "Ġai": 7919,
      "Ġain": 7920,
      "Ġave": 7921,
      "Ġaid": 7922,
      "Ġari": 7923,
      "Ġaero": 7924,
      "Ġauction": 7925,
      "Ġtodd": 7926,
      "Ġtone": 7927,
      "Ġsed": 7928,
      "Ġsen": 7929,
      "Ġsout": 7930,
      "Ġsorrow": 7931,
      "reak": 7932,
      "reeable": 7933,
      "inent": 7934,
      "inished": 7935,
      "inals": 7936,
      "inations": 7937,
      "inste": 7938,
      "have": 7939,
      "hable": 7940,
      "Ġmit": 7941,
      "Ġmout": 7942,
      "Ġmall": 7943,
      "Ġmop": 7944,
      "Ġmart": 7945,
      "Ġmice": 7946,
      "Ġmile": 7947,
      "Ġmowed": 7948,
      "Ġdj": 7949,
      "Ġdart": 7950,
      "Ġdice": 7951,
      "Ġdrow": 7952,
      "Ġdine": 7953,
      "Ġdated": 7954,
      "Ġdull": 7955,
      "Ġdived": 7956,
      "Ġdvd": 7957,
      "Ġyea": 7958,
      "Ġyog": 7959,
      "Ġyolks": 7960,
      "Ġyouth": 7961,
      "Ġtheories": 7962,
      "onest": 7963,
      "onies": 7964,
      "Ġbart": 7965,
      "Ġbash": 7966,
      "Ġboun": 7967,
      "Ġbones": 7968,
      "Ġbisc": 7969,
      "veys": 7970,
      "Ġcust": 7971,
      "Ġcart": 7972,
      "Ġcds": 7973,
      "Ġcens": 7974,
      "Ġcord": 7975,
      "Ġcav": 7976,
      "Ġcrew": 7977,
      "Ġcze": 7978,
      "Ġcaf": 7979,
      "Ġcries": 7980,
      "Ġcuc": 7981,
      "Ġcores": 7982,
      "Ġlun": 7983,
      "Ġlag": 7984,
      "Ġlens": 7985,
      "Ġlung": 7986,
      "Ġlaughter": 7987,
      "inging": 7988,
      "ingly": 7989,
      "edy": 7990,
      "edest": 7991,
      "Ġfle": 7992,
      "Ġfoo": 7993,
      "Ġfame": 7994,
      "Ġfist": 7995,
      "Ġfif": 7996,
      "Ġfau": 7997,
      "Ġfount": 7998,
      "Ġfog": 7999
    },
    "merges": [
      [
        "Ġ",
        "t"
      ],
      [
        "Ġ",
        "i"
      ],
      [
        "h",
        "e"
      ],
      [
        "Ġ",
        "w"
      ],
      [
        "Ġ",
        "a"
      ],
      [
        "Ġt",
        "o"
      ],
      [
        "o",
        "u"
      ],
      [
        "Ġ",
        "s"
      ],
      [
        "r",
        "e"
      ],
      [
        "i",
        "n"
      ],
      [
        "h",
        "a"
      ],
      [
        "Ġ",
        "m"
      ],
      [
        "Ġ",
        "d"
      ],
      [
        "Ġ",
        "y"
      ],
      [
        "Ġy",
        "ou"
      ],
      [
        "Ġt",
        "he"
      ],
      [
        "o",
        "n"
      ],
      [
        "Ġ",
        "b"
      ],
      [
        "v",
        "e"
      ],
      [
        "Ġ",
        "c"
      ],
      [
        "Ġto",
        "m"
      ],
      [
        "Ġ",
        "l"
      ],
      [
        "in",
        "g"
      ],
      [
        "e",
        "d"
      ],
      [
        "Ġ",
        "f"
      ],
      [
        "a",
        "n"
      ],
      [
        "i",
        "s"
      ],
      [
        "l",
        "l"
      ],
      [
        "Ġ",
        "p"
      ],
      [
        "o",
        "r"
      ],
      [
        "ha",
        "t"
      ],
      [
        "e",
        "n"
      ],
      [
        "'",
        "t"
      ],
      [
        "Ġ",
        "he"
      ],
      [
        "e",
        "r"
      ],
      [
        "Ġ",
        "n"
      ],
      [
        "Ġ",
        "g"
      ],
      [
        "a",
        "r"
      ],
      [
        "Ġ",
        "h"
      ],
      [
        "Ġ",
        "ha"
      ],
      [
        "Ġi",
        "s"
      ],
      [
        "a",
        "s"
      ],
      [
        "o",
        "w"
      ],
      [
        "Ġt",
        "h"
      ],
      [
        "e",
        "s"
      ],
      [
        "Ġd",
        "o"
      ],
      [
        "a",
        "t"
      ],
      [
        "Ġ",
        "o"
      ],
      [
        "o",
        "m"
      ],
      [
        "e",
        "t"
      ],
      [
        "i",
        "t"
      ],
      [
        "Ġw",
        "e"
      ],
      [
        "Ġi",
        "n"
      ],
      [
        "Ġi",
        "t"
      ],
      [
        "Ġt",
        "hat"
      ],
      [
        "Ġ",
        "e"
      ],
      [
        "o",
        "t"
      ],
      [
        "a",
        "y"
      ],
      [
        "i",
        "d"
      ],
      [
        "Ġb",
        "e"
      ],
      [
        "l",
        "d"
      ],
      [
        "'",
        "s"
      ],
      [
        "Ġa",
        "n"
      ],
      [
        "l",
        "e"
      ],
      [
        "s",
        "t"
      ],
      [
        "ve",
        "r"
      ],
      [
        "k",
        "e"
      ],
      [
        "Ġm",
        "e"
      ],
      [
        "Ġo",
        "f"
      ],
      [
        "Ġw",
        "as"
      ],
      [
        "Ġs",
        "t"
      ],
      [
        "Ġha",
        "ve"
      ],
      [
        "i",
        "c"
      ],
      [
        "o",
        "o"
      ],
      [
        "Ġ",
        "u"
      ],
      [
        "Ġ",
        "re"
      ],
      [
        "Ġl",
        "i"
      ],
      [
        "Ġ",
        "k"
      ],
      [
        "Ġth",
        "is"
      ],
      [
        "Ġ",
        "on"
      ],
      [
        "Ġm",
        "y"
      ],
      [
        "g",
        "h"
      ],
      [
        "Ġd",
        "on"
      ],
      [
        "i",
        "m"
      ],
      [
        "ou",
        "ld"
      ],
      [
        "Ġn",
        "e"
      ],
      [
        "Ġf",
        "or"
      ],
      [
        "Ġc",
        "an"
      ],
      [
        "an",
        "t"
      ],
      [
        "s",
        "e"
      ],
      [
        "Ġw",
        "hat"
      ],
      [
        "Ġa",
        "re"
      ],
      [
        "c",
        "h"
      ],
      [
        "a",
        "l"
      ],
      [
        "Ġd",
        "id"
      ],
      [
        "Ġg",
        "o"
      ],
      [
        "Ġk",
        "n"
      ],
      [
        "r",
        "i"
      ],
      [
        "Ġw",
        "h"
      ],
      [
        "ou",
        "t"
      ],
      [
        "a",
        "d"
      ],
      [
        "'",
        "m"
      ],
      [
        "om",
        "e"
      ],
      [
        "gh",
        "t"
      ],
      [
        "Ġyou",
        "r"
      ],
      [
        "l",
        "y"
      ],
      [
        "Ġw",
        "ant"
      ],
      [
        "ar",
        "y"
      ],
      [
        "Ġkn",
        "ow"
      ],
      [
        "en",
        "t"
      ],
      [
        "Ġn",
        "ot"
      ],
      [
        "ver",
        "y"
      ],
      [
        "a",
        "c"
      ],
      [
        "i",
        "ll"
      ],
      [
        "r",
        "o"
      ],
      [
        "t",
        "er"
      ],
      [
        "Ġm",
        "ary"
      ],
      [
        "he",
        "r"
      ],
      [
        "Ġli",
        "ke"
      ],
      [
        "a",
        "ll"
      ],
      [
        "on",
        "e"
      ],
      [
        "a",
        "m"
      ],
      [
        "Ġs",
        "he"
      ],
      [
        "p",
        "p"
      ],
      [
        "'",
        "re"
      ],
      [
        "Ġw",
        "it"
      ],
      [
        "u",
        "t"
      ],
      [
        "Ġwit",
        "h"
      ],
      [
        "Ġs",
        "e"
      ],
      [
        "Ġa",
        "t"
      ],
      [
        "Ġa",
        "s"
      ],
      [
        "Ġ",
        "j"
      ],
      [
        "i",
        "r"
      ],
      [
        "Ġh",
        "is"
      ],
      [
        "Ġs",
        "h"
      ],
      [
        "i",
        "on"
      ],
      [
        "in",
        "k"
      ],
      [
        "Ġs",
        "u"
      ],
      [
        "oo",
        "k"
      ],
      [
        "h",
        "ing"
      ],
      [
        "n",
        "d"
      ],
      [
        "Ġa",
        "b"
      ],
      [
        "u",
        "st"
      ],
      [
        "Ġan",
        "d"
      ],
      [
        "Ġw",
        "he"
      ],
      [
        "Ġan",
        "y"
      ],
      [
        "a",
        "in"
      ],
      [
        "Ġh",
        "ow"
      ],
      [
        "'",
        "ve"
      ],
      [
        "e",
        "a"
      ],
      [
        "Ġth",
        "ink"
      ],
      [
        "o",
        "st"
      ],
      [
        "Ġa",
        "l"
      ],
      [
        "Ġt",
        "r"
      ],
      [
        "'",
        "ll"
      ],
      [
        "Ġthe",
        "re"
      ],
      [
        "Ġ",
        "r"
      ],
      [
        "o",
        "re"
      ],
      [
        "u",
        "r"
      ],
      [
        "Ġdid",
        "n"
      ],
      [
        "c",
        "e"
      ],
      [
        "Ġs",
        "p"
      ],
      [
        "Ġt",
        "e"
      ],
      [
        "o",
        "p"
      ],
      [
        "Ġw",
        "or"
      ],
      [
        "Ġha",
        "s"
      ],
      [
        "c",
        "t"
      ],
      [
        "Ġab",
        "out"
      ],
      [
        "a",
        "ke"
      ],
      [
        "Ġp",
        "l"
      ],
      [
        "Ġs",
        "o"
      ],
      [
        "Ġthe",
        "y"
      ],
      [
        "Ġhe",
        "re"
      ],
      [
        "en",
        "d"
      ],
      [
        "Ġg",
        "et"
      ],
      [
        "Ġa",
        "ll"
      ],
      [
        "Ġh",
        "im"
      ],
      [
        "Ġw",
        "ill"
      ],
      [
        "re",
        "n"
      ],
      [
        "Ġn",
        "o"
      ],
      [
        "b",
        "le"
      ],
      [
        "oo",
        "d"
      ],
      [
        "Ġe",
        "very"
      ],
      [
        "Ġwh",
        "o"
      ],
      [
        "ha",
        "n"
      ],
      [
        "u",
        "s"
      ],
      [
        "i",
        "ve"
      ],
      [
        "Ġdo",
        "es"
      ],
      [
        "Ġt",
        "im"
      ],
      [
        "Ġne",
        "ed"
      ],
      [
        "Ġe",
        "x"
      ],
      [
        "Ġl",
        "et"
      ],
      [
        "Ġu",
        "s"
      ],
      [
        "i",
        "l"
      ],
      [
        "Ġs",
        "a"
      ],
      [
        "u",
        "n"
      ],
      [
        "Ġw",
        "ould"
      ],
      [
        "Ġgo",
        "ing"
      ],
      [
        "Ġ",
        "out"
      ],
      [
        "re",
        "d"
      ],
      [
        "g",
        "e"
      ],
      [
        "Ġwh",
        "y"
      ],
      [
        "Ġu",
        "p"
      ],
      [
        "Ġl",
        "ook"
      ],
      [
        "Ġse",
        "e"
      ],
      [
        "Ġc",
        "ould"
      ],
      [
        "Ġ",
        "very"
      ],
      [
        "all",
        "y"
      ],
      [
        "Ġs",
        "ome"
      ],
      [
        "Ġtim",
        "e"
      ],
      [
        "ar",
        "t"
      ],
      [
        "r",
        "y"
      ],
      [
        "u",
        "l"
      ],
      [
        "Ġha",
        "d"
      ],
      [
        "d",
        "ay"
      ],
      [
        "on",
        "g"
      ],
      [
        "Ġf",
        "r"
      ],
      [
        "al",
        "k"
      ],
      [
        "am",
        "e"
      ],
      [
        "q",
        "u"
      ],
      [
        "i",
        "ght"
      ],
      [
        "f",
        "e"
      ],
      [
        "d",
        "y"
      ],
      [
        "l",
        "p"
      ],
      [
        "as",
        "t"
      ],
      [
        "Ġhe",
        "lp"
      ],
      [
        "Ġsh",
        "ould"
      ],
      [
        "Ġe",
        "at"
      ],
      [
        "es",
        "t"
      ],
      [
        "Ġhe",
        "r"
      ],
      [
        "Ġha",
        "pp"
      ],
      [
        "in",
        "d"
      ],
      [
        "Ġwe",
        "re"
      ],
      [
        "ou",
        "r"
      ],
      [
        "re",
        "e"
      ],
      [
        "ac",
        "k"
      ],
      [
        "Ġf",
        "e"
      ],
      [
        "ic",
        "e"
      ],
      [
        "an",
        "d"
      ],
      [
        "Ġl",
        "o"
      ],
      [
        "as",
        "e"
      ],
      [
        "at",
        "e"
      ],
      [
        "is",
        "t"
      ],
      [
        "Ġi",
        "f"
      ],
      [
        "Ġd",
        "e"
      ],
      [
        "Ġon",
        "e"
      ],
      [
        "Ġj",
        "ust"
      ],
      [
        "t",
        "hing"
      ],
      [
        "Ġc",
        "h"
      ],
      [
        "ay",
        "s"
      ],
      [
        "ou",
        "ght"
      ],
      [
        "o",
        "l"
      ],
      [
        "i",
        "e"
      ],
      [
        "Ġfr",
        "om"
      ],
      [
        "Ġte",
        "ll"
      ],
      [
        "e",
        "ar"
      ],
      [
        "Ġwor",
        "k"
      ],
      [
        "Ġto",
        "o"
      ],
      [
        "Ġm",
        "an"
      ],
      [
        "Ġwhe",
        "re"
      ],
      [
        "Ġbe",
        "en"
      ],
      [
        "ow",
        "n"
      ],
      [
        "Ġc",
        "ome"
      ],
      [
        "es",
        "s"
      ],
      [
        "Ġne",
        "ver"
      ],
      [
        "Ġ",
        "qu"
      ],
      [
        "Ġw",
        "on"
      ],
      [
        "er",
        "s"
      ],
      [
        "Ġa",
        "g"
      ],
      [
        "Ġc",
        "ar"
      ],
      [
        "Ġt",
        "han"
      ],
      [
        "a",
        "k"
      ],
      [
        "Ġwhe",
        "n"
      ],
      [
        "Ġg",
        "ood"
      ],
      [
        "Ġa",
        "f"
      ],
      [
        "l",
        "f"
      ],
      [
        "Ġc",
        "om"
      ],
      [
        "Ġp",
        "le"
      ],
      [
        "Ġc",
        "on"
      ],
      [
        "Ġ",
        "en"
      ],
      [
        "a",
        "p"
      ],
      [
        "s",
        "s"
      ],
      [
        "Ġn",
        "ow"
      ],
      [
        "'",
        "d"
      ],
      [
        "is",
        "h"
      ],
      [
        "e",
        "p"
      ],
      [
        "ou",
        "nd"
      ],
      [
        "Ġb",
        "ost"
      ],
      [
        "Ġbost",
        "on"
      ],
      [
        "Ġs",
        "om"
      ],
      [
        "Ġa",
        "r"
      ],
      [
        "Ġp",
        "ro"
      ],
      [
        "Ġt",
        "alk"
      ],
      [
        "ot",
        "her"
      ],
      [
        "Ġg",
        "ot"
      ],
      [
        "it",
        "e"
      ],
      [
        "Ġdoes",
        "n"
      ],
      [
        "o",
        "dy"
      ],
      [
        "Ġple",
        "ase"
      ],
      [
        "ou",
        "s"
      ],
      [
        "i",
        "f"
      ],
      [
        "Ġb",
        "y"
      ],
      [
        "Ġsom",
        "et"
      ],
      [
        "Ġh",
        "ome"
      ],
      [
        "Ġc",
        "o"
      ],
      [
        "n",
        "ing"
      ],
      [
        "or",
        "t"
      ],
      [
        "k",
        "ed"
      ],
      [
        "Ġm",
        "u"
      ],
      [
        "Ġst",
        "u"
      ],
      [
        "i",
        "g"
      ],
      [
        "Ġc",
        "l"
      ],
      [
        "Ġto",
        "ld"
      ],
      [
        "Ġu",
        "n"
      ],
      [
        "b",
        "ody"
      ],
      [
        "at",
        "ion"
      ],
      [
        "Ġ",
        "v"
      ],
      [
        "Ġre",
        "ally"
      ],
      [
        "Ġin",
        "t"
      ],
      [
        "Ġhapp",
        "en"
      ],
      [
        "e",
        "l"
      ],
      [
        "ea",
        "k"
      ],
      [
        "Ġa",
        "m"
      ],
      [
        "Ġb",
        "ack"
      ],
      [
        "Ġp",
        "e"
      ],
      [
        "Ġre",
        "ad"
      ],
      [
        "Ġlo",
        "ve"
      ],
      [
        "Ġis",
        "n"
      ],
      [
        "a",
        "u"
      ],
      [
        "Ġ",
        "ro"
      ],
      [
        "r",
        "ow"
      ],
      [
        "Ġm",
        "ore"
      ],
      [
        "Ġsp",
        "eak"
      ],
      [
        "Ġsa",
        "id"
      ],
      [
        "ar",
        "d"
      ],
      [
        "m",
        "p"
      ],
      [
        "Ġpl",
        "ay"
      ],
      [
        "Ġb",
        "ut"
      ],
      [
        "Ġsomet",
        "hing"
      ],
      [
        "Ġth",
        "ree"
      ],
      [
        "Ġmu",
        "ch"
      ],
      [
        "Ġb",
        "u"
      ],
      [
        "Ġt",
        "ake"
      ],
      [
        "Ġw",
        "at"
      ],
      [
        "Ġ",
        "or"
      ],
      [
        "Ġp",
        "r"
      ],
      [
        "Ġne",
        "w"
      ],
      [
        "Ġl",
        "e"
      ],
      [
        "Ġd",
        "r"
      ],
      [
        "ri",
        "ed"
      ],
      [
        "ri",
        "end"
      ],
      [
        "Ġb",
        "ook"
      ],
      [
        "m",
        "b"
      ],
      [
        "a",
        "g"
      ],
      [
        "Ġw",
        "r"
      ],
      [
        "Ġb",
        "us"
      ],
      [
        "Ġof",
        "f"
      ],
      [
        "Ġs",
        "ay"
      ],
      [
        "c",
        "k"
      ],
      [
        "Ġ",
        "ri"
      ],
      [
        "Ġex",
        "p"
      ],
      [
        "op",
        "le"
      ],
      [
        "at",
        "her"
      ],
      [
        "Ġpe",
        "ople"
      ],
      [
        "Ġf",
        "ren"
      ],
      [
        "Ġfren",
        "ch"
      ],
      [
        "Ġp",
        "re"
      ],
      [
        "t",
        "y"
      ],
      [
        "Ġs",
        "m"
      ],
      [
        "in",
        "e"
      ],
      [
        "as",
        "s"
      ],
      [
        "Ġany",
        "thing"
      ],
      [
        "i",
        "ld"
      ],
      [
        "Ġl",
        "ot"
      ],
      [
        "Ġb",
        "r"
      ],
      [
        "se",
        "lf"
      ],
      [
        "u",
        "re"
      ],
      [
        "ic",
        "k"
      ],
      [
        "nd",
        "er"
      ],
      [
        "one",
        "y"
      ],
      [
        "he",
        "d"
      ],
      [
        "a",
        "re"
      ],
      [
        "Ġd",
        "ay"
      ],
      [
        "Ġy",
        "ear"
      ],
      [
        "t",
        "h"
      ],
      [
        "Ġm",
        "oney"
      ],
      [
        "Ġ",
        "our"
      ],
      [
        "Ġl",
        "ong"
      ],
      [
        "Ġth",
        "ought"
      ],
      [
        "id",
        "e"
      ],
      [
        "e",
        "ct"
      ],
      [
        "ou",
        "se"
      ],
      [
        "Ġst",
        "art"
      ],
      [
        "Ġl",
        "ea"
      ],
      [
        "Ġli",
        "ve"
      ],
      [
        "Ġf",
        "riend"
      ],
      [
        "Ġj",
        "o"
      ],
      [
        "Ġ",
        "ke"
      ],
      [
        "Ġaf",
        "ter"
      ],
      [
        "oo",
        "l"
      ],
      [
        "o",
        "s"
      ],
      [
        "Ġto",
        "day"
      ],
      [
        "Ġu",
        "nder"
      ],
      [
        "w",
        "ays"
      ],
      [
        "Ġag",
        "ain"
      ],
      [
        "Ġal",
        "ways"
      ],
      [
        "Ġm",
        "ay"
      ],
      [
        "Ġh",
        "ouse"
      ],
      [
        "Ġt",
        "w"
      ],
      [
        "Ġst",
        "ill"
      ],
      [
        "n",
        "t"
      ],
      [
        "Ġl",
        "ast"
      ],
      [
        "a",
        "ble"
      ],
      [
        "Ġman",
        "y"
      ],
      [
        "Ġm",
        "ake"
      ],
      [
        "Ġa",
        "d"
      ],
      [
        "Ġg",
        "ive"
      ],
      [
        "a",
        "it"
      ],
      [
        "Ġb",
        "et"
      ],
      [
        "c",
        "c"
      ],
      [
        "Ġm",
        "ad"
      ],
      [
        "Ġd",
        "own"
      ],
      [
        "Ġst",
        "ay"
      ],
      [
        "ur",
        "n"
      ],
      [
        "Ġri",
        "ght"
      ],
      [
        "Ġc",
        "all"
      ],
      [
        "Ġth",
        "ing"
      ],
      [
        "or",
        "row"
      ],
      [
        "a",
        "b"
      ],
      [
        "t",
        "ing"
      ],
      [
        "Ġbe",
        "l"
      ],
      [
        "Ġro",
        "om"
      ],
      [
        "f",
        "t"
      ],
      [
        "Ġb",
        "o"
      ],
      [
        "t",
        "her"
      ],
      [
        "Ġcom",
        "p"
      ],
      [
        "Ġw",
        "ait"
      ],
      [
        "a",
        "ge"
      ],
      [
        "Ġw",
        "ent"
      ],
      [
        "Ġm",
        "o"
      ],
      [
        "v",
        "ing"
      ],
      [
        "Ġm",
        "ust"
      ],
      [
        "Ġch",
        "ild"
      ],
      [
        "Ġs",
        "ch"
      ],
      [
        "ou",
        "gh"
      ],
      [
        "an",
        "g"
      ],
      [
        "Ġb",
        "l"
      ],
      [
        "Ġf",
        "a"
      ],
      [
        "a",
        "ve"
      ],
      [
        "Ġd",
        "is"
      ],
      [
        "Ġon",
        "ly"
      ],
      [
        "Ġpl",
        "an"
      ],
      [
        "ac",
        "t"
      ],
      [
        "Ġo",
        "p"
      ],
      [
        "Ġs",
        "w"
      ],
      [
        "Ġlea",
        "ve"
      ],
      [
        "Ġwant",
        "ed"
      ],
      [
        "Ġd",
        "i"
      ],
      [
        "Ġfe",
        "el"
      ],
      [
        "Ġsch",
        "ool"
      ],
      [
        "r",
        "a"
      ],
      [
        "Ġsu",
        "re"
      ],
      [
        "Ġa",
        "pp"
      ],
      [
        "Ġc",
        "han"
      ],
      [
        "Ġdo",
        "ing"
      ],
      [
        "Ġmad",
        "e"
      ],
      [
        "Ġbu",
        "y"
      ],
      [
        "Ġtr",
        "y"
      ],
      [
        "u",
        "m"
      ],
      [
        "g",
        "et"
      ],
      [
        "Ġle",
        "ft"
      ],
      [
        "Ġo",
        "ld"
      ],
      [
        "Ġw",
        "ay"
      ],
      [
        "Ġtom",
        "orrow"
      ],
      [
        "Ġdo",
        "g"
      ],
      [
        "f",
        "ore"
      ],
      [
        "is",
        "s"
      ],
      [
        "Ġbe",
        "fore"
      ],
      [
        "Ġp",
        "o"
      ],
      [
        "Ġwe",
        "ll"
      ],
      [
        "Ġg",
        "u"
      ],
      [
        "Ġre",
        "m"
      ],
      [
        "ve",
        "d"
      ],
      [
        "Ġg",
        "r"
      ],
      [
        "d",
        "er"
      ],
      [
        "u",
        "e"
      ],
      [
        "Ġha",
        "nd"
      ],
      [
        "k",
        "es"
      ],
      [
        "Ġo",
        "ver"
      ],
      [
        "ac",
        "e"
      ],
      [
        "re",
        "ad"
      ],
      [
        "it",
        "t"
      ],
      [
        "t",
        "s"
      ],
      [
        "e",
        "k"
      ],
      [
        "it",
        "y"
      ],
      [
        "Ġha",
        "r"
      ],
      [
        "as",
        "on"
      ],
      [
        "mb",
        "er"
      ],
      [
        "Ġbe",
        "c"
      ],
      [
        "Ġi",
        "d"
      ],
      [
        "o",
        "se"
      ],
      [
        "Ġas",
        "ked"
      ],
      [
        "Ġunder",
        "st"
      ],
      [
        "i",
        "z"
      ],
      [
        "Ġf",
        "l"
      ],
      [
        "Ġp",
        "ut"
      ],
      [
        "Ġwe",
        "ek"
      ],
      [
        "ic",
        "t"
      ],
      [
        "re",
        "ss"
      ],
      [
        "Ġso",
        "on"
      ],
      [
        "Ġevery",
        "thing"
      ],
      [
        "Ġtw",
        "o"
      ],
      [
        "at",
        "ed"
      ],
      [
        "Ġbet",
        "ter"
      ],
      [
        "Ġwas",
        "n"
      ],
      [
        "Ġbel",
        "ie"
      ],
      [
        "Ġe",
        "ver"
      ],
      [
        "Ġc",
        "at"
      ],
      [
        "ble",
        "m"
      ],
      [
[...]
