{
  "version": "1.0",
  "truncation": null,
  "padding": {
    "strategy": "BatchLongest",
    "direction": "Right",
    "pad_to_multiple_of": null,
    "pad_id": 2,
    "pad_type_id": 0,
    "pad_token": "[pad]"
  },
  "added_tokens": [
    {
      "id": 0,
      "content": "[start]",
      "single_word": false,
      "lstrip": false,
      "rstrip": false,
      "normalized": false,
      "special": true
    },
    {
      "id": 1,
      "content": "[end]",
      "single_word": false,
      "lstrip": false,
      "rstrip": false,
      "normalized": false,
      "special": true
    },
    {
      "id": 2,
      "content": "[pad]",
      "single_word": false,
      "lstrip": false,
      "rstrip": false,
      "normalized": false,
      "special": true
    }
  ],
  "normalizer": null,
  "pre_tokenizer": {
    "type": "ByteLevel",
    "add_prefix_space": true,
    "trim_offsets": true,
    "use_regex": true
  },
  "post_processor": null,
  "decoder": {
    "type": "ByteLevel",
    "add_prefix_space": true,
    "trim_offsets": true,
    "use_regex": true
  },
  "model": {
    "type": "BPE",
    "dropout": null,
    "unk_token": null,
    "continuing_subword_prefix": null,
    "end_of_word_suffix": null,
    "fuse_unk": false,
    "byte_fallback": false,
    "ignore_merges": false,
    "vocab": {
      "[start]": 0,
      "[end]": 1,
      "[pad]": 2,
      "!": 3,
      "\"": 4,
      "$": 5,
      "%": 6,
      "'": 7,
      "(": 8,
      ")": 9,
      "+": 10,
      ",": 11,
      "-": 12,
      ".": 13,
      "/": 14,
      "0": 15,
      "1": 16,
      "2": 17,
      "3": 18,
      "4": 19,
      "5": 20,
      "6": 21,
      "7": 22,
      "8": 23,
      "9": 24,
      ":": 25,
      ";": 26,
      "?": 27,
      "`": 28,
      "a": 29,
      "b": 30,
      "c": 31,
      "d": 32,
      "e": 33,
      "f": 34,
      "g": 35,
      "h": 36,
      "i": 37,
      "j": 38,
      "k": 39,
      "l": 40,
      "m": 41,
      "n": 42,
      "o": 43,
      "p": 44,
      "q": 45,
      "r": 46,
      "s": 47,
      "t": 48,
      "u": 49,
      "v": 50,
      "w": 51,
      "x": 52,
      "y": 53,
      "z": 54,
      "¬": 55,
      "³": 56,
      "º": 57,
      "¼": 58,
      "Ã": 59,
      "Ä": 60,
      "Å": 61,
      "â": 62,
      "Ġ": 63,
      "Ģ": 64,
      "Ĥ": 65,
      "Ħ": 66,
      "ħ": 67,
      "ĩ": 68,
      "ĭ": 69,
      "ĵ": 70,
      "Ļ": 71,
      "Ľ": 72,
      "Ŀ": 73,
      "ŀ": 74,
      "ie": 75,
      "ÅĤ": 76,
      "Ġt": 77,
      "Ġp": 78,
      "ÄĻ": 79,
      "Ġn": 80,
      "Ġm": 81,
      "Ġs": 82,
      "Ġw": 83,
      "Ġz": 84,
      "Ġto": 85,
      "Ġj": 86,
      "st": 87,
      "Ġc": 88,
      "ÅĽ": 89,
      "Å¼": 90,
      "dz": 91,
      "zy": 92,
      "Ġnie": 93,
      "Ġpo": 94,
      "Äĩ": 95,
      "aÅĤ": 96,
      "Ġje": 97,
      "Ġtom": 98,
      "Äħ": 99,
      "iÄĻ": 100,
      "sz": 101,
      "Ġd": 102,
      "Ġb": 103,
      "Ã³": 104,
      "ro": 105,
      "ra": 106,
      "em": 107,
      "Ġo": 108,
      "Ġk": 109,
      "ze": 110,
      "Ġjest": 111,
      "Ġna": 112,
      "nie": 113,
      "am": 114,
      "go": 115,
      "ni": 116,
      "Å¼e": 117,
      "ĠsiÄĻ": 118,
      "Ġza": 119,
      "ow": 120,
      "ar": 121,
      "Ġdo": 122,
      "li": 123,
      "dzi": 124,
      "ch": 125,
      "Ġpr": 126,
      "ĠÅ¼e": 127,
      "dzie": 128,
      "wi": 129,
      "le": 130,
      "ci": 131,
      "ak": 132,
      "na": 133,
      "ny": 134,
      "cz": 135,
      "Ġmo": 136,
      "ko": 137,
      "Ġu": 138,
      "je": 139,
      "Ġch": 140,
      "Ġby": 141,
      "bi": 142,
      "aÄĩ": 143,
      "Ġte": 144,
      "wie": 145,
      "Ġwy": 146,
      "wo": 147,
      "Ġi": 148,
      "by": 149,
      "my": 150,
      "eÅĽ": 151,
      "ka": 152,
      "ÅĤa": 153,
      "czy": 154,
      "Ġmi": 155,
      "ÅĤo": 156,
      "dy": 157,
      "Ġro": 158,
      "Ġco": 159,
      "Ġg": 160,
      "Ġczy": 161,
      "Ġwie": 162,
      "la": 163,
      "ne": 164,
      "si": 165,
      "rze": 166,
      "ce": 167,
      "Ġprze": 168,
      "Ġjak": 169,
      "cie": 170,
      "Ġsp": 171,
      "da": 172,
      "cze": 173,
      "lu": 174,
      "aÅĤem": 175,
      "wa": 176,
      "Ġprzy": 177,
      "Ġni": 178,
      "ta": 179,
      "Ġma": 180,
      "szy": 181,
      "Ġko": 182,
      "ĠmÃ³": 183,
      "jÄĻ": 184,
      "ÅĤem": 185,
      "Ġmar": 186,
      "Ġod": 187,
      "Ġty": 188,
      "Ġa": 189,
      "Ġcz": 190,
      "ÅĦ": 191,
      "Ġmu": 192,
      "Ġpra": 193,
      "ki": 194,
      "rzy": 195,
      "rz": 196,
      "ost": 197,
      "ku": 198,
      "ry": 199,
      "Ġzro": 200,
      "bie": 201,
      "to": 202,
      "Åº": 203,
      "ty": 204,
      "Ġmary": 205,
      "Ġpowie": 206,
      "ja": 207,
      "jÄħ": 208,
      "ÅĽÄĩ": 209,
      "sze": 210,
      "cy": 211,
      "nia": 212,
      "ÅĤy": 213,
      "Ġmnie": 214,
      "dziaÅĤ": 215,
      "Å¼y": 216,
      "no": 217,
      "Ã³w": 218,
      "ĠÅĽ": 219,
      "ĠjesteÅĽ": 220,
      "Ġzrobi": 221,
      "Ġlu": 222,
      "ad": 223,
      "te": 224,
      "re": 225,
      "Ġpro": 226,
      "Ġsz": 227,
      "Ġmam": 228,
      "pi": 229,
      "mi": 230,
      "Ġst": 231,
      "Ġjestem": 232,
      "nÄħ": 233,
      "Ġmy": 234,
      "mie": 235,
      "Ġtego": 236,
      "kie": 237,
      "Ġwi": 238,
      "ÅĤu": 239,
      "Ġra": 240,
      "Ġgo": 241,
      "ba": 242,
      "po": 243,
      "Ġci": 244,
      "ĠbyÅĤ": 245,
      "Ġtak": 246,
      "ĠbÄĻ": 247,
      "Ġwszy": 248,
      "ma": 249,
      "ĠmyÅĽ": 250,
      "as": 251,
      "dÄĻ": 252,
      "Ġtoma": 253,
      "sta": 254,
      "rÃ³": 255,
      "ÅĽmy": 256,
      "uÅ¼": 257,
      "Ġsam": 258,
      "Ġroz": 259,
      "Ġdzie": 260,
      "szÄĻ": 261,
      "Ġdla": 262,
      "ĠsÄħ": 263,
      "Ġmog": 264,
      "Ġpod": 265,
      "Ġf": 266,
      "kÄĻ": 267,
      "ru": 268,
      "ĠmoÅ¼e": 269,
      "Ġpa": 270,
      "Ġtu": 271,
      "cÄĻ": 272,
      "pie": 273,
      "Ġbar": 274,
      "ÅĽci": 275,
      "Ġzost": 276,
      "mu": 277,
      "owa": 278,
      "Ã³j": 279,
      "Äħd": 280,
      "Ġmie": 281,
      "aÅĤa": 282,
      "aj": 283,
      "owi": 284,
      "dzo": 285,
      "Ġchci": 286,
      "Ġkie": 287,
      "Ġspo": 288,
      "Ġpi": 289,
      "Ġon": 290,
      "bu": 291,
      "Ġmusi": 292,
      "wy": 293,
      "Ġbardzo": 294,
      "cu": 295,
      "bym": 296,
      "Ġpot": 297,
      "pra": 298,
      "Ġdob": 299,
      "liÅĽmy": 300,
      "en": 301,
      "ĠmyÅĽl": 302,
      "Ġkto": 303,
      "Ġswo": 304,
      "ĠbÄĻdzie": 305,
      "ek": 306,
      "Ġka": 307,
      "Ġchce": 308,
      "ĠmÃ³wi": 309,
      "nu": 310,
      "Ġkiedy": 311,
      "ony": 312,
      "ĠpowiedziaÅĤ": 313,
      "ĠciÄĻ": 314,
      "tÃ³": 315,
      "Ġze": 316,
      "Ġzna": 317,
      "Ġpowi": 318,
      "Ġku": 319,
      "aÅĤo": 320,
      "Ġtym": 321,
      "Ġwszyst": 322,
      "Ġpie": 323,
      "cho": 324,
      "Ġpom": 325,
      "Ġtwo": 326,
      "im": 327,
      "ĠÅ¼eby": 328,
      "Ġcie": 329,
      "Ġdzi": 330,
      "ĠzrobiÄĩ": 331,
      "ĠmogÄĻ": 332,
      "Ġle": 333,
      "Ġja": 334,
      "ĠjuÅ¼": 335,
      "tu": 336,
      "Ġten": 337,
      "ĠchciaÅĤ": 338,
      "Ġpraw": 339,
      "Ġczas": 340,
      "Ġrobi": 341,
      "ĠktÃ³": 342,
      "owaÄĩ": 343,
      "we": 344,
      "Ġzd": 345,
      "ĠchcÄĻ": 346,
      "dze": 347,
      "gl": 348,
      "siÄħ": 349,
      "Ġsamo": 350,
      "ami": 351,
      "Ġnig": 352,
      "Ġcze": 353,
      "Ġgdzie": 354,
      "owie": 355,
      "raz": 356,
      "ga": 357,
      "dzieÄĩ": 358,
      "Ġnigdy": 359,
      "gÅĤ": 360,
      "nÄĻ": 361,
      "Ġpe": 362,
      "ĠwiÄĻ": 363,
      "Ġlubi": 364,
      "Ġzap": 365,
      "dÅĤ": 366,
      "or": 367,
      "ÅĽli": 368,
      "ĠbyÅĤo": 369,
      "czyÄĩ": 370,
      "Ġwo": 371,
      "czego": 372,
      "owaÅĤ": 373,
      "czÄĻ": 374,
      "ĠbyÄĩ": 375,
      "Ġdomu": 376,
      "osto": 377,
      "Ġbosto": 378,
      "ej": 379,
      "emy": 380,
      "ĠmÃ³j": 381,
      "Ġmoje": 382,
      "Ġwiem": 383,
      "Ġpotrze": 384,
      "Ġob": 385,
      "ÅĤam": 386,
      "Ġtam": 387,
      "owy": 388,
      "emu": 389,
      "Ġin": 390,
      "lo": 391,
      "Ġtrzy": 392,
      "praw": 393,
      "ob": 394,
      "ca": 395,
      "ÅĽcie": 396,
      "ÅĽnie": 397,
      "ĠcoÅĽ": 398,
      "ez": 399,
      "biÄĻ": 400,
      "oba": 401,
      "Ġona": 402,
      "lko": 403,
      "ÅĤeÅĽ": 404,
      "ran": 405,
      "Ġdlaczego": 406,
      "niu": 407,
      "nien": 408,
      "Ġmasz": 409,
      "Ġcho": 410,
      "dÅº": 411,
      "kiem": 412,
      "szcze": 413,
      "Ġta": 414,
      "Ġh": 415,
      "Ġpowinien": 416,
      "wÃ³j": 417,
      "Ġpoz": 418,
      "Ġtomowi": 419,
      "rÄĻ": 420,
      "Ġtylko": 421,
      "ĠÅ¼": 422,
      "ĠmÃ³gÅĤ": 423,
      "Ġsta": 424,
      "Ġnapraw": 425,
      "Ġno": 426,
      "Ġla": 427,
      "niÄĻ": 428,
      "sa": 429,
      "mawi": 430,
      "Ġjego": 431,
      "Ġprzez": 432,
      "ĠnaprawdÄĻ": 433,
      "Ġjeszcze": 434,
      "czo": 435,
      "sto": 436,
      "Ġwygl": 437,
      "aÅĤy": 438,
      "ĠÅ¼y": 439,
      "nym": 440,
      "Ġzam": 441,
      "nego": 442,
      "ĠproszÄĻ": 443,
      "ĠmyÅĽlÄĻ": 444,
      "Ġfran": 445,
      "Ġkupi": 446,
      "pu": 447,
      "Ġswoje": 448,
      "Äħda": 449,
      "Ġwszystko": 450,
      "Ġso": 451,
      "Ġbo": 452,
      "Ġchcesz": 453,
      "ĠksiÄħ": 454,
      "Ġteraz": 455,
      "taj": 456,
      "ĠmoÅ¼esz": 457,
      "aÅĤeÅĽ": 458,
      "waÅ¼": 459,
      "du": 460,
      "Ã³d": 461,
      "szedÅĤ": 462,
      "scy": 463,
      "Ã³ÅĤ": 464,
      "dziaÅĤem": 465,
      "Ġfrancu": 466,
      "Ġbi": 467,
      "Ġnaj": 468,
      "Ġfrancus": 469,
      "Ġnic": 470,
      "ji": 471,
      "Ġzaw": 472,
      "Ġsko": 473,
      "pe": 474,
      "Ġli": 475,
      "raj": 476,
      "Ġpotrzebu": 477,
      "il": 478,
      "Ġale": 479,
      "ĠmoÅ¼": 480,
      "lem": 481,
      "Ġpomo": 482,
      "ciÄħ": 483,
      "waÄĩ": 484,
      "cia": 485,
      "ĠlubiÄĻ": 486,
      "Ġgra": 487,
      "Ġzosta": 488,
      "Ġnau": 489,
      "Ġzn": 490,
      "Ġwszyscy": 491,
      "ĠmuszÄĻ": 492,
      "Ġdobrze": 493,
      "pro": 494,
      "dziÄĩ": 495,
      "dzÄĻ": 496,
      "Ġbez": 497,
      "Ġsobie": 498,
      "ĠduÅ¼": 499,
      "kt": 500,
      "ĠksiÄħÅ¼": 501,
      "Ġzawsze": 502,
      "rw": 503,
      "pa": 504,
      "Ġzoba": 505,
      "ĠiÅĽÄĩ": 506,
      "su": 507,
      "Ġraz": 508,
      "Ġciebie": 509,
      "nik": 510,
      "Ġmiesz": 511,
      "arz": 512,
      "tk": 513,
      "ego": 514,
      "Ġszko": 515,
      "ut": 516,
      "Ġtwoje": 517,
      "wia": 518,
      "sy": 519,
      "niej": 520,
      "cej": 521,
      "Ġsk": 522,
      "ĠchciaÅĤbym": 523,
      "Ġgdy": 524,
      "jesz": 525,
      "ĠwyglÄħda": 526,
      "ĠduÅ¼o": 527,
      "ĠmiaÅĤ": 528,
      "Ġda": 529,
      "Ġau": 530,
      "ĠdÅĤu": 531,
      "ĠwÅĤa": 532,
      "Ġjej": 533,
      "gie": 534,
      "niÄĩ": 535,
      "Ġjed": 536,
      "gi": 537,
      "mo": 538,
      "ud": 539,
      "ĠbyÅĤa": 540,
      "Ġtele": 541,
      "Ġprzyja": 542,
      "Ġprawda": 543,
      "powie": 544,
      "Ã³b": 545,
      "Ã³Åº": 546,
      "Ġtutaj": 547,
      "ĠwiÄĻcej": 548,
      "ĠpomÃ³": 549,
      "trzy": 550,
      "cha": 551,
      "Ġrodzi": 552,
      "ĠktoÅĽ": 553,
      "ĠniÅ¼": 554,
      "ĠbyÅĤem": 555,
      "er": 556,
      "Ġtro": 557,
      "ĠpiÄĻ": 558,
      "Ġwa": 559,
      "ĠwrÃ³": 560,
      "byÅĽ": 561,
      "Ġprzyj": 562,
      "nt": 563,
      "rÄħ": 564,
      "Ġnas": 565,
      "rud": 566,
      "Ġdom": 567,
      "do": 568,
      "Ġpla": 569,
      "Ġtej": 570,
      "Ġspra": 571,
      "tka": 572,
      "byt": 573,
      "Ġprob": 574,
      "Ġrze": 575,
      "Ġprzed": 576,
      "dzy": 577,
      "ĠjeÅĽli": 578,
      "bo": 579,
      "Ġsie": 580,
      "js": 581,
      "ĠjesteÅĽmy": 582,
      "sie": 583,
      "ÅĦczy": 584,
      "Ġjut": 585,
      "kiego": 586,
      "Ġczego": 587,
      "sza": 588,
      "Ġmoja": 589,
      "cja": 590,
      "lÄĻ": 591,
      "so": 592,
      "umie": 593,
      "ĠkaÅ¼": 594,
      "fi": 595,
      "dzwo": 596,
      "chÄĻ": 597,
      "Ġim": 598,
      "Ġjakie": 599,
      "Ġwe": 600,
      "ÅĤad": 601,
      "czÄħ": 602,
      "Ġzbyt": 603,
      "Ġnikt": 604,
      "czoraj": 605,
      "ĠrobiÄĩ": 606,
      "nÄħÅĤ": 607,
      "Ġwczoraj": 608,
      "ĠpowiedzieÄĩ": 609,
      "cjÄĻ": 610,
      "cji": 611,
      "gu": 612,
      "nych": 613,
      "Ġmusisz": 614,
      "ĠtÄĻ": 615,
      "ĠbÄĻdÄĻ": 616,
      "Ġpowin": 617,
      "an": 618,
      "Ġbostonie": 619,
      "kÄħ": 620,
      "Ġczemu": 621,
      "Ġwz": 622,
      "ĠktÃ³ry": 623,
      "ĠdziÅĽ": 624,
      "Ġlat": 625,
      "ĠtwÃ³j": 626,
      "Ġbra": 627,
      "ĠzajÄĻ": 628,
      "owo": 629,
      "tÄĻ": 630,
      "Ġdzieci": 631,
      "Ġczasu": 632,
      "Ġoj": 633,
      "ĠmyÅĽli": 634,
      "bÄħ": 635,
      "Ġile": 636,
      "Ġjutro": 637,
      "ĠtrochÄĻ": 638,
      "sko": 639,
      "chÃ³d": 640,
      "koj": 641,
      "stu": 642,
      "ĠsÅĤy": 643,
      "ĠczÄĻ": 644,
      "ĠzrobiÅĤ": 645,
      "Ġbostonu": 646,
      "nawi": 647,
      "Ġrozmawi": 648,
      "tem": 649,
      "Ġpy": 650,
      "Ġbu": 651,
      "Ġsu": 652,
      "Ġwcze": 653,
      "ĠtobÄħ": 654,
      "Ġmamy": 655,
      "ĠcaÅĤ": 656,
      "Ġok": 657,
      "amiÄĻ": 658,
      "Ġczu": 659,
      "ĠuwaÅ¼": 660,
      "sty": 661,
      "cza": 662,
      "kol": 663,
      "tni": 664,
      "Ġjedze": 665,
      "ĠwrÃ³ci": 666,
      "wiek": 667,
      "ĠmyÅĽlaÅĤem": 668,
      "kolwiek": 669,
      "Ġszy": 670,
      "Ġzm": 671,
      "siaj": 672,
      "Ġjaki": 673,
      "ĠszczÄĻ": 674,
      "Ġdzisiaj": 675,
      "Ġnadzie": 676,
      "Ġlek": 677,
      "os": 678,
      "Ġsto": 679,
      "Ġtomem": 680,
      "kaz": 681,
      "ĠsamochÃ³d": 682,
      "ĠmoÅ¼emy": 683,
      "gra": 684,
      "waÅĤ": 685,
      "Ġwiele": 686,
      "Ġdobry": 687,
      "Ġnauczy": 688,
      "ĠwczeÅĽnie": 689,
      "Ġodpowie": 690,
      "Ġpow": 691,
      "ĠzostaÅĤ": 692,
      "Ġnam": 693,
      "Ġumie": 694,
      "niÅĤ": 695,
      "Ġstar": 696,
      "Ġgodzi": 697,
      "rzu": 698,
      "pom": 699,
      "pad": 700,
      "Ġot": 701,
      "czu": 702,
      "ĠÅĽwie": 703,
      "Ġpew": 704,
      "sÅĤ": 705,
      "ĠktÃ³re": 706,
      "Ġsy": 707,
      "Ġws": 708,
      "Ġpoli": 709,
      "niem": 710,
      "amy": 711,
      "owany": 712,
      "ĠpomÃ³c": 713,
      "chaÄĩ": 714,
      "czony": 715,
      "Ġproblem": 716,
      "bra": 717,
      "Ġsi": 718,
      "ĠsÅĤ": 719,
      "Ġpomy": 720,
      "Ġba": 721,
      "Ġmiejs": 722,
      "Ġdrz": 723,
      "Ġre": 724,
      "Ġszyb": 725,
      "wiÄĻ": 726,
      "arzy": 727,
      "roz": 728,
      "god": 729,
      "rÃ³b": 730,
      "ĠnadziejÄĻ": 731,
      "stÄĻ": 732,
      "ĠpieniÄĻ": 733,
      "ĠwÅĤaÅĽnie": 734,
      "Ġde": 735,
      "Ġmieszka": 736,
      "kaÄĩ": 737,
      "ĠpÃ³j": 738,
      "nij": 739,
      "Ġan": 740,
      "Ġpyta": 741,
      "Ġmusimy": 742,
      "ĠswÃ³j": 743,
      "Ġwiesz": 744,
      "Ġpotra": 745,
      "Ġdro": 746,
      "Ġpracy": 747,
      "ĠpowinieneÅĽ": 748,
      "Ġkil": 749,
      "ĠgÅĤo": 750,
      "Ġstra": 751,
      "ski": 752,
      "ĠpamiÄĻ": 753,
      "Ã³l": 754,
      "ĠwiedziaÅĤ": 755,
      "ter": 756,
      "ĠpieniÄĻdzy": 757,
      "Ġe": 758,
      "aÅĤam": 759,
      "piej": 760,
      "Ġfrancusku": 761,
      "Ġzmie": 762,
      "stwo": 763,
      "Ġpopro": 764,
      "Ġdu": 765,
      "koju": 766,
      "ia": 767,
      "kÅĤad": 768,
      "Ġosta": 769,
      "cÄħ": 770,
      "ich": 771,
      "Ġkom": 772,
      "Ġdrzwi": 773,
      "taÄĩ": 774,
      "lej": 775,
      "Ã³r": 776,
      "dziÅĤ": 777,
      "co": 778,
      "ĠrÄĻ": 779,
      "ĠsÅĤu": 780,
      "Ġrozumie": 781,
      "niÄħ": 782,
      "siÅĤ": 783,
      "ĠstaÅĤo": 784,
      "ĠczÄĻsto": 785,
      "on": 786,
      "Ġry": 787,
      "ĠpÅĤy": 788,
      "owaÅĤem": 789,
      "Ġgot": 790,
      "ÄħdÅº": 791,
      "daje": 792,
      "Ġsamocho": 793,
      "Ġpowo": 794,
      "Ġuwie": 795,
      "Ġtomek": 796,
      "Ġprawie": 797,
      "rt": 798,
      "ĠskoÅĦczy": 799,
      "cznie": 800,
      "Ġmoim": 801,
      "ĠuÅ¼y": 802,
      "ĠpiÄĻk": 803,
      "Ġpu": 804,
      "ĠzobaczyÄĩ": 805,
      "Ġporoz": 806,
      "danie": 807,
      "ona": 808,
      "Ġog": 809,
      "owe": 810,
      "ĠÅĤa": 811,
      "Ġstud": 812,
      "ĠdÅĤugo": 813,
      "stra": 814,
      "Ġos": 815,
      "wien": 816,
      "Ġpan": 817,
      "Ġpewien": 818,
      "Ġpokoju": 819,
      "wiÄĩ": 820,
      "Ġwyj": 821,
      "bli": 822,
      "dziÄĻ": 823,
      "Ġpracu": 824,
      "ĠpotrzebujÄĻ": 825,
      "Ġporozmawi": 826,
      "siÄĻ": 827,
      "Ġtrze": 828,
      "ĠdzieÅĦ": 829,
      "Ġoni": 830,
      "Ġzapom": 831,
      "ĠchÅĤo": 832,
      "ĠwiedzieÄĩ": 833,
      "Ġlepiej": 834,
      "giel": 835,
      "de": 836,
      "Å¼a": 837,
      "ĠprÃ³b": 838,
      "pis": 839,
      "ĠÅĽmie": 840,
      "czyÅĤ": 841,
      "ÅĤÄħ": 842,
      "Ġpok": 843,
      "Ġzamie": 844,
      "ĠszczÄĻÅĽli": 845,
      "ciec": 846,
      "Ġrzeczy": 847,
      "Ġprzysz": 848,
      "Ġprostu": 849,
      "Ġangiel": 850,
      "dob": 851,
      "ĠjÄħ": 852,
      "Ġludzi": 853,
      "Ġspotka": 854,
      "Ġauto": 855,
      "Ġkilka": 856,
      "ciÅĤ": 857,
      "wczy": 858,
      "Ġzadzwo": 859,
      "wiÄħ": 860,
      "nej": 861,
      "ĠmyÅĽlisz": 862,
      "stÄĻp": 863,
      "jemy": 864,
      "wiz": 865,
      "Ġwol": 866,
      "Ġmojego": 867,
      "Ġpowinienem": 868,
      "Ġprzyjaci": 869,
      "wiÅĤ": 870,
      "Ġroku": 871,
      "gÄĻ": 872,
      "zie": 873,
      "chaÅĤ": 874,
      "rzÄħ": 875,
      "ĠzostaÄĩ": 876,
      "ĠkaÅ¼dy": 877,
      "Ġszybko": 878,
      "dÅĤem": 879,
      "Ġpoma": 880,
      "Ã³Å¼": 881,
      "noÅĽci": 882,
      "Ġdziec": 883,
      "Ġjapo": 884,
      "peÅĤ": 885,
      "Ġtelef": 886,
      "Ġpad": 887,
      "Ġdziewczy": 888,
      "Ġpierw": 889,
      "chodzi": 890,
      "ĠksiÄħÅ¼kÄĻ": 891,
      "Ġnowy": 892,
      "ĠmÅĤo": 893,
      "Ġniez": 894,
      "ĠspÃ³Åº": 895,
      "Ġkogo": 896,
      "Ġrano": 897,
      "Ġnauczycie": 898,
      "ĠprzyjaciÃ³ÅĤ": 899,
      "lar": 900,
      "Ġtrud": 901,
      "ĠjÄĻ": 902,
      "Ġbie": 903,
      "war": 904,
      "ĠmÄĻ": 905,
      "Ġzwy": 906,
      "dziej": 907,
      "tnie": 908,
      "ĠmiaÅĤem": 909,
      "lubi": 910,
      "rzÄĻ": 911,
      "Ġspotk": 912,
      "al": 913,
      "Ġpar": 914,
      "Ġpos": 915,
      "ĠbÄħdÅº": 916,
      "ĠmÃ³wiÄĩ": 917,
      "Ġtwoja": 918,
      "dÄħ": 919,
      "ĠcaÅĤy": 920,
      "ĠgÅĤ": 921,
      "Ġniko": 922,
      "ĠpracÄĻ": 923,
      "ĠwidziaÅĤ": 924,
      "Ġtakie": 925,
      "rÃ³Å¼": 926,
      "ĠpieniÄħ": 927,
      "ĠsÅĤysz": 928,
      "Ġlo": 929,
      "Ġzje": 930,
      "ĠwidziaÅĤem": 931,
      "ÅĤud": 932,
      "ĠswojÄħ": 933,
      "Ġzde": 934,
      "Ġzapro": 935,
      "ĠposzedÅĤ": 936,
      "Ġdwa": 937,
      "Ġchwi": 938,
      "Ġkon": 939,
      "Ġtygod": 940,
      "ÅĤym": 941,
      "ĠbÄĻdziesz": 942,
      "ciÄħg": 943,
      "taÅĤ": 944,
      "Ġum": 945,
      "Å¼yÅĤ": 946,
      "Ġponie": 947,
      "szÄħ": 948,
      "Ġkim": 949,
      "Ġstanie": 950,
      "Ġznam": 951,
      "Ġpotrafi": 952,
      "ĠmnÄħ": 953,
      "mia": 954,
      "stÄħ": 955,
      "dzÄħ": 956,
      "Ġaby": 957,
      "rza": 958,
      "Ġszu": 959,
      "Ġznale": 960,
      "Ġwszystki": 961,
      "Ġpozwo": 962,
      "ĠpieniÄħdze": 963,
      "sk": 964,
      "ĠpÃ³Åº": 965,
      "ste": 966,
      "Ġus": 967,
      "nek": 968,
      "Ġtelewiz": 969,
      "Ġojciec": 970,
      "ĠjÄĻzy": 971,
      "ĠpÅĤa": 972,
      "szcz": 973,
      "lep": 974,
      "Ġich": 975,
      "ĠkiedyÅĽ": 976,
      "Ġobie": 977,
      "szym": 978,
      "Ġkosz": 979,
      "in": 980,
      "wÄĻ": 981,
      "tere": 982,
      "dopo": 983,
      "kÃ³w": 984,
      "arÅĤ": 985,
      "Ġdost": 986,
      "Ġwiecz": 987,
      "uje": 988,
      "ĠbÅĤ": 989,
      "Ġklu": 990,
      "Ġga": 991,
      "Ġczym": 992,
      "Ġprac": 993,
      "Ġzamk": 994,
      "ĠzajÄĻty": 995,
      "Ġnienawi": 996,
      "rzyÄĩ": 997,
      "Ġsiebie": 998,
      "dopodob": 999,
      "rÃ³w": 1000,
      "ÅĤowie": 1001,
      "Ġme": 1002,
      "czny": 1003,
      "ĠciÄĻÅ¼": 1004,
      "nnie": 1005,
      "Ġzja": 1006,
      "Ġzabi": 1007,
      "ĠkoÅĦ": 1008,
      "ado": 1009,
      "ĠzaczÄħ": 1010,
      "ciÄĩ": 1011,
      "ĠteÅ¼": 1012,
      "dal": 1013,
      "Ġautobu": 1014,
      "sku": 1015,
      "Ġdaj": 1016,
      "Ġzasta": 1017,
      "Ġprzesta": 1018,
      "ĠspÄĻ": 1019,
      "Ġmart": 1020,
      "Ġwszystkie": 1021,
      "ĠpeÅĤ": 1022,
      "ĠkupiÄĩ": 1023,
      "zna": 1024,
      "ĠsÅĤo": 1025,
      "Ġposta": 1026,
      "liÄĩ": 1027,
      "ĠÅĽpie": 1028,
      "Ġludzie": 1029,
      "Ġrazem": 1030,
      "ĠszkoÅĤy": 1031,
      "ĠwczeÅĽniej": 1032,
      "ĠchÅĤop": 1033,
      "Ġ1": 1034,
      "Ġogl": 1035,
      "laz": 1036,
      "ĠÅ¼ad": 1037,
      "ciÄħÅ¼": 1038,
      "Ġpowinni": 1039,
      "one": 1040,
      "ĠÅĤ": 1041,
      "Ġulubi": 1042,
      "ĠÅ¼ebyÅĽ": 1043,
      "Ġobo": 1044,
      "wiat": 1045,
      "ĠporozmawiaÄĩ": 1046,
      "nowi": 1047,
      "ĠwciÄħÅ¼": 1048,
      "dziÅĤem": 1049,
      "Ġuk": 1050,
      "Ġchy": 1051,
      "Ġprawdopodob": 1052,
      "Ġpotrzeb": 1053,
      "Ġaustra": 1054,
      "Ġprzyjacie": 1055,
      "trzym": 1056,
      "ĠzmÄĻ": 1057,
      "ĠznaleÅº": 1058,
      "Ġce": 1059,
      "dza": 1060,
      "Ġwydaje": 1061,
      "ĠwiedziaÅĤem": 1062,
      "ĠczÅĤowie": 1063,
      "ent": 1064,
      "Ġswojego": 1065,
      "Ġchyba": 1066,
      "Ġzaczy": 1067,
      "ÅĤaÅĽ": 1068,
      "um": 1069,
      "Ġuro": 1070,
      "Ġteni": 1071,
      "dny": 1072,
      "Ġjad": 1073,
      "Ġjedy": 1074,
      "ĠjeÅĽÄĩ": 1075,
      "owÄħ": 1076,
      "jmy": 1077,
      "trz": 1078,
      "Ġtemu": 1079,
      "obÄħ": 1080,
      "Ġsiost": 1081,
      "tÄħ": 1082,
      "tki": 1083,
      "Ġwra": 1084,
      "dzisz": 1085,
      "Ġpodoba": 1086,
      "orem": 1087,
      "Ġlist": 1088,
      "Ġostatni": 1089,
      "Ġobi": 1090,
      "Ġzad": 1091,
      "owu": 1092,
      "Ġzroz": 1093,
      "Ġmojej": 1094,
      "Ġlata": 1095,
      "raÅĤ": 1096,
      "ĠdziaÅĤ": 1097,
      "Ġtra": 1098,
      "Ġdru": 1099,
      "Ġnasze": 1100,
      "Ġnadal": 1101,
      "lii": 1102,
      "Ġnim": 1103,
      "ĠchciaÅĤem": 1104,
      "ĠÅ¼ycie": 1105,
      "Ġjedzenie": 1106,
      "Ġrozumiem": 1107,
      "nÄħÄĩ": 1108,
      "Ġlubisz": 1109,
      "ĠgraÄĩ": 1110,
      "ĠpokÃ³j": 1111,
      "io": 1112,
      "iÄħ": 1113,
      "tam": 1114,
      "Ġsze": 1115,
      "ĠzÅĤa": 1116,
      "Ġposz": 1117,
      "Ġpoje": 1118,
      "Ġminu": 1119,
      "Ġbiu": 1120,
      "Ġfrancuskiego": 1121,
      "Ġobiad": 1122,
      "ĠmiÄĻ": 1123,
      "Ġnad": 1124,
      "Ġmia": 1125,
      "ĠgÅĤu": 1126,
      "Ġsprze": 1127,
      "ĠÅĽnia": 1128,
      "Ġstro": 1129,
      "ĠpiÅĤ": 1130,
      "ĠmÄĻÅ¼": 1131,
      "kam": 1132,
      "Ġzie": 1133,
      "star": 1134,
      "Ġost": 1135,
      "Ġoczy": 1136,
      "Ġkar": 1137,
      "liwe": 1138,
      "Ġpowiedz": 1139,
      "cje": 1140,
      "gar": 1141,
      "rem": 1142,
      "Ġpora": 1143,
      "owego": 1144,
      "chu": 1145,
      "dziesz": 1146,
      "Ġprzeczy": 1147,
      "Ġprzyje": 1148,
      "piÄĻ": 1149,
      "Ġniego": 1150,
      "ĠpoÅĤud": 1151,
      "ĠmusiaÅĤ": 1152,
      "Ġzapy": 1153,
      "Ġzim": 1154,
      "Ġzas": 1155,
      "czenia": 1156,
      "Ġkoch": 1157,
      "Ġfi": 1158,
      "Ġpomocy": 1159,
      "Ġlekarz": 1160,
      "ery": 1161,
      "pre": 1162,
      "za": 1163,
      "Ġop": 1164,
      "Ġuczy": 1165,
      "czenie": 1166,
      "tego": 1167,
      "tak": 1168,
      "Ġprzest": 1169,
      "Ġzdro": 1170,
      "Ġ\"": 1171,
      "rod": 1172,
      "ĠprzyszedÅĤ": 1173,
      "jÄĻcia": 1174,
      "Ġtwoim": 1175,
      "ĠwiÄĻk": 1176,
      "Ġwieczorem": 1177,
      "Ġzau": 1178,
      "czne": 1179,
      "Ġprzepra": 1180,
      "Ġzastanawi": 1181,
      "ĠprzestaÅĦ": 1182,
      "Ġaustralii": 1183,
      "ĠzÅĤy": 1184,
      "owaÅĤa": 1185,
      "ĠdokÅĤad": 1186,
      "Ġwielu": 1187,
      "rzÄħd": 1188,
      "szedÅĤem": 1189,
      "Ġtaki": 1190,
      "Ġswoim": 1191,
      "ĠmÃ³gÅĤbym": 1192,
      "Ġplanu": 1193,
      "Ġpowodu": 1194,
      "ali": 1195,
      "ĠwÅĤo": 1196,
      "ÅĽmie": 1197,
      "Ġzach": 1198,
      "czaj": 1199,
      "Ġbyli": 1200,
      "ĠzapÅĤa": 1201,
      "ĠmÃ³gÅĤbyÅĽ": 1202,
      "ĠmÄĻÅ¼czy": 1203,
      "szo": 1204,
      "Ġnami": 1205,
      "ĠpowiedziaÅĤem": 1206,
      "Ġfil": 1207,
      "Ġkiedykolwiek": 1208,
      "Ġznalaz": 1209,
      "wet": 1210,
      "Ġhi": 1211,
      "ĠpomysÅĤ": 1212,
      "ĠÅĤat": 1213,
      "ii": 1214,
      "tar": 1215,
      "nika": 1216,
      "leko": 1217,
      "Ġmuzy": 1218,
      "cyd": 1219,
      "rÃ³t": 1220,
      "Ġkana": 1221,
      "Ġzesz": 1222,
      "Ġpomoc": 1223,
      "Ġznowu": 1224,
      "ĠksiÄħÅ¼ka": 1225,
      "ĠpowinniÅĽmy": 1226,
      "caÅĤ": 1227,
      "ĠpociÄħg": 1228,
      "ĠmajÄħ": 1229,
      "tek": 1230,
      "Ġrazy": 1231,
      "Ġswojej": 1232,
      "Ġpytanie": 1233,
      "lony": 1234,
      "ĠdziÄĻ": 1235,
      "siÄĩ": 1236,
      "Ġdziw": 1237,
      "ĠjakieÅĽ": 1238,
      "Ġnikogo": 1239,
      "Ġkla": 1240,
      "Ġwystar": 1241,
      "Ġpies": 1242,
      "Ġnocy": 1243,
      "Ġjedzenia": 1244,
      "ĠusÅĤy": 1245,
      "ĠpoÅ¼y": 1246,
      "Ġnawet": 1247,
      "ĠzaczÄĻ": 1248,
      "ĠÅ¼ebym": 1249,
      "dzieÅĽci": 1250,
      "kona": 1251,
      "Ġwypad": 1252,
      "siad": 1253,
      "ĠpowiedziaÅĤeÅĽ": 1254,
      "ĠwziÄħ": 1255,
      "ĠponiedziaÅĤ": 1256,
      "Ġautobus": 1257,
      "Ġtenisa": 1258,
      "Ġpokaz": 1259,
      "Ġdobre": 1260,
      "Ġzapomni": 1261,
      "adomo": 1262,
      "Ġzaczyna": 1263,
      "fa": 1264,
      "ote": 1265,
      "py": 1266,
      "prze": 1267,
      "Ġam": 1268,
      "ĠzÅĤo": 1269,
      "ciw": 1270,
      "Ġwyd": 1271,
      "Ġprowa": 1272,
      "Ġchodzi": 1273,
      "ĠwyglÄħd": 1274,
      "Ġtygodniu": 1275,
      "ĠznaleÅºÄĩ": 1276,
      "cÃ³w": 1277,
      "kaÅĤ": 1278,
      "sÄħd": 1279,
      "trze": 1280,
      "âĢ": 1281,
      "Ġkobie": 1282,
      "lbi": 1283,
      "Ġwyg": 1284,
      "ĠÅĽnie": 1285,
      "ĠzrobiÅĤem": 1286,
      "ĠrozsÄħd": 1287,
      "ĠbÄĻdziemy": 1288,
      "prowa": 1289,
      "ĠwaÅ¼": 1290,
      "Ġspraw": 1291,
      "Ġkompu": 1292,
      "Ġprzeprasz": 1293,
      "pli": 1294,
      "ĠnastÄĻp": 1295,
      "Ġcodzie": 1296,
      "Ġode": 1297,
      "rzyÅĤ": 1298,
      "jÄħce": 1299,
      "Ġwiadomo": 1300,
      "owanie": 1301,
      "ĠkupiÅĤ": 1302,
      "Ġimpre": 1303,
      "Ġuwielbi": 1304,
      "ĠpadaÄĩ": 1305,
      "kle": 1306,
      "skiego": 1307,
      "ownik": 1308,
      "Ġprz": 1309,
      "ciu": 1310,
      "ĠgÃ³": 1311,
      "tych": 1312,
      "ĠspÃ³Åºni": 1313,
      "nii": 1314,
      "Å¼ej": 1315,
      "owej": 1316,
      "Ġwiel": 1317,
      "ĠÅĽwiat": 1318,
      "Ġznaj": 1319,
      "Ġotwo": 1320,
      "ĠÅĽniadanie": 1321,
      "ĠpoÅĤudniu": 1322,
      "Ġsen": 1323,
      "Ġzga": 1324,
      "Ġpogo": 1325,
      "ĠmojÄħ": 1326,
      "Ġwyja": 1327,
      "Ġdziecko": 1328,
      "Ġzdecyd": 1329,
      "at": 1330,
      "dem": 1331,
      "gle": 1332,
      "Ġdzwo": 1333,
      "Ġoko": 1334,
      "Ġpre": 1335,
      "aka": 1336,
      "Ġucz": 1337,
      "Ġspa": 1338,
      "Ġkocha": 1339,
      "Ġkolej": 1340,
      "biera": 1341,
      "noÅĽÄĩ": 1342,
      "Ġsza": 1343,
      "ĠprzyjÅĽÄĩ": 1344,
      "ĠuwaÅ¼a": 1345,
      "Ġtelefon": 1346,
      "nny": 1347,
      "skie": 1348,
      "wÃ³l": 1349,
      "Ġak": 1350,
      "Ġzgu": 1351,
      "nim": 1352,
      "Ġodwie": 1353,
      "kujÄĻ": 1354,
      "Ġszcze": 1355,
      "ĠpozwÃ³l": 1356,
      "Ġnajlep": 1357,
      "Ġtwojej": 1358,
      "Ġgodziny": 1359,
      "Ġotwar": 1360,
      "dÅĤu": 1361,
      "Ġpsa": 1362,
      "Å¼d": 1363,
      "Ġoba": 1364,
      "ĠmiÅĤo": 1365,
      "ĠimiÄĻ": 1366,
      "ĠrozmawiaÄĩ": 1367,
      "ĠspaÄĩ": 1368,
      "ĠbyÅĤeÅĽ": 1369,
      "Ġjab": 1370,
      "dzenia": 1371,
      "Ġboga": 1372,
      "ĠÅĽmier": 1373,
      "Ġpierwszy": 1374,
      "ĠbÅĤÄĻ": 1375,
      "Ġpostanowi": 1376,
      "Ġminut": 1377,
      "Ġzgubi": 1378,
      "ska": 1379,
      "Ġdw": 1380,
      "Ġdnia": 1381,
      "liÅĽcie": 1382,
      "wol": 1383,
      "Ġrowe": 1384,
      "ĠmÃ³wiÄħ": 1385,
      "Ġcieka": 1386,
      "Ġpolicja": 1387,
      "ĠsÅĤyszaÅĤem": 1388,
      "Ġcodziennie": 1389,
      "dÃ³w": 1390,
      "zwy": 1391,
      "Ġdni": 1392,
      "got": 1393,
      "ĠbyÅĤy": 1394,
      "Ġkot": 1395,
      "Ġzegar": 1396,
      "dÅºmy": 1397,
      "Ġplan": 1398,
      "ĠprÃ³bowaÅĤ": 1399,
      "ĠdokÅĤadnie": 1400,
      "bÄĻ": 1401,
      "ĠÅº": 1402,
      "Ġru": 1403,
      "ÅĤak": 1404,
      "Ġtem": 1405,
      "Ġwsta": 1406,
      "Ġzaj": 1407,
      "ĠprÃ³": 1408,
      "ĠuÅĽmie": 1409,
      "Ġjako": 1410,
      "ĠmÃ³w": 1411,
      "jÄĻcie": 1412,
      "Ġpios": 1413,
      "tuje": 1414,
      "ĠÅ¼o": 1415,
      "Ġpotrzebuje": 1416,
      "ĠksiÄħÅ¼ki": 1417,
      "Ġprzepraszam": 1418,
      "ĠdaÅĤ": 1419,
      "Ġzanim": 1420,
      "liÅĤ": 1421,
      "Ġprzesz": 1422,
      "ĠÅĽrod": 1423,
      "ĠsÄħdzÄĻ": 1424,
      "Ġbardziej": 1425,
      "aÅĤaÅĽ": 1426,
      "ajem": 1427,
      "Ġspodzie": 1428,
      "ĠczujÄĻ": 1429,
      "ĠpÃ³Åºniej": 1430,
      "Ġprawdopodobnie": 1431,
      "fe": 1432,
      "ĠmieÄĩ": 1433,
      "Ġprzyjdzie": 1434,
      "ĠkaÅ¼d": 1435,
      "Ġnauczyciel": 1436,
      "naÅĤ": 1437,
      "Ġar": 1438,
      "Ġpocze": 1439,
      "Ġbrud": 1440,
      "Ġnapis": 1441,
      "chy": 1442,
      "let": 1443,
      "Å¼yÄĩ": 1444,
      "Ġszpi": 1445,
      "ĠgorÄħ": 1446,
      "Ġspos": 1447,
      "ĠtwojÄħ": 1448,
      "Ġczer": 1449,
      "ĠskoÅĦ": 1450,
      "Ġbezpie": 1451,
      "ĠszczÄĻÅĽliwy": 1452,
      "ĠzmÄĻczony": 1453,
      "Ġkocham": 1454,
      "bez": 1455,
      "eÅĤ": 1456,
      "nem": 1457,
      "Ġzda": 1458,
      "Ġzaba": 1459,
      "ĠidÅº": 1460,
      "Ġprzeciw": 1461,
      "Åºdzie": 1462,
      "Ġpodob": 1463,
      "Ġpis": 1464,
      "Ġszkole": 1465,
      "Ġwsp": 1466,
      "Ġpomara": 1467,
      "bezpie": 1468,
      "ura": 1469,
      "Ġrzu": 1470,
      "ĠjechaÄĩ": 1471,
      "ĠkÅĤam": 1472,
      "Ġzako": 1473,
      "ĠwyszedÅĤ": 1474,
      "kaj": 1475,
      "tel": 1476,
      "ĠmogÅĤem": 1477,
      "ĠmiesiÄħ": 1478,
      "Ġswoich": 1479,
      "Ġznasz": 1480,
      "Ġintere": 1481,
      "puÅĽci": 1482,
      "ĠwyglÄħdasz": 1483,
      "Ġdalej": 1484,
      "ĠÅĤÃ³Å¼": 1485,
      "ĠpÅĤak": 1486,
      "Ġud": 1487,
      "ĠuczyÄĩ": 1488,
      "ĠwiÄĻc": 1489,
      "cem": 1490,
      "ktÃ³": 1491,
      "Ġpas": 1492,
      "szczÄĻ": 1493,
      "Ġdy": 1494,
      "Ġbro": 1495,
      "ĠsprÃ³b": 1496,
      "ĠstÄħd": 1497,
      "Ġmiejsce": 1498,
      "Ġspotkanie": 1499,
      "ĠkogoÅĽ": 1500,
      "Ġzwykle": 1501,
      "Ġwszystkich": 1502,
      "Ġamery": 1503,
      "sÃ³w": 1504,
      "ĠzaÅĤo": 1505,
      "ĠjeÅº": 1506,
      "Ġdwie": 1507,
      "Ġkrzy": 1508,
      "ÅĦstwo": 1509,
      "Ġcia": 1510,
      "ĠciÄħ": 1511,
      "ĠrozwiÄħ": 1512,
      "Ġpodej": 1513,
      "ĠmÃ³wiÅĤ": 1514,
      "Ġlep": 1515,
      "Ġtwojego": 1516,
      "ĠktÃ³rej": 1517,
      "ĠwyjÅĽÄĩ": 1518,
      "ĠprzyszÅĤo": 1519,
      "ĠjabÅĤ": 1520,
      "tny": 1521,
      "wam": 1522,
      "waÅĤem": 1523,
      "zd": 1524,
      "ĠpÃ³ÅĤ": 1525,
      "ĠmaÅĤ": 1526,
      "ĠniektÃ³": 1527,
      "ĠporzÄħd": 1528,
      "Ġbli": 1529,
      "rop": 1530,
      "leÅ¼y": 1531,
      "Ġzmieni": 1532,
      "larÃ³w": 1533,
      "ĠkoÅĦcu": 1534,
      "Ġulubiony": 1535,
      "Ġoboje": 1536,
      "ĠprÃ³bu": 1537,
      "Ġpiosen": 1538,
      "ĠsposÃ³b": 1539,
      "ec": 1540,
      "onu": 1541,
      "ĠsobÄħ": 1542,
      "Ġwk": 1543,
      "ĠzrÃ³b": 1544,
      "Ġtobie": 1545,
      "Ġkra": 1546,
      "Ġkre": 1547,
      "Ġnapi": 1548,
      "Ġmoich": 1549,
      "Ġwyje": 1550,
      "Ġprzej": 1551,
      "jÄħcy": 1552,
      "ĠwidzÄĻ": 1553,
      "ĠmÃ³wisz": 1554,
      "ĠtrzydzieÅĽci": 1555,
      "ĠpomoÅ¼e": 1556,
      "Ġgdyby": 1557,
      "Ġodpowiedzi": 1558,
      "ĠpÃ³jÅĽÄĩ": 1559,
      "ĠpamiÄĻtam": 1560,
      "ĠrÄĻce": 1561,
      "Ġpracuje": 1562,
      "ĠdziaÅĤa": 1563,
      "Ġfilm": 1564,
      "ĠponiedziaÅĤek": 1565,
      "Ġnies": 1566,
      "Ġnapra": 1567,
      "Ġzag": 1568,
      "Ġjaka": 1569,
      "Ġtyle": 1570,
      "ĠkupiÅĤem": 1571,
      "Ġfrancuski": 1572,
      "Ġzobaczy": 1573,
      "ĠnienawidzÄĻ": 1574,
      "ĠzaczÄħÅĤ": 1575,
      "Ġurodzi": 1576,
      "Ġzastanawiam": 1577,
      "Ġszpita": 1578,
      "ĠpomaraÅĦ": 1579,
      "00": 1580,
      "niony": 1581,
      "Ġzasko": 1582,
      "Ġucie": 1583,
      "Ġubra": 1584,
      "ĠczytaÄĩ": 1585,
      "Ġmatka": 1586,
      "Ġkuch": 1587,
      "ĠnoÅ¼": 1588,
      "ĠmoÅ¼na": 1589,
      "Ġprobl": 1590,
      "ĠchwilÄĻ": 1591,
      "rÃ³tce": 1592,
      "Ġczerwo": 1593,
      "rwa": 1594,
      "Ġzgo": 1595,
      "Ġpoka": 1596,
      "Ġdowie": 1597,
      "Ġnasz": 1598,
      "nikiem": 1599,
      "dzieli": 1600,
      "Ġniczego": 1601,
      "Ġani": 1602,
      "ĠprawdÄĻ": 1603,
      "Ġwody": 1604,
      "Ġjeden": 1605,
      "ĠoglÄħda": 1606,
      "ĠzÅĤap": 1607,
      "ĠwkrÃ³tce": 1608,
      "nÃ³w": 1609,
      "wÄħ": 1610,
      "ĠmaÅĤo": 1611,
      "ĠsÅĤa": 1612,
      "Ġzwie": 1613,
      "strzy": 1614,
      "Å¼ÄĻ": 1615,
      "Ġniej": 1616,
      "roÅ¼": 1617,
      "ĠzrobiÄĻ": 1618,
      "jÄħÄĩ": 1619,
      "Ġszan": 1620,
      "ĠdziesiÄĻ": 1621,
      "ĠpaÅºdzie": 1622,
      "ÅĽcia": 1623,
      "ĠÅ¼ar": 1624,
      "Ġpotrzebujemy": 1625,
      "Ġzostawi": 1626,
      "Ġzadowo": 1627,
      "ĠusÅĤysz": 1628,
      "ĠÅºle": 1629,
      "ĠpaÅºdzier": 1630,
      "nka": 1631,
      "towaÄĩ": 1632,
      "umi": 1633,
      "Ġwar": 1634,
      "ĠzÅĤ": 1635,
      "Å¼u": 1636,
      "dzam": 1637,
      "Ġzacze": 1638,
      "szych": 1639,
      "ĠaÅ¼": 1640,
      "Ġzrobie": 1641,
      "ÅĤuma": 1642,
      "Ġfa": 1643,
      "ĠcaÅĤkiem": 1644,
      "Ġstary": 1645,
      "ĠzjeÅĽÄĩ": 1646,
      "wny": 1647,
      "Ġ2": 1648,
      "ĠpojÄĻcia": 1649,
      "nios": 1650,
      "Ġdosta": 1651,
      "Ġuda": 1652,
      "Ġwyso": 1653,
      "Ġrobo": 1654,
      "Ġspy": 1655,
      "Ġdzieje": 1656,
      "ĠchciaÅĤa": 1657,
      "ĠktÃ³ra": 1658,
      "wego": 1659,
      "Ġzamierz": 1660,
      "ĠciÄĻÅ¼ko": 1661,
      "ĠzjadÅĤ": 1662,
      "for": 1663,
      "lne": 1664,
      "nk": 1665,
      "nku": 1666,
      "se": 1667,
      "Ġser": 1668,
      "ĠwÄħ": 1669,
      "Ġwas": 1670,
      "Ġki": 1671,
      "ĠdoÅĽÄĩ": 1672,
      "Ġgru": 1673,
      "ÅĦst": 1674,
      "szego": 1675,
      "ĠracjÄĻ": 1676,
      "ĠpodrÃ³Å¼": 1677,
      "ĠcieszÄĻ": 1678,
      "ĠwiÄĻzie": 1679,
      "ĠczegoÅĽ": 1680,
      "ĠwrÃ³ciÅĤ": 1681,
      "Ġtrzech": 1682,
      "Ġtakiego": 1683,
      "ĠÅĽnieg": 1684,
      "Ġpud": 1685,
      "Ġptak": 1686,
      "Ġniebezpie": 1687,
      "Ġopowie": 1688,
      "Ġokaz": 1689,
      "Ġnaz": 1690,
      "niku": 1691,
      "czkÄĻ": 1692,
      "Ġmoi": 1693,
      "jÄħÅĤ": 1694,
      "tej": 1695,
      "nÄħÅĤem": 1696,
      "ĠznaÄĩ": 1697,
      "Ġcier": 1698,
      "ĠpomÃ³gÅĤ": 1699,
      "Ġpolity": 1700,
      "ĠpÅĤywaÄĩ": 1701,
      "ĠgÅĤupi": 1702,
      "ĠsprÃ³bowaÄĩ": 1703,
      "jny": 1704,
      "kowaÄĩ": 1705,
      "stor": 1706,
      "rowa": 1707,
      "wiad": 1708,
      "waj": 1709,
      "Ġpara": 1710,
      "ĠwÅĤas": 1711,
      "ĠweÅº": 1712,
      "ĠuwierzyÄĩ": 1713,
      "Ġzrozumie": 1714,
      "ĠdziÄĻkujÄĻ": 1715,
      "ge": 1716,
      "kro": 1717,
      "ĠrÃ³Å¼": 1718,
      "Ġwej": 1719,
      "ĠcÃ³r": 1720,
      "nicy": 1721,
      "Ġuwa": 1722,
      "Ġwyko": 1723,
      "jÄħco": 1724,
      "ĠÅĽmi": 1725,
      "rÃ³bu": 1726,
      "Ġdlatego": 1727,
      "owali": 1728,
      "ĠÅ¼ona": 1729,
      "ĠuwaÅ¼am": 1730,
      "Ġdobrym": 1731,
      "ĠgÅĤodny": 1732,
      "ĠosÃ³b": 1733,
      "Ġtrzeba": 1734,
      "miast": 1735,
      "Ġhistor": 1736,
      "ĠzeszÅĤym": 1737,
      "ĠporzÄħdku": 1738,
      "ĠtÄħ": 1739,
      "Ġzu": 1740,
      "ÅĽpie": 1741,
      "Ġzatrzym": 1742,
      "Ġuli": 1743,
      "Ġbym": 1744,
      "Ġwysz": 1745,
      "Ġwypi": 1746,
      "Ġwycho": 1747,
      "ĠsprÃ³bu": 1748,
      "ĠmÃ³wiÄĻ": 1749,
      "Ġrobisz": 1750,
      "ĠktÃ³rÄħ": 1751,
      "Ġnoc": 1752,
      "Ġboli": 1753,
      "ĠpomyÅĽ": 1754,
      "ĠpoprosiÅĤ": 1755,
      "Ġsamochodu": 1756,
      "Ġwszystkim": 1757,
      "ĠtelewizjÄĻ": 1758,
      "ĠpiÅĤkÄĻ": 1759,
      "pÅĤy": 1760,
      "ĠpopeÅĤ": 1761,
      "ĠkrÃ³": 1762,
      "Ġnatych": 1763,
      "ĠdolarÃ³w": 1764,
      "Ġprzygot": 1765,
      "Ġad": 1766,
      "Ġciem": 1767,
      "ĠÅ¼ycia": 1768,
      "trzyma": 1769,
      "Ġrodzice": 1770,
      "Ġstudi": 1771,
      "ĠposÅĤu": 1772,
      "Ġgaze": 1773,
      "ĠsÅĤoÅĦ": 1774,
      "Ġzimno": 1775,
      "Ġwystarcza": 1776,
      "Ġnatychmiast": 1777,
      "kar": 1778,
      "lny": 1779,
      "maÄĩ": 1780,
      "Ġpoja": 1781,
      "ĠpocaÅĤ": 1782,
      "Ã³le": 1783,
      "Ġzawie": 1784,
      "Ġdok": 1785,
      "dzia": 1786,
      "dzieÅĦ": 1787,
      "czas": 1788,
      "Ġuf": 1789,
      "Ġczyta": 1790,
      "Ġkola": 1791,
      "Ġodk": 1792,
      "ĠjesteÅĽcie": 1793,
      "ĠzrobiÅĤeÅĽ": 1794,
      "Ġwina": 1795,
      "staura": 1796,
      "ĠpowÃ³d": 1797,
      "ĠktÃ³rego": 1798,
      "Ġrestaura": 1799,
      "ĠduÅ¼y": 1800,
      "Ġgotowy": 1801,
      "Ġjaponii": 1802,
      "daÄĩ": 1803,
      "kÅĤ": 1804,
      "ĠÅĤad": 1805,
      "ĠrÃ³w": 1806,
      "Ġtw": 1807,
      "Ġpsy": 1808,
      "Ġzw": 1809,
      "ĠpoÅĤo": 1810,
      "szu": 1811,
      "Ġbrz": 1812,
      "Ġzat": 1813,
      "Ġwygra": 1814,
      "ĠmiaÅĤa": 1815,
      "daj": 1816,
      "Ġwios": 1817,
      "owym": 1818,
      "Ġzostanie": 1819,
      "Ġrozmawia": 1820,
      "Ġsuk": 1821,
      "Ġokrop": 1822,
      "ĠsÅĤuch": 1823,
      "Ġangielskiego": 1824,
      "cj": 1825,
      "Ġsil": 1826,
      "Ġzg": 1827,
      "Ġzami": 1828,
      "zywa": 1829,
      "Ġumy": 1830,
      "Ġkont": 1831,
      "Ġmniej": 1832,
      "ĠzostaÅĤo": 1833,
      "Ġdobra": 1834,
      "Ġinny": 1835,
      "Ġchory": 1836,
      "Ġher": 1837,
      "Ġboi": 1838,
      "ĠpiÄĻÄĩ": 1839,
      "ĠsÅĤowa": 1840,
      "ĠsÅĤucha": 1841,
      "ĠogÃ³le": 1842,
      "ĠoglÄħd": 1843,
      "Ġameryka": 1844,
      "Ġherba": 1845,
      "mny": 1846,
      "nkÄĻ": 1847,
      "Ġtor": 1848,
      "Ġjo": 1849,
      "Å¼ek": 1850,
      "Ġgry": 1851,
      "ĠwierzÄĻ": 1852,
      "ĠjakÄħ": 1853,
      "pomi": 1854,
      "ĠmoÅ¼liwe": 1855,
      "ĠprzyjaciÃ³ÅĤmi": 1856,
      "ĠspotkaÅĤem": 1857,
      "Ġzauwa": 1858,
      "iem": 1859,
      "Ġobu": 1860,
      "lenie": 1861,
      "czki": 1862,
      "Ġidzie": 1863,
      "Ġwierzy": 1864,
      "czej": 1865,
      "Ġtych": 1866,
      "ĠtydzieÅĦ": 1867,
      "Ġczar": 1868,
      "ten": 1869,
      "Ġpatrzy": 1870,
      "Ġprawdzi": 1871,
      "Ġsamolo": 1872,
      "Ġczeka": 1873,
      "owaÅĤeÅĽ": 1874,
      "ĠmÃ³gÅĤby": 1875,
      "Ġbibli": 1876,
      "Ġojca": 1877,
      "Ġbuty": 1878,
      "ĠzmarÅĤ": 1879,
      "ĠjakiÅĽ": 1880,
      "Ġmiejscu": 1881,
      "ĠmÅĤody": 1882,
      "ĠwidziaÅĤeÅĽ": 1883,
      "ĠwiÄĻkszo": 1884,
      "zwyczaj": 1885,
      "dio": 1886,
      "gaÄĩ": 1887,
      "lÄħ": 1888,
      "now": 1889,
      "nki": 1890,
      "taÅĤem": 1891,
      "zÄĻ": 1892,
      "Ġsmu": 1893,
      "Ġcu": 1894,
      "Ġzain": 1895,
      "liby": 1896,
      "wier": 1897,
      "ciej": 1898,
      "cyz": 1899,
      "Ġpropo": 1900,
      "ĠmogÅĤa": 1901,
      "ĠmyÅĽlaÅĤ": 1902,
      "arzem": 1903,
      "Ġgdybym": 1904,
      "Ġzamierza": 1905,
      "ĠjapoÅĦ": 1906,
      "Ġtelefonu": 1907,
      "ĠostroÅ¼": 1908,
      "Ġwydarzy": 1909,
      "ĠuÅĽmiech": 1910,
      "Ġinteresu": 1911,
      "dli": 1912,
      "Ġsch": 1913,
      "Ġdwo": 1914,
      "Ġdrze": 1915,
      "dziÅĤa": 1916,
      "Ġuczu": 1917,
      "ĠbyÅĽ": 1918,
      "dania": 1919,
      "tach": 1920,
      "ĠÅĽpi": 1921,
      "owania": 1922,
      "Ġkawy": 1923,
      "ĠpowiedziaÅĤa": 1924,
      "razi": 1925,
      "ĠksiÄħÅ¼ek": 1926,
      "arza": 1927,
      "ĠumarÅĤ": 1928,
      "Ġukra": 1929,
      "ĠniektÃ³rzy": 1930,
      "Ġnazwi": 1931,
      "cemy": 1932,
      "nam": 1933,
      "Ġek": 1934,
      "Ġtajem": 1935,
      "Ġpoczu": 1936,
      "ros": 1937,
      "Ġnarze": 1938,
      "nieÅĽÄĩ": 1939,
      "ciÅĤem": 1940,
      "naj": 1941,
      "Ġgi": 1942,
      "rzeÄĩ": 1943,
      "Ġkole": 1944,
      "kuje": 1945,
      "jÄħc": 1946,
      "owane": 1947,
      "ĠkawÄĻ": 1948,
      "Ġzdo": 1949,
      "Ġho": 1950,
      "ĠtÄĻsk": 1951,
      "braÄĩ": 1952,
      "Ġstrasz": 1953,
      "Ġryby": 1954,
      "Ġtrudno": 1955,
      "Ġprzyjacielem": 1956,
      "Ġwrac": 1957,
      "Ġuwielbiam": 1958,
      "Ġrower": 1959,
      "ĠudaÅĤo": 1960,
      "kaÅĤem": 1961,
      "kowi": 1962,
      "sem": 1963,
      "sÅĤu": 1964,
      "wnÄħ": 1965,
      "robi": 1966,
      "Ġkraj": 1967,
      "Ġchi": 1968,
      "Ġchcemy": 1969,
      "Ġwyb": 1970,
      "ĠniÄħ": 1971,
      "tym": 1972,
      "Ġpowiem": 1973,
      "Ġfor": 1974,
      "Ġsporo": 1975,
      "eken": 1976,
      "ĠczekaÄĩ": 1977,
      "ĠlubiÄħ": 1978,
      "ÅĤamaÅĤ": 1979,
      "ĠnauczyÄĩ": 1980,
      "Ġweeken": 1981,
      "Ġokno": 1982,
      "ĠsÅĤownik": 1983,
      "Ġdecyz": 1984,
      "ĠpozwoliÄĩ": 1985,
      "Ġklucz": 1986,
      "ĠpracowaÄĩ": 1987,
      "Ġsiostra": 1988,
      "ĠwziÄħÄĩ": 1989,
      "Ġkomputer": 1990,
      "Ġtemat": 1991,
      "Ġbibliote": 1992,
      "dni": 1993,
      "kami": 1994,
      "tÅĤuma": 1995,
      "Ġzwol": 1996,
      "Ġniebie": 1997,
      "ĠposzedÅĤem": 1998,
      "wiam": 1999,
      "Ġprzekona": 2000,
      "ĠbyÅĤam": 2001,
      "Ġsama": 2002,
      "ĠzostaÅĤa": 2003,
      "wym": 2004,
      "ĠdobrÄħ": 2005,
      "ĠzdjÄĻcie": 2006,
      "Ġtrzyma": 2007,
      "ĠchodÅºmy": 2008,
      "Ġbrat": 2009,
      "Ġstole": 2010,
      "Ġpowstrzy": 2011,
      "ĠÅĽwiecie": 2012,
      "Ġnauczycielem": 2013,
      "Ġszuka": 2014,
      "Ġkanap": 2015,
      "ĠwaÅ¼ne": 2016,
      "Ġpreze": 2017,
      "ĠkaÅ¼dego": 2018,
      "ĠdziesiÄĻÄĩ": 2019,
      "Ġjoh": 2020,
      "fiÄĻ": 2021,
      "lnie": 2022,
      "men": 2023,
      "wem": 2024,
      "zi": 2025,
      "Ġrz": 2026,
      "Ġwst": 2027,
      "Ġjas": 2028,
      "rabi": 2029,
      "nicÄĻ": 2030,
      "akiem": 2031,
      "ĠrobiÄĻ": 2032,
      "Ġwiemy": 2033,
      "adaÄĩ": 2034,
      "Ġmama": 2035,
      "Ġgol": 2036,
      "Ġpodczas": 2037,
      "ĠmieliÅĽmy": 2038,
      "ĠmieÅĽcie": 2039,
      "tua": 2040,
      "Ġwal": 2041,
      "Ġrzecz": 2042,
      "ĠktÃ³rych": 2043,
      "ĠuÅ¼ytk": 2044,
      "Ġstuden": 2045,
      "Ġnikomu": 2046,
      "Ġchwili": 2047,
      "ĠbÅĤÄħd": 2048,
      "Ġmiasto": 2049,
      "Ġfir": 2050,
      "ĠzaczÄĻÅĤo": 2051,
      "Ġpogoda": 2052,
      "ĠwyjaÅĽ": 2053,
      "Ġzaskoczony": 2054,
      "ĠpudeÅĤ": 2055,
      "Ġsukce": 2056,
      "ĠwiÄĻkszoÅĽÄĩ": 2057,
      "30": 2058,
      "tÃ³w": 2059,
      "Ġl": 2060,
      "ĠâĢ": 2061,
      "ĠmÄħd": 2062,
      "Ġjem": 2063,
      "Ġocze": 2064,
      "Ġkro": 2065,
      "niÅĤem": 2066,
      "dzieliÅĽmy": 2067,
      "woÅĽci": 2068,
      "res": 2069,
      "Ġrozpo": 2070,
      "ĠmogÄħ": 2071,
      "ĠrobiÅĤ": 2072,
      "ĠchodziÄĩ": 2073,
      "Ġpomog": 2074,
      "Ġpowinna": 2075,
      "ĠcaÅĤÄħ": 2076,
      "Ġumiem": 2077,
      "Ġdeszcz": 2078,
      "Ġangielsku": 2079,
      "ĠwÅĤosy": 2080,
      "ĠzapomniaÅĤem": 2081,
      "nd": 2082,
      "uj": 2083,
      "Ġnowego": 2084,
      "ĠmÄħ": 2085,
      "Ġwte": 2086,
      "Ġzdanie": 2087,
      "ĠdaÄĩ": 2088,
      "Ġkwia": 2089,
      "leÄĩ": 2090,
      "nad": 2091,
      "nÄĻÅĤa": 2092,
      "Ġobchodzi": 2093,
      "Ġinnego": 2094,
      "Ġjedno": 2095,
      "ĠjednÄħ": 2096,
      "Ġsukie": 2097,
      "Ġpowro": 2098,
      "Ġgodzin": 2099,
      "Ġwspa": 2100,
      "ĠpÃ³jdÄĻ": 2101,
      "ĠosobÄħ": 2102,
      "Ġzapomnij": 2103,
      "ĠmÅĤod": 2104,
      "Ġparku": 2105,
      "Ġtelewizji": 2106,
      "Ġmiasta": 2107,
      "ĠwystarczajÄħco": 2108,
      "Ġbrzmi": 2109,
      "Ġrzad": 2110,
      "Ġwtedy": 2111,
      "laÅĤ": 2112,
      "przÄħ": 2113,
      "ĠÄĩ": 2114,
      "Å¼szy": 2115,
      "ĠpowaÅ¼": 2116,
      "Ġponad": 2117,
      "aÅĤas": 2118,
      "Ġban": 2119,
      "row": 2120,
      "Ġocho": 2121,
      "Ġnasza": 2122,
      "liz": 2123,
      "szyÄĩ": 2124,
      "ĠkoÅĽci": 2125,
      "Ġkomu": 2126,
      "Ġmaria": 2127,
      "Ġal": 2128,
      "ĠmÃ³wiÅĤem": 2129,
      "ĠchciaÅĤbyÅĽ": 2130,
      "ĠhaÅĤas": 2131,
      "Ġpotrzebujesz": 2132,
      "Ġdaleko": 2133,
      "Ġbudy": 2134,
      "Ġbutel": 2135,
      "ĠpotrafiÄĻ": 2136,
      "ĠpÅĤywa": 2137,
      "Ġogro": 2138,
      "ĠpracujÄĻ": 2139,
      "teres": 2140,
      "Ġukry": 2141,
      "ĠczÅĤowiekiem": 2142,
      "Ġzrozumi": 2143,
      "Ġprzem": 2144,
      "Ġwielki": 2145,
      "Ġprzeszka": 2146,
      "ĠwÄħt": 2147,
      "Ġparaso": 2148,
      "wnÄħtrz": 2149,
      "pÄĻ": 2150,
      "ÅĤÃ³w": 2151,
      "Ġnowe": 2152,
      "ĠwÄĻ": 2153,
      "ÅĽmi": 2154,
      "ÅĽwiad": 2155,
      "dzaj": 2156,
      "Ġniedzie": 2157,
      "Ġniewi": 2158,
      "Ã³sÅĤ": 2159,
      "rowaÄĩ": 2160,
      "Ġoce": 2161,
      "Ġoku": 2162,
      "Ġoso": 2163,
      "ĠksiÄĻ": 2164,
      "leka": 2165,
      "ĠbyliÅĽmy": 2166,
      "ÅĤopo": 2167,
      "Ġwieku": 2168,
      "Ġprzeprowa": 2169,
      "Ġkoty": 2170,
      "Ġrachu": 2171,
      "Ġkaz": 2172,
      "ĠzewnÄħtrz": 2173,
      "ĠwolÄĻ": 2174,
      "Ġpozost": 2175,
      "ĠdÅĤuÅ¼ej": 2176,
      "ĠpamiÄĻta": 2177,
      "ĠponiewaÅ¼": 2178,
      "ĠpÃ³Åºno": 2179,
      "Ġkoszu": 2180,
      "ĠÅ¼adnych": 2181,
      "ĠprowadziÄĩ": 2182,
      "ĠwiadomoÅĽÄĩ": 2183,
      "Ġzegarek": 2184,
      "Ġrzadko": 2185,
      "tne": 2186,
      "aÅĤe": 2187,
      "Ġdam": 2188,
      "Ġchcie": 2189,
      "Ġprzyby": 2190,
      "Ġnich": 2191,
      "Ġszk": 2192,
      "ĠradÄĻ": 2193,
      "port": 2194,
      "ĠbÄĻdÄħ": 2195,
      "rÃ³d": 2196,
      "Ġspoj": 2197,
      "Ġpiwo": 2198,
      "Ġktokolwiek": 2199,
      "tkÄħ": 2200,
      "ĠodpowiedÅº": 2201,
      "ĠgodzinÄĻ": 2202,
      "ĠpoproszÄĻ": 2203,
      "ĠpiÄĻkny": 2204,
      "ĠprÃ³bowaÅĤem": 2205,
      "ĠprzyszÅĤym": 2206,
      "ĠdostaÄĩ": 2207,
      "ĠczÅĤowiek": 2208,
      "ĠÅĤatwo": 2209,
      "Ġotwarte": 2210,
      "Ġzamierzam": 2211,
      "gz": 2212,
      "gry": 2213,
      "mÄĻ": 2214,
      "psu": 2215,
      "Ġem": 2216,
      "ĠmaÅĤy": 2217,
      "Ġsek": 2218,
      "Ġzi": 2219,
      "Ġniech": 2220,
      "ĠniedÅĤu": 2221,
      "ĠpociÄħ": 2222,
      "ĠnaleÅ¼y": 2223,
      "niÃ³sÅĤ": 2224,
      "Ġzaraz": 2225,
      "nach": 2226,
      "Ġwier": 2227,
      "Ġkonie": 2228,
      "bierz": 2229,
      "tor": 2230,
      "cyj": 2231,
      "Ġcicho": 2232,
      "ĠpiÄĩ": 2233,
      "dzenie": 2234,
      "ĠÅ¼yje": 2235,
      "Ġszkoda": 2236,
      "Ġjednym": 2237,
      "ĠpÃ³jdzie": 2238,
      "Ġdzieckiem": 2239,
      "Ġdziewczyna": 2240,
      "stÄħpi": 2241,
      "ĠjÄĻzyka": 2242,
      "Ġmartwi": 2243,
      "Ġostatnio": 2244,
      "Ġnaszej": 2245,
      "Ġbiur": 2246,
      "ĠmiÄĻdzy": 2247,
      "Ġlekarza": 2248,
      "ĠmÄĻÅ¼czyzna": 2249,
      "Ġspace": 2250,
      "Ġzainteres": 2251,
      "Ġgitar": 2252,
      "Ġkwiaty": 2253,
      "ĠÄĩwi": 2254,
      "ĠniedÅĤugo": 2255,
      "aty": 2256,
      "raÅĤem": 2257,
      "sÅĤo": 2258,
      "wna": 2259,
      "Ġnum": 2260,
      "Ġpole": 2261,
      "Ã³ch": 2262,
      "ĠopuÅĽci": 2263,
      "Å¼enie": 2264,
      "naÅĽcie": 2265,
      "czna": 2266,
      "Ġwybo": 2267,
      "nerw": 2268,
      "Ġprzepro": 2269,
      "Ġjakby": 2270,
      "Ġmarii": 2271,
      "Ġprawo": 2272,
      "Ġwidzisz": 2273,
      "Ġsamy": 2274,
      "Ġsamemu": 2275,
      "owaliÅĽmy": 2276,
      "Ġspod": 2277,
      "ĠmusiaÅĤem": 2278,
      "ĠgdzieÅĽ": 2279,
      "Ġwojs": 2280,
      "Ġinfor": 2281,
      "ĠskÄħd": 2282,
      "ĠrodzicÃ³w": 2283,
      "ĠwrÃ³ciÄĩ": 2284,
      "Ġpewno": 2285,
      "Ġbawi": 2286,
      "Ġegz": 2287,
      "ĠpiÄĻkna": 2288,
      "Ġprawdopodobne": 2289,
      "ĠmÄĻÅ¼czyz": 2290,
      "Å¼dÅ¼a": 2291,
      "ĠdwÃ³ch": 2292,
      "ĠciÄħgle": 2293,
      "kÅĤa": 2294,
      "towany": 2295,
      "Ġwaka": 2296,
      "Ġniepo": 2297,
      "Ġponow": 2298,
      "ĠbÃ³l": 2299,
      "Ġzab": 2300,
      "owaÅĤo": 2301,
      "ary": 2302,
      "woÅĽÄĩ": 2303,
      "Ġroze": 2304,
      "Ġodej": 2305,
      "Ġpraca": 2306,
      "rzem": 2307,
      "Ġpija": 2308,
      "Ġkape": 2309,
      "Ġwoj": 2310,
      "Ġboston": 2311,
      "Ġhote": 2312,
      "ĠzostawiÅĤ": 2313,
      "ĠwÅĤaÅĽci": 2314,
      "ĠktÃ³rym": 2315,
      "Ġangielski": 2316,
      "ĠspotkaÄĩ": 2317,
      "ĠposprzÄħ": 2318,
      "Ġkonty": 2319,
      "Ġjedynym": 2320,
      "ĠwyglÄħdaÅĤ": 2321,
      "Ġkompute": 2322,
      "ĠpostanowiÅĤ": 2323,
      "ĠpisaÄĩ": 2324,
      "ĠnoÅ¼nÄħ": 2325,
      "Ġproblemy": 2326,
      "Ġzrobienia": 2327,
      "Ġpowrotem": 2328,
      "Ġkapelu": 2329,
      "ani": 2330,
      "daÅĤ": 2331,
      "tra": 2332,
      "towaÅĤ": 2333,
      "ujÄĻ": 2334,
      "ĠwÅĽcie": 2335,
      "Ġpopa": 2336,
      "Ġtomie": 2337,
      "Ġowo": 2338,
      "Ġoszu": 2339,
      "ĠzakÅĤad": 2340,
      "Ġzazwyczaj": 2341,
      "siÅĤem": 2342,
      "Ġodpo": 2343,
      "ÅĦski": 2344,
      "Å¼yÅĤem": 2345,
      "Ġwino": 2346,
      "Ġpani": 2347,
      "Ġczasem": 2348,
      "ĠktÃ³rzy": 2349,
      "ĠprzeziÄĻ": 2350,
      "Ġbilet": 2351,
      "ĠzobaczyÅĤ": 2352,
      "Ġskrzy": 2353,
      "Ġjakiego": 2354,
      "Ġsyna": 2355,
      "peÅĤnie": 2356,
      "ĠzamkniÄĻ": 2357,
      "ĠÅĽpiewaÄĩ": 2358,
      "Ġoczywi": 2359,
      "ĠpoÅ¼yczyÄĩ": 2360,
      "ĠgÃ³ry": 2361,
      "ĠokoÅĤo": 2362,
      "ĠuwaÅ¼asz": 2363,
      "ĠÅ¼oÅĤ": 2364,
      "ĠrÃ³wnie": 2365,
      "gÄħ": 2366,
      "gno": 2367,
      "mÃ³": 2368,
      "nÃ³": 2369,
      "tkÄĻ": 2370,
      "Ġ-": 2371,
      "ĠrÃ³b": 2372,
      "Ġzre": 2373,
      "szony": 2374,
      "Ġbas": 2375,
      "ĠoÅĤÃ³w": 2376,
      "ĠdoÅĽwiad": 2377,
      "czni": 2378,
      "ĠidÄĻ": 2379,
      "Ġcokolwiek": 2380,
      "Ġprzera": 2381,
      "ĠspÃ³j": 2382,
      "Ġkota": 2383,
      "rzyst": 2384,
      "bieg": 2385,
      "szeni": 2386,
      "Ġfak": 2387,
      "piero": 2388,
      "Ġkur": 2389,
      "tura": 2390,
      "Ġczasie": 2391,
      "Ġpozna": 2392,
      "Ġnosi": 2393,
      "ĠkupiÅĤeÅĽ": 2394,
      "per": 2395,
      "para": 2396,
      "Ġumiesz": 2397,
      "Ġmiejsca": 2398,
      "ĠpytaÅĦ": 2399,
      "ĠduÅ¼e": 2400,
      "Ġsamochodem": 2401,
      "ĠpiÄĻkne": 2402,
      "Ġobok": 2403,
      "Ġwypadek": 2404,
      "Ġszczeg": 2405,
      "Ġzabaw": 2406,
      "Ġprzeciwko": 2407,
      "Ġkuchni": 2408,
      "Ġzadowolony": 2409,
      "Ġciemno": 2410,
      "pomina": 2411,
      "libyÅĽmy": 2412,
      "Ġpropozy": 2413,
      "Ġweekend": 2414,
      "Ġgolfa": 2415,
      "ĠmÄħÅ¼": 2416,
      "Ġwspani": 2417,
      "Ġponownie": 2418,
      "ĠspÃ³jrz": 2419,
      "esz": 2420,
      "ĠmnÃ³": 2421,
      "Ġniemo": 2422,
      "Ġopie": 2423,
      "Ġnazywa": 2424,
      "Ġzaku": 2425,
      "Ġwyda": 2426,
      "wasz": 2427,
      "Ġprzypad": 2428,
      "rzaÅĤ": 2429,
      "Ġpowiesz": 2430,
      "szej": 2431,
      "ĠzrobiÅĤa": 2432,
      "Ġzepsu": 2433,
      "Ġwszystkiego": 2434,
      "ĠzapamiÄĻ": 2435,
      "Ġinter": 2436,
      "cale": 2437,
      "ĠÅ¼aÅĤ": 2438,
      "ĠznÃ³w": 2439,
      "Ġsytua": 2440,
      "ĠskoÅĦczyÅĤem": 2441,
      "ĠpeÅĤen": 2442,
      "Ġsprzeda": 2443,
      "Ġziemi": 2444,
      "Ġzgadzam": 2445,
      "Ġbrudne": 2446,
      "ĠrozwiÄħz": 2447,
      "ĠzrozumieÄĩ": 2448,
      "ĠzupeÅĤnie": 2449,
      "ĠdokÄħd": 2450,
      "ĠpowstrzymaÄĩ": 2451,
      "Ġprezent": 2452,
      "Ġsekre": 2453,
      "Ġinforma": 2454,
      "Ġegzami": 2455,
      "ĠmnÃ³stwo": 2456,
      "nce": 2457,
      "zdy": 2458,
      "Ġwam": 2459,
      "Ġwcale": 2460,
      "Ġnar": 2461,
      "nic": 2462,
      "aki": 2463,
      "Ġusta": 2464,
      "Ġude": 2465,
      "Ġuprze": 2466,
      "Åºni": 2467,
      "szeÄĩ": 2468,
      "ÅĤyÅĽmy": 2469,
      "Ġlun": 2470,
      "ĠstaÄĩ": 2471,
      "Ġwido": 2472,
      "Ġran": 2473,
      "Ġpiani": 2474,
      "ĠrobiÄħ": 2475,
      "Ġwoda": 2476,
      "ĠbojÄĻ": 2477,
      "owod": 2478,
      "ĠcaÅĤkowi": 2479,
      "Ġstarszy": 2480,
      "Ġpewny": 2481,
      "ĠgÅĤoÅĽ": 2482,
      "ĠrÄĻkÄĻ": 2483,
      "ĠpadaÅĤo": 2484,
      "Ġtrudne": 2485,
      "Ġzjed": 2486,
      "ĠjÄĻzyk": 2487,
      "Ġkosztuje": 2488,
      "Ġmuzyki": 2489,
      "Ġklasie": 2490,
      "âĢĿ": 2491,
      "Ġsensu": 2492,
      "Ġobawiam": 2493,
      "ĠÅĽrodku": 2494,
      "ĠwspÃ³ÅĤ": 2495,
      "ĠprzyszÅĤoÅĽci": 2496,
      "Ġurodziny": 2497,
      "ĠpaÅºdzierniku": 2498,
      "Ġeks": 2499,
      "ĠâĢŀ": 2500,
      "cami": 2501,
      "mniej": 2502,
      "ÅĤÃ³": 2503,
      "Ġmleko": 2504,
      "Ġmleka": 2505,
      "stem": 2506,
      "Ġniepraw": 2507,
      "ĠpoÅ¼": 2508,
      "Ġpocz": 2509,
      "ĠpoczÄħ": 2510,
      "aÅĤbym": 2511,
      "Ġtomka": 2512,
      "Ġkrze": 2513,
      "owÄĻ": 2514,
      "ĠwysÅĤ": 2515,
      "ĠwyÅĤÄħ": 2516,
      "rzej": 2517,
      "Ġprzyz": 2518,
      "Ġapara": 2519,
      "ÅĦczyÄĩ": 2520,
      "ĠÅĽlu": 2521,
      "Ġproste": 2522,
      "poÅĤud": 2523,
      "Ġpada": 2524,
      "piec": 2525,
      "owana": 2526,
      "Ġczasami": 2527,
      "nÄĻÅĤo": 2528,
      "ĠbyÅĤoby": 2529,
      "Ġobraz": 2530,
      "Ġtamten": 2531,
      "owych": 2532,
      "Ġmieszkam": 2533,
      "ĠwrÃ³cÄĻ": 2534,
      "ĠsprawÄĻ": 2535,
      "Ġpytania": 2536,
      "ĠgÅĤos": 2537,
      "ĠzadzwoniÅĤ": 2538,
      "Ġzwyczaj": 2539,
      "ĠpotrzebowaÅĤ": 2540,
      "ĠdruÅ¼y": 2541,
      "ĠzapytaÅĤ": 2542,
      "ĠzapÅĤaciÄĩ": 2543,
      "ĠwiadomoÅĽci": 2544,
      "Ġadres": 2545,
      "Ġparasol": 2546,
      "den": 2547,
      "mak": 2548,
      "naÅĤem": 2549,
      "om": 2550,
      "oÅĤa": 2551,
      "zio": 2552,
      "stej": 2553,
      "Ġport": 2554,
      "ĠpopoÅĤud": 2555,
      "Ġoto": 2556,
      "ĠkÅĤopo": 2557,
      "Ġzao": 2558,
      "chaÅĤem": 2559,
      "czka": 2560,
      "wienie": 2561,
      "Ġidziesz": 2562,
      "Ġmimo": 2563,
      "sia": 2564,
      "Ġprzewi": 2565,
      "Ġspad": 2566,
      "wali": 2567,
      "szenie": 2568,
      "ĠÅĽwi": 2569,
      "ĠÅĽwiÄĻ": 2570,
      "ĠstaÅĤ": 2571,
      "ĠpajÄħ": 2572,
      "Ġspoty": 2573,
      "Ġznaczenia": 2574,
      "Ġdziad": 2575,
      "ĠchciaÅĤby": 2576,
      "Ġzdarzy": 2577,
      "Ġobec": 2578,
      "czona": 2579,
      "ĠÅ¼yÄĩ": 2580,
      "duje": 2581,
      "Ġzostaw": 2582,
      "niejszy": 2583,
      "ĠgdybyÅĽ": 2584,
      "giem": 2585,
      "ĠcaÅĤe": 2586,
      "ĠsÅĤow": 2587,
      "ĠzabiÄĩ": 2588,
      "Ġ19": 2589,
      "Ġostrze": 2590,
      "ĠznalazÅĤ": 2591,
      "Ġwypadku": 2592,
      "Ġuczni": 2593,
      "ĠjeÅºdziÄĩ": 2594,
      "Ġblisko": 2595,
      "Ġszpitalu": 2596,
      "Ġzatrud": 2597,
      "ĠukradÅĤ": 2598,
      "Ġosobi": 2599,
      "Ġnumer": 2600,
      "bar": 2601,
      "et": 2602,
      "ĠwÅĤÄħ": 2603,
      "Ġniewie": 2604,
      "Ġopi": 2605,
      "Ġnagle": 2606,
      "nieÅĽ": 2607,
      "nieÄĩ": 2608,
      "nisz": 2609,
      "niÅĤeÅĽ": 2610,
      "Ġzatrzyma": 2611,
      "Ġzarabi": 2612,
      "ĠdoÅĤÄħ": 2613,
      "dziÅĤeÅĽ": 2614,
      "Ġuz": 2615,
      "Ġmacie": 2616,
      "ĠÅĽcia": 2617,
      "ĠpodÅĤo": 2618,
      "Ġpalenie": 2619,
      "Ġsport": 2620,
      "Ġdzisie": 2621,
      "Ġinnych": 2622,
      "Ġsprawie": 2623,
      "Ġpowinno": 2624,
      "Ġbrata": 2625,
      "Ġzmar": 2626,
      "Ġsyn": 2627,
      "ĠsÅĤowo": 2628,
      "Ġdrodze": 2629,
      "Ġwolno": 2630,
      "lary": 2631,
      "ĠpÅĤaszcz": 2632,
      "Ġklucze": 2633,
      "Ġcel": 2634,
      "ĠprzyjechaÅĤ": 2635,
      "Ġimprezie": 2636,
      "ĠotworzyÅĤ": 2637,
      "Ġokoli": 2638,
      "ĠzgubiÅĤem": 2639,
      "Ġdwu": 2640,
      "Ġlepszy": 2641,
      "Ġubrania": 2642,
      "Ġtwarz": 2643,
      "Ġszkla": 2644,
      "Ġsamym": 2645,
      "Ġdzisiej": 2646,
      "ach": 2647,
      "ciÄĻ": 2648,
      "kamy": 2649,
      "mej": 2650,
      "taÅĤa": 2651,
      "Ġse": 2652,
      "Ġwarzy": 2653,
      "Ġzbu": 2654,
      "strze": 2655,
      "Ġcen": 2656,
      "Ġnieda": 2657,
      "Ġpomi": 2658,
      "rowe": 2659,
      "Ġzagra": 2660,
      "Ġdoce": 2661,
      "dzian": 2662,
      "Ġchle": 2663,
      "ĠchcÄħ": 2664,
      "Ġwycie": 2665,
      "Ġwyrzu": 2666,
      "Ġimie": 2667,
      "Ġprzesa": 2668,
      "Ġspie": 2669,
      "tery": 2670,
      "ĠszÃ³": 2671,
      "ĠwidzieÄĩ": 2672,
      "Ġtomasz": 2673,
      "Ġrozm": 2674,
      "ĠmogÅĤo": 2675,
      "muje": 2676,
      "Ġspokoj": 2677,
      "Ġpije": 2678,
      "Ġpicia": 2679,
      "Ġskar": 2680,
      "ĠszczÄĻÅĽcie": 2681,
      "Ġstoli": 2682,
      "ĠodpowiedzieÄĩ": 2683,
      "Ġpewnie": 2684,
      "Ġpewna": 2685,
      "wiÄĻk": 2686,
      "ĠstraciÅĤ": 2687,
      "ĠwiedziaÅĤam": 2688,
      "ĠskoÅĦczyÅĤ": 2689,
      "ĠgÅĤowy": 2690,
      "ĠczymÅĽ": 2691,
      "Ġnienawidzi": 2692,
      "ĠzjadÅĤem": 2693,
      "ĠzaczÄħÄĩ": 2694,
      "ĠznalazÅĤem": 2695,
      "Ġdziwne": 2696,
      "Ġwystarczy": 2697,
      "trzeÄĩ": 2698,
      "ĠotworzyÄĩ": 2699,
      "ĠodwiedziÄĩ": 2700,
      "ĠgorÄħco": 2701,
      "ĠskoÅĦczyÄĩ": 2702,
      "ĠpÅĤakaÄĩ": 2703,
      "ĠbroÅĦ": 2704,
      "ĠspytaÅĤ": 2705,
      "Ġodkry": 2706,
      "Ġrestauracji": 2707,
      "Ġtrzymaj": 2708,
      "Ġkapelusz": 2709,
      "rzystaÄĩ": 2710,
      "ĠniemoÅ¼": 2711,
      ".\"": 2712,
      "gnÄħÅĤ": 2713,
      "Ġzra": 2714,
      "stro": 2715,
      "Å¼ony": 2716,
      "Ġpog": 2717,
      "Ġdar": 2718,
      "Ġkam": 2719,
      "Ġwyna": 2720,
      "ĠmiaÅĤeÅĽ": 2721,
      "Ġgar": 2722,
      "cego": 2723,
      "wat": 2724,
      "ĠprzyjÄĻ": 2725,
      "szyb": 2726,
      "Ġlub": 2727,
      "Ġsztu": 2728,
      "ĠwidzieliÅĽmy": 2729,
      "mal": 2730,
      "chodziÄĩ": 2731,
      "turÄĻ": 2732,
      "nÄĻli": 2733,
      "Ġobra": 2734,
      "pera": 2735,
      "Ġokna": 2736,
      "ĠczuÅĤem": 2737,
      "ĠodpowiedziaÅĤ": 2738,
      "ĠpolicjÄĻ": 2739,
      "Ġdrogi": 2740,
      "Ġryzy": 2741,
      "Ġstudent": 2742,
      "ĠzadzwoniÄĩ": 2743,
      "trzymaÄĩ": 2744,
      "Ġszef": 2745,
      "ĠpojechaÄĩ": 2746,
      "ĠmiÄĻsa": 2747,
      "ĠstronÄĻ": 2748,
      "ĠimprezÄĻ": 2749,
      "Ġuwielbia": 2750,
      "Ġprzemy": 2751,
      "Ġbogaty": 2752,
      "Ġciekawe": 2753,
      "Ġzajmie": 2754,
      "ĠmiesiÄħcu": 2755,
      "ĠpiosenkÄĻ": 2756,
      "Ġface": 2757,
      "Ġcierpli": 2758,
      "ĠsÅĤoÅĦce": 2759,
      "raziÄĩ": 2760,
      "Ġwyboru": 2761,
      "gro": 2762,
      "powi": 2763,
      "sji": 2764,
      "waÅĤa": 2765,
      "ÅĤe": 2766,
      "Ġsku": 2767,
      "Ġsmak": 2768,
      "Ġwez": 2769,
      "ĠwdziÄĻ": 2770,
      "Ġzgi": 2771,
      "Ġkwiat": 2772,
      "Ġzawo": 2773,
      "Ġzada": 2774,
      "arze": 2775,
      "Ġpry": 2776,
      "leÅ¼": 2777,
      "Ġwyob": 2778,
      "Ġist": 2779,
      "Ġrok": 2780,
      "Ġprzewo": 2781,
      "Ġprzysto": 2782,
      "Ġmatem": 2783,
      "Ġodwo": 2784,
      "Ġpowiedzenia": 2785,
      "Ġsamego": 2786,
      "Ġpali": 2787,
      "owani": 2788,
      "Ġkierow": 2789,
      "Ġkurt": 2790,
      "Ġinne": 2791,
      "Ġchoro": 2792,
      "ĠzostaÅĦ": 2793,
      "ĠszkoÅĤa": 2794,
      "Ġskle": 2795,
      "Ġwaliz": 2796,
      "Ġwzro": 2797,
      "ĠÅĽwietnie": 2798,
      "ĠwiedziaÅĤeÅĽ": 2799,
      "Ġostat": 2800,
      "Ġkomp": 2801,
      "Ġpusty": 2802,
      "Ġpospie": 2803,
      "Ġkonce": 2804,
      "Ġpozwoli": 2805,
      "Ġzdrowie": 2806,
      "siadÅĤ": 2807,
      "ĠnastÄĻpny": 2808,
      "Ġaresz": 2809,
      "Ġciasto": 2810,
      "ĠpomaraÅĦcz": 2811,
      "ĠzwierzÄĻ": 2812,
      "ĠusÅĤyszaÅĤ": 2813,
      "Ġwysoki": 2814,
      "ĠhistoriÄĻ": 2815,
      "ĠkolacjÄĻ": 2816,
      "ĠrozmawialiÅĽmy": 2817,
      "Ġzamierzasz": 2818,
      "Ġlunch": 2819,
      "bardziej": 2820,
      "Ġmatematy": 2821,
      "ck": 2822,
      "imi": 2823,
      "kÃ³j": 2824,
      "ndy": 2825,
      "tku": 2826,
      "tami": 2827,
      "ÅĤego": 2828,
      "ĠnowÄħ": 2829,
      "Ġwro": 2830,
      "Ġpoda": 2831,
      "Ġpobli": 2832,
      "ĠjedzÄħ": 2833,
      "Ġjezio": 2834,
      "Ġdr": 2835,
      "ĠoÅ¼e": 2836,
      "nica": 2837,
      "Ġzasa": 2838,
      "Ġzacznie": 2839,
      "cznych": 2840,
      "Ġmoc": 2841,
      "Ġusi": 2842,
      "Ġwys": 2843,
      "Ġwyma": 2844,
      "Ġilu": 2845,
      "Ġide": 2846,
      "Ġrodzaj": 2847,
      "szyÅĤ": 2848,
      "Ġodje": 2849,
      "Ġmuze": 2850,
      "Ġpowiedzieli": 2851,
      "Ġraczej": 2852,
      "bal": 2853,
      "Ġtaka": 2854,
      "ĠtaksÃ³w": 2855,
      "Ġdziennie": 2856,
      "Ġstara": 2857,
      "czone": 2858,
      "puszcz": 2859,
      "Ġnajszyb": 2860,
      "Ġnajbardziej": 2861,
      "ĠzostanÄĻ": 2862,
      "Ġrodzina": 2863,
      "Ġsprawy": 2864,
      "Ġbratem": 2865,
      "ĠzajÄĻta": 2866,
      "Ġczujesz": 2867,
      "gram": 2868,
      "Ġkilku": 2869,
      "Ġstraci": 2870,
      "ĠchÅĤopiec": 2871,
      "ĠzadzwoÅĦ": 2872,
      "Ġdziewczyny": 2873,
      "Ġlotni": 2874,
      "ĠpracowaÅĤ": 2875,
      "Ġzamknij": 2876,
      "Ġmecz": 2877,
      "Ġprzyjaciela": 2878,
      "Ġsiostry": 2879,
      "Ġstrony": 2880,
      "Ġlekarzem": 2881,
      "Ġkanady": 2882,
      "ĠkÅĤamie": 2883,
      "ĠÅĤÃ³Å¼ka": 2884,
      "szczÄĻÅĽli": 2885,
      "ĠjabÅĤko": 2886,
      "ĠdowiedzieÄĩ": 2887,
      "Ġroboty": 2888,
      "ĠwejÅĽÄĩ": 2889,
      "Ġuwagi": 2890,
      "ĠÅĽmiaÄĩ": 2891,
      "Ġulicy": 2892,
      "Ġalbo": 2893,
      "ĠÅ¼oÅĤnie": 2894,
      "Ġinterne": 2895,
      "ĠcaÅĤkowicie": 2896,
      "Ġportfe": 2897,
      "?\"": 2898,
      "dia": 2899,
      "od": 2900,
      "raÅĤeÅĽ": 2901,
      "sÄĻ": 2902,
      "Ġple": 2903,
      "Ġzno": 2904,
      "Ġjaj": 2905,
      "Ġcy": 2906,
      "dzaÄĩ": 2907,
      "ĠposiÅĤ": 2908,
      "ĠpoÅĽpie": 2909,
      "ĠosiÄħ": 2910,
      "ĠzaleÅ¼y": 2911,
      "kola": 2912,
      "Ġchro": 2913,
      "Ġwyba": 2914,
      "Ġwybu": 2915,
      "czyÅĤa": 2916,
      "Ġge": 2917,
      "wanie": 2918,
      "Ġprzykro": 2919,
      "Ġodrobi": 2920,
      "Ġab": 2921,
      "Ġzrobisz": 2922,
      "mio": 2923,
      "Ġfo": 2924,
      "Ġfu": 2925,
      "Ġciep": 2926,
      "tual": 2927,
      "wer": 2928,
      "Ġzdra": 2929,
      "siÄħÅĽÄĩ": 2930,
      "Ġobse": 2931,
      "obo": 2932,
      "ĠchodÅº": 2933,
      "ĠdÅĤugie": 2934,
      "Ġrodzimy": 2935,
      "ĠzajÄĻci": 2936,
      "ĠsÅĤyszÄĻ": 2937,
      "Ġdrogie": 2938,
      "ĠspotkaliÅĽmy": 2939,
      "Ġspotkaniu": 2940,
      "Ġnowych": 2941,
      "ĠgÅĤÄĻ": 2942,
      "Ġuspo": 2943,
      "ĠjadÅĤem": 2944,
      "Ġzauf": 2945,
      "ĠwziÄħÅĤ": 2946,
      "ĠpokazaÅĤ": 2947,
      "ĠÅĽwiatÅĤo": 2948,
      "Ġznajo": 2949,
      "ĠzdecydowaÅĤ": 2950,
      "Å¼dÅ¼": 2951,
      "ĠnapisaÅĤ": 2952,
      "ĠwiÄĻzienia": 2953,
      "Ġzamiar": 2954,
      "ĠpamiÄĻtasz": 2955,
      "ĠzakÅĤadam": 2956,
      "Ġbase": 2957,
      "ĠpobliÅ¼u": 2958,
      "cony": 2959,
      "miÄĻ": 2960,
      "rd": 2961,
      "raÅĤa": 2962,
      "Ġne": 2963,
      "Ġsobo": 2964,
      "ĠwszedÅĤ": 2965,
      "Ġwpad": 2966,
      "Ġznik": 2967,
      "stwa": 2968,
      "Ġnieu": 2969,
      "Ġpopu": 2970,
      "Äĩmi": 2971,
      "Ġoch": 2972,
      "ĠkÅĤÃ³": 2973,
      "niesz": 2974,
      "nicÄħ": 2975,
      "Ġdoj": 2976,
      "Ġdopiero": 2977,
      "chaj": 2978,
      "lenia": 2979,
      "Ġwykona": 2980,
      "Ġodrzu": 2981,
      "kio": 2982,
      "ryty": 2983,
      "red": 2984,
      "Ġmyli": 2985,
      "pon": 2986,
      "Ġfaj": 2987,
      "ĠpaliÄĩ": 2988,
      "ĠpiÄħ": 2989,
      "ĠmyÅĽlaÅĤam": 2990,
      "nÄĻÅĤam": 2991,
      "Ġbile": 2992,
      "pew": 2993,
      "ĠmoÅ¼li": 2994,
      "Ġgram": 2995,
      "ĠzostawiÄĩ": 2996,
      "ĠmieszkaÄĩ": 2997,
      "ntem": 2998,
      "Ġprzedsta": 2999,
      "ĠwedÅĤu": 3000,
      "ĠnauczyÅĤ": 3001,
      "ĠÅĽwiet": 3002,
      "Ġeu": 3003,
      "ĠzmieniÄĩ": 3004,
      "Ġpotrafisz": 3005,
      "ĠobiecaÅĤ": 3006,
      "ĠchÅĤopak": 3007,
      "Ġ10": 3008,
      "ĠczÅĤowieka": 3009,
      "ĠprzestaÄĩ": 3010,
      "Ġplanuje": 3011,
      "Ġautobusem": 3012,
      "ĠpokazaÄĩ": 3013,
      "ĠpoczekaÄĩ": 3014,
      "ĠÅĤÃ³Å¼ku": 3015,
      "ĠjabÅĤka": 3016,
      "ĠzrÃ³bmy": 3017,
      "Ġproblemu": 3018,
      "ĠpodrÃ³Å¼owaÄĩ": 3019,
      "ĠpomyÅĽl": 3020,
      "Ġkontak": 3021,
      "ĠherbatÄĻ": 3022,
      "Ġnazwisko": 3023,
      "Ġnarzeka": 3024,
      "ĠprzekonaÄĩ": 3025,
      "ĠkanapkÄĻ": 3026,
      "Ġstudentem": 3027,
      "ĠpudeÅĤko": 3028,
      "ĠbutelkÄĻ": 3029,
      "Ġgitarze": 3030,
      "Ġzakupy": 3031,
      "ĠgÅĤoÅĽno": 3032,
      "Ġnieprawda": 3033,
      "ĠwedÅĤug": 3034,
      "ng": 3035,
      "ÅĤÄĻ": 3036,
      "Ġtru": 3037,
      "Ġtwier": 3038,
      "Ġpsem": 3039,
      "Ġsa": 3040,
      "Ġscho": 3041,
      "Ġzmu": 3042,
      "ĠzÅĤam": 3043,
      "Ġzmia": 3044,
      "Ġtokio": 3045,
      "Å¼an": 3046,
      "zyg": 3047,
      "Ġnieob": 3048,
      "ĠpoÅĽ": 3049,
      "ĠpodziÄĻ": 3050,
      "ĠdaÅĤem": 3051,
      "rowaÅĤ": 3052,
      "Ġnaszym": 3053,
      "Ġzak": 3054,
      "ĠzadziaÅĤ": 3055,
      "ĠzaÅĽpie": 3056,
      "Ġdoty": 3057,
      "cznij": 3058,
      "Ġwychodzi": 3059,
      "Ġmil": 3060,
      "ĠmiÅĤy": 3061,
      "ÅĤoÅĽci": 3062,
      "dach": 3063,
      "Ġprzypom": 3064,
      "tyw": 3065,
      "Ġstrze": 3066,
      "Ġranny": 3067,
      "ĠsÄħdziÅĤem": 3068,
      "ĠsÄħsiad": 3069,
      "ĠzostaÅĤem": 3070,
      "Ġpiz": 3071,
      "Ġznaczy": 3072,
      "Ġjazdy": 3073,
      "ĠzdjÄĻcia": 3074,
      "gaÅ¼": 3075,
      "Ġinnym": 3076,
      "ĠzamÃ³": 3077,
      "ĠskorzystaÄĩ": 3078,
      "ĠdÅĤugi": 3079,
      "ĠwrÃ³ciÅĤem": 3080,
      "Ġumiera": 3081,
      "ĠdrogÄĻ": 3082,
      "Ġdumny": 3083,
      "ĠgotÃ³w": 3084,
      "Ġgotowa": 3085,
      "Ġpunk": 3086,
      "bliÅ¼": 3087,
      "ĠszczÄĻÅĽliwa": 3088,
      "Ġwolny": 3089,
      "ĠdziewczynÄħ": 3090,
      "ĠmÄĻÅ¼a": 3091,
      "ĠparÄĻ": 3092,
      "ĠjadÅĤeÅĽ": 3093,
      "Ġbiura": 3094,
      "ĠzasÅĤu": 3095,
      "ĠÅĽrodka": 3096,
      "ĠjeÅºdzi": 3097,
      "ĠzÅĤe": 3098,
      "Ġ20": 3099,
      "ĠcÃ³rka": 3100,
      "ĠwychodziÄĩ": 3101,
      "ĠsprÃ³buj": 3102,
      "ĠpoÅĤoÅ¼yÅĤ": 3103,
      "ĠoglÄħdaÄĩ": 3104,
      "Ġsamolot": 3105,
      "Ġzdoby": 3106,
      "Ġstrasznie": 3107,
      "ĠpowinnaÅĽ": 3108,
      "Ġokulary": 3109,
      "Ġrachunek": 3110,
      "ĠrÃ³wnieÅ¼": 3111,
      "Ġpianinie": 3112,
      "Ġzarabia": 3113,
      "Ġzbud": 3114,
      "ĠniemoÅ¼liwe": 3115,
      "Ġistnie": 3116,
      "ĠusiÄħdÅº": 3117,
      "Ġobserw": 3118,
      "Ġnieobec": 3119,
      "di": 3120,
      "ho": 3121,
      "jcie": 3122,
      "lam": 3123,
      "lowaÄĩ": 3124,
      "mna": 3125,
      "spo": 3126,
      "skÄħ": 3127,
      "wz": 3128,
      "ĠnÃ³Å¼": 3129,
      "Ġswe": 3130,
      "Ġnieste": 3131,
      "Ġjedzie": 3132,
      "ner": 3133,
      "ĠspaÅĤ": 3134,
      "Ġprzyzwy": 3135,
      "Ġmatki": 3136,
      "Ġkol": 3137,
      "ĠodmÃ³": 3138,
      "torem": 3139,
      "Ġwiat": 3140,
      "Ġrozcza": 3141,
      "Ġpodda": 3142,
      "Ġpach": 3143,
      "pierw": 3144,
      "wych": 3145,
      "Ġnajpierw": 3146,
      "ĠpomogÄĻ": 3147,
      "nikÃ³w": 3148,
      "ĠpomÃ³Å¼": 3149,
      "ĠprzyjdÅº": 3150,
      "ĠpowtÃ³": 3151,
      "Ġostatnie": 3152,
      "ĠsÅĤuchaÄĩ": 3153,
      "Ġrozumiesz": 3154,
      "Ġsamochodzie": 3155,
      "ĠkoÅĦca": 3156,
      "Ġdrugie": 3157,
      "ĠposzÅĤa": 3158,
      "ĠpojechaÅĤ": 3159,
      "Ġstronie": 3160,
      "ĠprzeczytaÄĩ": 3161,
      "ĠdziÄĻki": 3162,
      "ĠwygraÅĤ": 3163,
      "skiej": 3164,
      "ĠÅĽmierÄĩ": 3165,
      "Ġzakocha": 3166,
      "ĠprzyszÅĤoÅĽÄĩ": 3167,
      "ĠnaprawiÄĩ": 3168,
      "ĠwiÄĻzieniu": 3169,
      "ĠuÅ¼ytkownik": 3170,
      "Ġoczeki": 3171,
      "Ġhotelu": 3172,
      "ĠoÅĤÃ³wek": 3173,
      "Ġegzamin": 3174,
      "Ġwidok": 3175,
      "Ġwymaga": 3176,
      "Ġmuzeum": 3177,
      "Ġnajszybciej": 3178,
      "ĠgÅĤÄĻbo": 3179,
      "Ġniestety": 3180,
      "Ġprzyzwycza": 3181,
      "ment": 3182,
      "nne": 3183,
      "ono": 3184,
      "rtu": 3185,
      "Ġ5": 3186,
      "ĠtrzÄĻ": 3187,
      "ĠpÅĤo": 3188,
      "ĠwszÄĻ": 3189,
      "ĠzÄĻ": 3190,
      "Ġcud": 3191,
      "ĠjeÅ¼e": 3192,
      "ĠbÃ³": 3193,
      "Ã³ki": 3194,
      "raÅº": 3195,
      "amowi": 3196,
      "nione": 3197,
      "ark": 3198,
      "Ġuko": 3199,
      "Ġunik": 3200,
      "Ġupew": 3201,
      "jekt": 3202,
      "ĠchÄĻ": 3203,
      "bior": 3204,
      "Ġwyk": 3205,
      "ĠwypeÅĤ": 3206,
      "czysz": 3207,
      "czyÅĤem": 3208,
      "Ġprzynios": 3209,
      "Ġkomi": 3210,
      "Ġodpowi": 3211,
      "ryz": 3212,
      "noc": 3213,
      "ĠzrobiliÅĽmy": 3214,
      "Ġprosto": 3215,
      "Ġrady": 3216,
      "ĠmyÅĽleÄĩ": 3217,
      "ĠmiesiÄĻ": 3218,
      "enty": 3219,
      "ĠpowiedziaÅĤam": 3220,
      "Ġkuzy": 3221,
      "Ġpier": 3222,
      "Ġrobimy": 3223,
      "gani": 3224,
      "Ġobcy": 3225,
      "Ġtamtym": 3226,
      "Ġlicz": 3227,
      "ĠznaÅĤ": 3228,
      "Ġsklep": 3229,
      "ĠrodzinÄĻ": 3230,
      "Ġbrakuje": 3231,
      "ĠzajÄĻÅĤo": 3232,
      "ĠproblemÃ³w": 3233,
      "Ġmieszkanie": 3234,
      "ĠzmieniÅĤ": 3235,
      "ĠpoprosiÄĩ": 3236,
      "Ġgotowi": 3237,
      "Ġpowody": 3238,
      "ĠkaÅ¼dym": 3239,
      "noÅĽciÄħ": 3240,
      "Ġbieg": 3241,
      "ĠpeÅĤne": 3242,
      "ĠszeÅĽÄĩ": 3243,
      "Ġuczci": 3244,
      "Ġobaj": 3245,
      "ĠrozwiÄħza": 3246,
      "ĠmaÅĤÅ¼e": 3247,
      "ĠprÃ³buje": 3248,
      "Ġniesamowi": 3249,
      "Ġszpitala": 3250,
      "ĠuciekÅĤ": 3251,
      "ĠpokaÅ¼": 3252,
      "ĠzÅĤapaÄĩ": 3253,
      "ĠusÅĤyszaÅĤem": 3254,
      "ĠchciaÅĤabym": 3255,
      "ÅĦstwa": 3256,
      "ĠgazetÄĻ": 3257,
      "ĠufaÄĩ": 3258,
      "ĠsukienkÄĻ": 3259,
      "ĠochotÄĻ": 3260,
      "Ġkontynu": 3261,
      "ĠwÅĽciek": 3262,
      "Ġpopatrz": 3263,
      "ĠpoznaÄĩ": 3264,
      "Ġzjedno": 3265,
      "Ġchleb": 3266,
      "Ġostatniej": 3267,
      "Ġportfel": 3268,
      "Ġfoto": 3269,
      "Ġbasebal": 3270,
      "ĠzasÅĤugu": 3271,
      "ĠwszÄĻdzie": 3272,
      "ew": 3273,
      "kty": 3274,
      "knÄħÅĤ": 3275,
      "lnym": 3276,
      "nkiem": 3277,
      "two": 3278,
      "tce": 3279,
      "taÅĤeÅĽ": 3280,
      "usz": 3281,
      "ĠrzÄħd": 3282,
      "Ġnor": 3283,
      "Ġwsty": 3284,
      "Ġzdaje": 3285,
      "Ġniem": 3286,
      "Ġpoko": 3287,
      "Ġpopra": 3288,
      "Ġpopraw": 3289,
      "Ġor": 3290,
      "Ġosie": 3291,
      "Ġozna": 3292,
      "niaÅĤ": 3293,
      "Ġzazd": 3294,
      "ĠzajÄħÄĩ": 3295,
      "Ġdot": 3296,
      "liÅ¼an": 3297,
      "Ġuni": 3298,
      "Ġwymy": 3299,
      "ĠwytÅĤuma": 3300,
      "ĠgraÅĤ": 3301,
      "ĠczyÅ¼": 3302,
      "ĠwiedzÄħ": 3303,
      "ĠprzetÅĤuma": 3304,
      "Ġspowod": 3305,
      "Ġprzychodzi": 3306,
      "ĠprzynieÅĽ": 3307,
      "Ġcztery": 3308,
      "tom": 3309,
      "teli": 3310,
      "Ġwizy": 3311,
      "Ġsami": 3312,
      "ĠdzieÄĩmi": 3313,
      "ĠmoglibyÅĽmy": 3314,
      "Ġpana": 3315,
      "ĠzostaÅĤy": 3316,
      "Ġpisze": 3317,
      "Ġkara": 3318,
      "Ġzebra": 3319,
      "Ġkup": 3320,
      "tujÄĻ": 3321,
      "Ġinni": 3322,
      "ĠÅ¼yjÄħ": 3323,
      "Ġbior": 3324,
      "Ġlisty": 3325,
      "gii": 3326,
      "Ġrodziny": 3327,
      "cjach": 3328,
      "Ġlekar": 3329,
      "ĠsiÃ³d": 3330,
      "Ġbab": 3331,
      "Ġmiejsc": 3332,
      "Ġstudia": 3333,
      "Ġpomaga": 3334,
      "ĠdziewczynÄĻ": 3335,
      "ĠgÅĤÃ³w": 3336,
      "ĠumrzeÄĩ": 3337,
      "ĠdostaÅĤ": 3338,
      "Ġcena": 3339,
      "Ġceny": 3340,
      "Ġposzli": 3341,
      "ĠfiliÅ¼an": 3342,
      "ĠmuzykÄĻ": 3343,
      "ĠgÃ³rÄĻ": 3344,
      "ĠwyjaÅĽnie": 3345,
      "ĠÅĽmierci": 3346,
      "Ġpoczekaj": 3347,
      "Ġbrudny": 3348,
      "ĠwspÃ³l": 3349,
      "ĠpomaraÅĦcze": 3350,
      "ĠzÅĤego": 3351,
      "ĠuwagÄĻ": 3352,
      "Ġzawiera": 3353,
      "Ġdworze": 3354,
      "Ġsukces": 3355,
      "ĠniedzielÄĻ": 3356,
      "ĠprzeziÄĻbi": 3357,
      "Ġaparat": 3358,
      "Ġkoncert": 3359,
      "dnie": 3360,
      "ns": 3361,
      "paÅĤ": 3362,
      "sne": 3363,
      "ujÄħ": 3364,
      "ujesz": 3365,
      "wno": 3366,
      "wrÃ³": 3367,
      "waÅĤeÅĽ": 3368,
      "ĠÃ³": 3369,
      "ĠÅĤy": 3370,
      "Ġzem": 3371,
      "ĠznieÅĽÄĩ": 3372,
      "ĠnieÅĽmi": 3373,
      "Ġpoch": 3374,
      "szne": 3375,
      "szcie": 3376,
      "szczu": 3377,
      "Ġnatura": 3378,
      "Ġzawi": 3379,
      "arÃ³w": 3380,
      "Ġdoko": 3381,
      "cznym": 3382,
      "cznoÅĽci": 3383,
      "Ġur": 3384,
      "ĠuczÄĻ": 3385,
      "Ġuciec": 3386,
      "ĠusiÄħÅĽÄĩ": 3387,
      "Ġtest": 3388,
      "Ġcoraz": 3389,
      "ciem": 3390,
      "Ġspe": 3391,
      "ĠÅĽred": 3392,
      "ĠstÃ³ÅĤ": 3393,
      "Ġpat": 3394,
      "ĠkupiÄĻ": 3395,
      "ĠzdjÄħÅĤ": 3396,
      "Ġczekola": 3397,
      "Ġwoli": 3398,
      "ĠwodÄĻ": 3399,
      "lona": 3400,
      "cach": 3401,
      "pany": 3402,
      "Ġrazie": 3403,
      "ĠmieszkaÅĤ": 3404,
      "Ġprzyjem": 3405,
      "Ġsiedem": 3406,
      "Ġpowinnam": 3407,
      "Ġbrak": 3408,
      "ĠczÄĻÅĽci": 3409,
      "Ġsuge": 3410,
      "ĠokÅĤam": 3411,
      "Ġczuje": 3412,
      "Ġmieszkasz": 3413,
      "Ġzmienia": 3414,
      "ĠrÄĻka": 3415,
      "Ġryb": 3416,
      "Ġpowoli": 3417,
      "Ġpubli": 3418,
      "ĠwyjÅĽcia": 3419,
      "Ġniezwy": 3420,
      "Ġzdenerw": 3421,
      "Ġszukam": 3422,
      "Ġtelewizor": 3423,
      "Ġobietni": 3424,
      "ĠzamknÄħÅĤ": 3425,
      "ĠÅĽpiewa": 3426,
      "Ġbiurze": 3427,
      "ĠmiÄĻso": 3428,
      "ĠgÅĤupie": 3429,
      "ĠzapytaÄĩ": 3430,
      "ĠprzestaÅĤ": 3431,
      "ĠplanujÄĻ": 3432,
      "Ġklasy": 3433,
      "Ġkobiety": 3434,
      "ĠnastÄĻpnym": 3435,
      "Ġnajlepszym": 3436,
      "Ġrusz": 3437,
      "ĠrzuciÅĤ": 3438,
      "ĠmiesiÄħce": 3439,
      "ĠmaÅĤe": 3440,
      "Ġptaki": 3441,
      "ĠzatrzymaÅĤ": 3442,
      "ĠzatrzymaÄĩ": 3443,
      "ĠwyszÅĤa": 3444,
      "ĠjakÄħÅĽ": 3445,
      "ĠostroÅ¼ny": 3446,
      "ĠwÄħtpiÄĻ": 3447,
      "Ġemery": 3448,
      "ĠpociÄħgu": 3449,
      "Ġspacer": 3450,
      "ĠpoczÄħtku": 3451,
      "ĠprzyznaÅĤ": 3452,
      "ĠÅĽlub": 3453,
      "ĠstudentÃ³w": 3454,
      "Ġpopular": 3455,
      "ĠjeÅ¼eli": 3456,
      "Ġuniwer": 3457,
      "ĠÃ³s": 3458,
      "Ġzemd": 3459,
      "bro": 3460,
      "jemu": 3461,
      "laÄĩ": 3462,
      "larz": 3463,
      "nak": 3464,
      "nta": 3465,
      "nami": 3466,
      "sÅĤy": 3467,
      "tna": 3468,
      "Ġnowa": 3469,
      "Ġsty": 3470,
      "Ġwsze": 3471,
      "Ġpob": 3472,
      "ĠpoÅĤ": 3473,
      "rowie": 3474,
      "Ġkli": 3475,
      "ĠkrÄĻ": 3476,
      "ĠkrÃ³t": 3477,
      "nienie": 3478,
      "ninem": 3479,
      "Ġzare": 3480,
      "ĠzabraÄĩ": 3481,
      "Ġdotar": 3482,
      "wiÅĤem": 3483,
      "Ġucze": 3484,
      "ĠwyjÄħ": 3485,
      "Ġwyno": 3486,
      "ĠwyÅ¼szy": 3487,
      "Ġmili": 3488,
      "ÅĤoÅ¼yÅĤ": 3489,
      "Ġgu": 3490,
      "ĠgrÄĻ": 3491,
      "Ġgwia": 3492,
      "cenia": 3493,
      "wania": 3494,
      "Ġmarze": 3495,
      "Ġodd": 3496,
      "ĠmuszÄħ": 3497,
      "ren": 3498,
      "ĠprosiÄĩ": 3499,
      "Ġwin": 3500,
      "Ġwidzi": 3501,
      "Ġradio": 3502,
      "rÃ³j": 3503,
      "ĠpaÅĦstwo": 3504,
      "ĠmÃ³wiÅĤeÅĽ": 3505,
      "Ġkupu": 3506,
      "ĠchodzÄĻ": 3507,
      "ĠtaÅĦczy": 3508,
      "ĠkupiÅĤa": 3509,
      "ĠliczyÄĩ": 3510,
      "syte": 3511,
      "Ġjednego": 3512,
      "Ġdomowe": 3513,
      "ĠplaÅ¼y": 3514,
      "son": 3515,
      "Ġpowinny": 3516,
      "Ġojcem": 3517,
      "ĠuwaÅ¼aj": 3518,
      "Ġstoi": 3519,
      "ĠkomÃ³r": 3520,
      "Ġsamochody": 3521,
      "ĠuÅ¼yÄĩ": 3522,
      "ĠuÅ¼ywaÄĩ": 3523,
      "Ġpomal": 3524,
      "Ġzaproszenie": 3525,
      "ĠzabiÅĤ": 3526,
      "ĠsÅĤod": 3527,
      "ĠÅ¼aden": 3528,
      "ĠÅ¼adnego": 3529,
      "Ġulubiona": 3530,
      "ĠwraÅ¼enie": 3531,
      "Ġkochasz": 3532,
      "ĠmiÅĤoÅĽÄĩ": 3533,
      "ĠspodziewaÅĤem": 3534,
      "Ġarty": 3535,
      "Ġdysku": 3536,
      "Ġczerwone": 3537,
      "Ġcuk": 3538,
      "ĠwydarzyÅĤo": 3539,
      "Ġdrzewa": 3540,
      "ĠwracaÄĩ": 3541,
      "ĠuÅ¼ytkow": 3542,
      "ĠkoÅĽcioÅĤa": 3543,
      "Ġkoniec": 3544,
      "ĠodejÅĽÄĩ": 3545,
      "Ġpijany": 3546,
      "ĠzamkniÄĻte": 3547,
      "ĠpropozycjÄĻ": 3548,
      "Ġdziadek": 3549,
      "ĠszÃ³stej": 3550,
      "ĠosiÄħg": 3551,
      "Ġeuro": 3552,
      "ĠnieprawdaÅ¼": 3553,
      "ĠtrzÄĻsie": 3554,
      "Ġfotogra": 3555,
      "Ġurlo": 3556,
      "Ġuniwersyte": 3557,
      "\".": 3558,
      "ale": 3559,
      "bÃ³j": 3560,
      "kre": 3561,
      "kowaÅĤ": 3562,
      "lki": 3563,
      "lkÄĻ": 3564,
      "par": 3565,
      "ÅĤej": 3566,
      "Ġniewol": 3567,
      "Ġporu": 3568,
      "Äħb": 3569,
      "Ġdie": 3570,
      "Ġdow": 3571,
      "Ã³z": 3572,
      "ĠoszczÄĻ": 3573,
      "niam": 3574,
      "niÅĤa": 3575,
      "Ġzadanie": 3576,
      "liwy": 3577,
      "dzili": 3578,
      "wiony": 3579,
      "lepiej": 3580,
      "naczej": 3581,
      "nymi": 3582,
      "cznej": 3583,
      "Ġura": 3584,
      "jek": 3585,
      "Ġwycze": 3586,
      "Ġinaczej": 3587,
      "Ġrobie": 3588,
      "Ġprzynaj": 3589,
      "Ġprzypomina": 3590,
      "Ġkolo": 3591,
      "ĠkoÅĦczy": 3592,
      "Ġmusie": 3593,
      "Ġprawa": 3594,
      "Ġpowiet": 3595,
      "Ġrozmi": 3596,
      "ĠmogliÅĽmy": 3597,
      "ĠpodniÃ³sÅĤ": 3598,
      "Ġpatrz": 3599,
      "dzony": 3600,
      "ĠpijÄĻ": 3601,
      "Ġswoimi": 3602,
      "nuje": 3603,
      "ĠÅ¼ebyÅĽmy": 3604,
      "Ġlecz": 3605,
      "ĠzdÄħ": 3606,
      "Ġzdarza": 3607,
      "ĠsamobÃ³j": 3608,
      "Ġczekam": 3609,
      "Ġtrzydzie": 3610,
      "Ġhu": 3611,
      "ĠÅ¼Ã³ÅĤ": 3612,
      "Ġstacji": 3613,
      "czonego": 3614,
      "aÅĤyÅĽmy": 3615,
      "puÅĽÄĩ": 3616,
      "Ġnajwy": 3617,
      "Ġnajlepiej": 3618,
      "Ġskont": 3619,
      "Ġrazu": 3620,
      "ntÃ³w": 3621,
      "czÄħÄĩ": 3622,
      "ĠwziÄĻ": 3623,
      "ĠsÅĤyszy": 3624,
      "Ġsuper": 3625,
      "ĠsÅĤÃ³w": 3626,
      "ĠpÃ³jdziesz": 3627,
      "ĠÅĤazie": 3628,
      "Ġoskar": 3629,
      "ĠszczÄĻÅĽliwi": 3630,
      "Ġbiega": 3631,
      "ĠzwyciÄĻ": 3632,
      "ĠlodÃ³w": 3633,
      "ĠpotrafiÅĤ": 3634,
      "Ġobiecu": 3635,
      "ĠdostaÅĤem": 3636,
      "ĠwieczÃ³r": 3637,
      "ĠzaczÄħÅĤem": 3638,
      "Ġjedynie": 3639,
      "Ġprzeczyta": 3640,
      "ĠkobietÄħ": 3641,
      "ĠrozsÄħdne": 3642,
      "ĠzgubiÅĤ": 3643,
      "ĠspodziewaÅĤ": 3644,
      "Ġpodejrze": 3645,
      "ĠprÃ³bujÄĻ": 3646,
      "Ġkrawat": 3647,
      "Ġniespo": 3648,
      "Ġzobaczymy": 3649,
      "ĠszansÄĻ": 3650,
      "ĠzostawiÅĤem": 3651,
      "ĠzaczekaÄĩ": 3652,
      "Ġmoimi": 3653,
      "ĠpocaÅĤowaÅĤ": 3654,
      "Ġokropnie": 3655,
      "ĠsÅĤuchaj": 3656,
      "Ġkontro": 3657,
      "ĠzauwaÅ¼yÅĤ": 3658,
      "Ġzwolniony": 3659,
      "ĠksiÄĻÅ¼y": 3660,
      "ĠkazaÅĤ": 3661,
      "Ġzainteresowany": 3662,
      "Ġspodoba": 3663,
      "Ġwakacje": 3664,
      "Ġzrezyg": 3665,
      "ĠprzeraÅ¼a": 3666,
      "ĠpoÅ¼ar": 3667,
      "ĠkÅĤopoty": 3668,
      "Ġniewiele": 3669,
      "Ġideal": 3670,
      "Ġwybuch": 3671,
      "ĠciepÅĤo": 3672,
      "Ġochro": 3673,
      "Ġkolor": 3674,
      "ĠnieÅĽmiaÅĤy": 3675,
      "Ġspecja": 3676,
      "Ġprzynajmniej": 3677,
      "Ġskontak": 3678,
      "braÅĤ": 3679,
      "cjÄħ": 3680,
      "dne": 3681,
      "gaÅĤ": 3682,
      "ha": 3683,
      "jem": 3684,
      "nowaÄĩ": 3685,
      "nkÃ³w": 3686,
      "sowaÄĩ": 3687,
      "tkiem": 3688,
      "Ġwuj": 3689,
      "Ġzbiera": 3690,
      "Ġniep": 3691,
      "Ġniebo": 3692,
      "Ġpodzi": 3693,
      "Äħc": 3694,
      "ĠdaÅĤa": 3695,
      "Ġone": 3696,
      "Ġdoku": 3697,
      "Ġdoros": 3698,
      "ĠprÄĻ": 3699,
      "wiÅĤo": 3700,
      "cis": 3701,
      "ciaÅĤ": 3702,
      "ciÅĤa": 3703,
      "Ġufa": 3704,
      "Ġwybra": 3705,
      "ĠwyjÄħÅĤ": 3706,
      "ĠroÅĽli": 3707,
      "Ġwielo": 3708,
      "siÅĤa": 3709,
      "ĠprzestÄĻp": 3710,
      "czeni": 3711,
      "wany": 3712,
      "ĠprzyszedÅĤem": 3713,
      "Ġprzypuszcz": 3714,
      "Ġodda": 3715,
      "ĠpowieÅĽÄĩ": 3716,
      "Ġproce": 3717,
      "Ġszczu": 3718,
      "pia": 3719,
      "Ġrana": 3720,
      "rÃ³cz": 3721,
      "Ġsamej": 3722,
      "Ġrozbi": 3723,
      "Ġpapie": 3724,
      "Ġpacje": 3725,
      "ĠpatrzeÄĩ": 3726,
      "muj": 3727,
      "Ġkieszeni": 3728,
      "Ġkawa": 3729,
      "Ġznaczenie": 3730,
      "ĠleÅ¼y": 3731,
      "Ġprawdy": 3732,
      "ĠrobiÅĤeÅĽ": 3733,
      "glÄĻ": 3734,
      "Ġnigdzie": 3735,
      "Ġzapa": 3736,
      "Ġha": 3737,
      "ĠbiaÅĤy": 3738,
      "rwaÅĤ": 3739,
      "Ġsiedzi": 3740,
      "ĠczuÅĤ": 3741,
      "ĠuwaÅ¼nie": 3742,
      "ĠwrÃ³cisz": 3743,
      "ĠÅĽwiece": 3744,
      "Ġsystem": 3745,
      "Ġresz": 3746,
      "Ġszybciej": 3747,
      "Ġdroga": 3748,
      "ĠryÅ¼": 3749,
      "ĠgotowaÄĩ": 3750,
      "ĠskoÅĦczyÅĤo": 3751,
      "ĠdÅĤugopis": 3752,
      "Ġosob": 3753,
      "alony": 3754,
      "ĠsÅĤyszaÅĤeÅĽ": 3755,
      "ĠsÅĤyszaÅĤam": 3756,
      "Ġzapropon": 3757,
      "ĠkimÅĽ": 3758,
      "ĠpozwolÄĻ": 3759,
      "ĠzamknÄħÄĩ": 3760,
      "ĠchÅĤopcy": 3761,
      "Ġprzyjaciel": 3762,
      "ĠjedynÄħ": 3763,
      "ĠporadziÅĤ": 3764,
      "ĠoprÃ³cz": 3765,
      "ĠzaczÄĻÅĤa": 3766,
      "Ġprezy": 3767,
      "ĠbÅĤÄĻdy": 3768,
      "Ġpasa": 3769,
      "Ġpasuje": 3770,
      "Ġodpowiedzial": 3771,
      "ÅĦstwem": 3772,
      "Ġniebezpieczne": 3773,
      "ĠwypiÅĤ": 3774,
      "Ġtwarzy": 3775,
      "ĠzwrÃ³": 3776,
      "ĠzgÅĤo": 3777,
      "Ġkraju": 3778,
      "Ġbiblioteki": 3779,
      "ĠpowaÅ¼nie": 3780,
      "Ġbank": 3781,
      "ĠkomuÅĽ": 3782,
      "ĠhaÅĤasu": 3783,
      "Ġpozosta": 3784,
      "Ġbiurku": 3785,
      "Ġrozej": 3786,
      "ĠÅ¼aÅĤujÄĻ": 3787,
      "ĠrozwiÄħzaÄĩ": 3788,
      "ĠkrzesÅĤo": 3789,
      "ĠosobiÅĽcie": 3790,
      "ĠszklankÄĻ": 3791,
      "ĠkurtkÄĻ": 3792,
      "Ġzazdros": 3793,
      "caÄĩ": 3794,
      "dna": 3795,
      "dÅĤa": 3796,
      "fek": 3797,
      "fer": 3798,
      "gami": 3799,
      "onie": 3800,
      "sp": 3801,
      "wÃ³r": 3802,
      "Ġwku": 3803,
      "ĠzwiÄħ": 3804,
      "stka": 3805,
      "ÅĽle": 3806,
      "ĠpopÅĤy": 3807,
      "Ã³rz": 3808,
      "Ġopa": 3809,
      "Ġnagro": 3810,
      "Å¼eniem": 3811,
      "Ġzaa": 3812,
      "Ġzacznij": 3813,
      "arka": 3814,
      "dziliÅĽmy": 3815,
      "wiÅĤa": 3816,
      "cznÄħ": 3817,
      "ĠudziaÅĤ": 3818,
      "Ġros": 3819,
      "Ġwieczo": 3820,
      "Ġprzeko": 3821,
      "ĠprzeÅ¼y": 3822,
      "Ġprzysta": 3823,
      "rzyÅĤem": 3824,
      "Ġpowiedzia": 3825,
      "ĠÅĽle": 3826,
      "reszcie": 3827,
      "Ġprogram": 3828,
      "pisz": 3829,
      "miÄĩ": 3830,
      "Ġwidzia": 3831,
      "Ġraport": 3832,
      "Ġfar": 3833,
      "Ġpisto": 3834,
      "ĠmusiaÅĤa": 3835,
      "ĠkawaÅĤ": 3836,
      "chodÅº": 3837,
      "chodzÄĻ": 3838,
      "Ġled": 3839,
      "tuj": 3840,
      "tujesz": 3841,
      "ĠchciaÅĤam": 3842,
      "ĠprawdÄħ": 3843,
      "ÅĽciem": 3844,
      "Ġhar": 3845,
      "Ġhej": 3846,
      "Ġpoza": 3847,
      "Ġstatek": 3848,
      "sania": 3849,
      "Ġlice": 3850,
      "rajmy": 3851,
      "ĠmiaÅĤam": 3852,
      "Ġdawna": 3853,
      "Ġjedna": 3854,
      "ĠbyÅĤaÅĽ": 3855,
      "Ġtroje": 3856,
      "ĠsiedziaÅĤ": 3857,
      "Ġwesz": 3858,
      "kaza": 3859,
      "Ġproblemem": 3860,
      "ĠbawiÄĩ": 3861,
      "Ġdeszczu": 3862,
      "ĠzadzwoniÄĻ": 3863,
      "ĠwolaÅĤbym": 3864,
      "ĠpadaÅĤ": 3865,
      "ĠbiegaÄĩ": 3866,
      "ĠwidziaÅĤam": 3867,
      "ĠznaleÅºliÅĽmy": 3868,
      "Ġsprzedaje": 3869,
      "ĠusÅĤyszeÄĩ": 3870,
      "ĠzapomniaÅĤ": 3871,
      "Ġkobieta": 3872,
      "Ġsprawdzian": 3873,
      "Ġznajduje": 3874,
      "Ġzgadza": 3875,
      "ĠdzwoniÅĤ": 3876,
      "ĠmÃ³wiÄħc": 3877,
      "ĠkaÅ¼dej": 3878,
      "jÄħcych": 3879,
      "ĠÅ¼art": 3880,
      "Ġwarto": 3881,
      "Ġserce": 3882,
      "Ġkilo": 3883,
      "rowany": 3884,
      "ĠÅ¼onaty": 3885,
      "ĠodkÄħd": 3886,
      "Ġherbaty": 3887,
      "Ġczarny": 3888,
      "Ġinteresuje": 3889,
      "ĠpoczuÅĤ": 3890,
      "Ġformu": 3891,
      "ĠdecyzjÄĻ": 3892,
      "Ġjohn": 3893,
      "Ġogrodzie": 3894,
      "ĠprzemÃ³": 3895,
      "Ġwojna": 3896,
      "ĠoczywiÅĽcie": 3897,
      "ĠdoÅĽwiadczenie": 3898,
      "Ġprzypadek": 3899,
      "Ġuprzejmy": 3900,
      "Ġprysz": 3901,
      "ĠodwoÅĤa": 3902,
      "Ġdrin": 3903,
      "Ġmocno": 3904,
      "ĠpodziÄĻkowaÄĩ": 3905,
      "ĠprzypomnieÄĩ": 3906,
      "Ġwiatr": 3907,
      "ĠmiesiÄĻcy": 3908,
      "telig": 3909,
      "ĠkrÃ³tkie": 3910,
      "Ġwyczer": 3911,
      "fu": 3912,
      "jczy": 3913,
      "lni": 3914,
      "pÃ³ki": 3915,
      "rwi": 3916,
      "ser": 3917,
      "Ġplo": 3918,
      "Ġtoale": 3919,
      "ĠpostÄĻp": 3920,
      "Ġpoprze": 3921,
      "ĠdÅĤo": 3922,
      "Ġdre": 3923,
      "Ġdenty": 3924,
      "Ġbe": 3925,
      "rami": 3926,
      "Ġowa": 3927,
      "ĠkÄħ": 3928,
      "Ġnaro": 3929,
      "Ġdosy": 3930,
      "ĠdopÃ³ki": 3931,
      "chaÅĤa": 3932,
      "lega": 3933,
      "letnie": 3934,
      "cznego": 3935,
      "Ġmord": 3936,
      "Ġuszy": 3937,
      "Ġupra": 3938,
      "Ġchu": 3939,
      "Ġwych": 3940,
      "Ġczytam": 3941,
      "cep": 3942,
      "czek": 3943,
      "wagÄĻ": 3944,
      "Ġprzytu": 3945,
      "szyÅĤem": 3946,
      "Ġmarzy": 3947,
      "ĠmariÄĻ": 3948,
      "Ġapli": 3949,
      "kim": 3950,
      "biegÅĤ": 3951,
      "ÅºÄĩ": 3952,
      "jÄħca": 3953,
      "Å¼yÅĤa": 3954,
      "reb": 3955,
      "Ġwinny": 3956,
      "maty": 3957,
      "ĠsÄħdzi": 3958,
      "ĠsÄħdzisz": 3959,
      "owano": 3960,
      "Ġmieli": 3961,
      "ajmy": 3962,
      "Ġkieru": 3963,
      "Ġtwoich": 3964,
      "Ġleni": 3965,
      "Ġintelig": 3966,
      "Ġchora": 3967,
      "ĠtaÅĦ": 3968,
      "Ġpozwa": 3969,
      "Ġlato": 3970,
      "Ġsok": 3971,
      "ĠnajwiÄĻk": 3972,
      "ĠnajbliÅ¼": 3973,
      "Ġzobaczenia": 3974,
      "niejsze": 3975,
      "rÄħz": 3976,
      "Ġdomem": 3977,
      "ĠdomowÄħ": 3978,
      "Ġsprawia": 3979,
      "ĠrozmawiaÅĤ": 3980,
      "Ġstosu": 3981,
      "Ġdobrych": 3982,
      "Ġsypi": 3983,
      "ĠmieszkajÄħ": 3984,
      "ĠogrÃ³d": 3985,
      "Ġzamiesz": 3986,
      "Ġdziecka": 3987,
      "Ġloka": 3988,
      "Ġzjedz": 3989,
      "Ġtygodnie": 3990,
      "ĠszukaÅĤem": 3991,
      "ĠpozwoliÅĤ": 3992,
      "Ġkoszt": 3993,
      "ĠpeÅĤna": 3994,
      "Ġulubione": 3995,
      "Ġpotrzebne": 3996,
      "Ġwraca": 3997,
      "Ġkarty": 3998,
      "Ġprzyjedzie": 3999,
      "ĠwiÄĻksze": 4000,
      "Ġplanujesz": 4001,
      "ĠzapÅĤaci": 4002,
      "Ġfilmy": 4003,
      "ĠÅĤatwe": 4004,
      "ĠzeszÅĤej": 4005,
      "jÄħcego": 4006,
      "Ġkolejny": 4007,
      "Ġszachy": 4008,
      "Ġzdania": 4009,
      "ĠzaÅĤoÅ¼yÅĤ": 4010,
      "Ġkrzycze": 4011,
      "ĠpomoÅ¼esz": 4012,
      "ĠsÅĤawny": 4013,
      "ĠpaÅºdziernika": 4014,
      "Ġzrobienie": 4015,
      "Ġopowiedz": 4016,
      "ĠposÅĤuchaj": 4017,
      "ĠÅĤadna": 4018,
      "Ġsmutny": 4019,
      "ĠchiÅĦ": 4020,
      "Ġfirma": 4021,
      "Ġrozpozna": 4022,
      "Ġbudynek": 4023,
      "Ġbiurko": 4024,
      "Ġowoce": 4025,
      "ĠodpoczÄħÄĩ": 4026,
      "ĠprzewidzieÄĩ": 4027,
      "ĠÅĽwiado": 4028,
      "Ġokolicy": 4029,
      "ĠwdziÄĻczny": 4030,
      "Ġprzystojny": 4031,
      "ĠchroniÄĩ": 4032,
      "Ġbilety": 4033,
      "ĠzadziaÅĤa": 4034,
      "Ġsweter": 4035,
      "Ġoznacza": 4036,
      "ĠÃ³smej": 4037,
      "bÃ³w": 4038,
      "caj": 4039,
      "gni": 4040,
      "hi": 4041,
      "kra": 4042,
      "karzem": 4043,
      "lnego": 4044,
      "oo": 4045,
      "ĠtrÃ³j": 4046,
      "Ġpen": 4047,
      "Ġnowej": 4048,
      "ĠwpÅĤy": 4049,
      "Ġznie": 4050,
      "Å¼kÄĻ": 4051,
      "ĠniewaÅ¼": 4052,
      "ĠnieszczÄĻÅĽli": 4053,
      "Ġpodzie": 4054,
      "szkÄĻ": 4055,
      "ĠdÅº": 4056,
      "Ġdowo": 4057,
      "ĠbÃ³j": 4058,
      "Ġbut": 4059,
      "Ġbud": 4060,
      "raÅ¼": 4061,
      "Ġodzy": 4062,
      "Ġotrzym": 4063,
      "Ġkl": 4064,
      "Ġnawz": 4065,
      "Ġzabierz": 4066,
      "Ġdosko": 4067,
      "chi": 4068,
      "lec": 4069,
      "lekt": 4070,
      "cisk": 4071,
      "Ġmone": 4072,
      "koi": 4073,
      "Ġumi": 4074,
      "Ġupad": 4075,
      "ĠuczyÅĤ": 4076,
      "ĠusiadÅĤ": 4077,
      "ĠmiaÅĤo": 4078,
      "Ġgrze": 4079,
      "Ġwiecznie": 4080,
      "Ġjakim": 4081,
      "ĠsprzÄħ": 4082,
      "czeniu": 4083,
      "ĠprzyjÄĻcie": 4084,
      "ĠkochaÅĤ": 4085,
      "Ġalko": 4086,
      "rzyÅĤa": 4087,
      "rzaÅĤem": 4088,
      "Ġzrobimy": 4089,
      "Ġprodu": 4090,
      "Ġstwo": 4091,
      "kiej": 4092,
      "Ġgotuje": 4093,
      "ĠdziewiÄħ": 4094,
      "ĠpodaÄĩ": 4095,
      "ĠpodjÄħÄĩ": 4096,
      "Ġspodob": 4097,
      "ĠspoÅĤe": 4098,
      "Ġpik": 4099,
      "Ġpiwa": 4100,
      "nuj": 4101,
      "ĠleÅ¼": 4102,
      "Ġjada": 4103,
      "Ġjack": 4104,
      "ĠzdaÅĤ": 4105,
      "ĠzdjÄĻ": 4106,
      "nÄĻÅĤy": 4107,
      "Ġtamtego": 4108,
      "Ġtamtej": 4109,
      "Ġtale": 4110,
      "ĠÅ¼yciu": 4111,
      "Ġjednak": 4112,
      "Ġbraci": 4113,
      "ĠrozmawiaÅĤem": 4114,
      "ĠszczÄĻÅĽcia": 4115,
      "Ġgodzina": 4116,
      "czonych": 4117,
      "godnie": 4118,
      "Ġdenerw": 4119,
      "Ã³lnie": 4120,
      "Ġener": 4121,
      "ĠpoprosiÅĤem": 4122,
      "Ġdrzwiami": 4123,
      "ĠsÅĤuchaÅĤ": 4124,
      "ĠskoÅĦczyÅĤa": 4125,
      "pisaÄĩ": 4126,
      "Ġrzeczywi": 4127,
      "Ġwolne": 4128,
      "Ġpierwszym": 4129,
      "Ġpark": 4130,
      "miali": 4131,
      "ĠspÄĻdziÅĤem": 4132,
      "ĠspÄĻdza": 4133,
      "ĠmartwiÄĩ": 4134,
      "ĠsÅĤone": 4135,
      "ĠchÅĤopcÃ³w": 4136,
      "ĠpotrzebowaÄĩ": 4137,
      "Ġprzyjaciele": 4138,
      "ĠsiostrÄĻ": 4139,
      "ĠszedÅĤ": 4140,
      "Ġzasad": 4141,
      "Ġzdrowy": 4142,
      "Ġdziwny": 4143,
      "Ġdobrego": 4144,
      "ĠpostanowiÅĤem": 4145,
      "Ġtempera": 4146,
      "Ġzajmuje": 4147,
      "ĠnapisaÄĩ": 4148,
      "ĠgorÄħca": 4149,
      "ĠpÅĤakaÅĤ": 4150,
      "ĠbrodÄĻ": 4151,
      "Ġpodejrza": 4152,
      "Ġkrew": 4153,
      "ĠprzejÅĽÄĩ": 4154,
      "Ġzagrajmy": 4155,
      "ĠwychodzÄĻ": 4156,
      "ĠsprÃ³bujÄĻ": 4157,
      "ĠpopeÅĤniÅĤ": 4158,
      "Ġzwra": 4159,
      "Ġzamia": 4160,
      "Ġuczucie": 4161,
      "Ġjohna": 4162,
      "ĠmÄħdrzej": 4163,
      "Ġzigno": 4164,
      "Ġoczywiste": 4165,
      "Ġsytuacja": 4166,
      "ĠpopoÅĤudnie": 4167,
      "siada": 4168,
      "Ġdwudzie": 4169,
      "Ġwarzyw": 4170,
      "Ġniedaleko": 4171,
      "Ġimienia": 4172,
      "Ġdarmo": 4173,
      "Ġjezioro": 4174,
      "Ġpachnie": 4175,
      "ĠwÅĽciekÅĤy": 4176,
      "Ġrozmiar": 4177,
      "ĠobiecujÄĻ": 4178,
      "ĠpasaÅ¼e": 4179,
      "ĠpopÅĤywaÄĩ": 4180,
      "ĠdosyÄĩ": 4181,
      "Ġmorder": 4182,
      "Ġaplika": 4183,
      "ĠniewaÅ¼ne": 4184,
      "Ġnawzajem": 4185,
      "Ġalkoho": 4186,
      "dliwe": 4187,
      "fla": 4188,
      "kow": 4189,
      "kwi": 4190,
      "mÄħ": 4191,
      "mark": 4192,
      "nty": 4193,
      "nowaÅĤ": 4194,
      "sÅĤa": 4195,
      "skÄĻ": 4196,
      "warzy": 4197,
      "zdu": 4198,
      "Ġ3": 4199,
      "Ġtch": 4200,
      "ĠtÅĤu": 4201,
      "Ġtwar": 4202,
      "ĠtÅĤuma": 4203,
      "Ġnu": 4204,
      "Ġwuje": 4205,
      "ĠzaÅĤ": 4206,
      "Ġzdzi": 4207,
      "Ġtowarzy": 4208,
      "ĠcÃ³Å¼": 4209,
      "dzamy": 4210,
      "Ġnieco": 4211,
      "Ġpodaj": 4212,
      "ĠjenÃ³w": 4213,
      "ĠbaÅĤ": 4214,
      "Ġbej": 4215,
      "Ġbrzu": 4216,
      "rowo": 4217,
      "Ġogo": 4218,
      "Ġopu": 4219,
      "Ġnaczy": 4220,
      "ĠnaszÄħ": 4221,
      "niaÄĩ": 4222,
      "niki": 4223,
      "Å¼enia": 4224,
      "Ġzacho": 4225,
      "Ġzadania": 4226,
      "owny": 4227,
      "dziony": 4228,
      "wiaÅĤ": 4229,
      "aku": 4230,
      "czaÅĤ": 4231,
      "czem": 4232,
      "Ġupo": 4233,
      "Ġter": 4234,
      "wienia": 4235,
      "Ġwyz": 4236,
      "Ġwymie": 4237,
      "Ġidio": 4238,
      "bywa": 4239,
      "mych": 4240,
      "ÅĤada": 4241,
      "czym": 4242,
      "Ġmile": 4243,
      "ĠminÄĻÅĤo": 4244,
      "Ġgnie": 4245,
      "Ġjakbym": 4246,
      "Ġprzygo": 4247,
      "ĠprzykÅĤad": 4248,
      "Ġmaszy": 4249,
      "Ġkor": 4250,
      "ĠodwaÅ¼": 4251,
      "ĠtyÅĤu": 4252,
      "Ġczwar": 4253,
      "Ġprakty": 4254,
      "Ġzrobione": 4255,
      "rek": 4256,
      "Ġszalony": 4257,
      "miec": 4258,
      "Ġwinien": 4259,
      "Ġraka": 4260,
      "Ġrami": 4261,
      "Ġracji": 4262,
      "ĠgoÅĽci": 4263,
      "ĠsamÄħ": 4264,
      "Ġpodek": 4265,
      "ruj": 4266,
      "Ġpal": 4267,
      "Ġpasz": 4268,
      "ĠspokÃ³j": 4269,
      "ĠczekaÅĤem": 4270,
      "Ġobej": 4271,
      "ĠtrzymaÄĩ": 4272,
      "obby": 4273,
      "Ġtata": 4274,
      "Ġhobby": 4275,
      "ĠÅ¼yw": 4276,
      "Ġliczy": 4277,
      "Ġgrasz": 4278,
      "ĠgranicÄĻ": 4279,
      "ĠgranicÄħ": 4280,
      "Ġnauce": 4281,
      "Ġzobacz": 4282,
      "chali": 4283,
      "ĠprzyjdÄĻ": 4284,
      "Ġdomowej": 4285,
      "Ġsprawa": 4286,
      "Ġrzeki": 4287,
      "Ġwese": 4288,
      "ĠlataÄĩ": 4289,
      "ĠsÅĤyszeÄĩ": 4290,
      "Ġrozmawiali": 4291,
      "Ġwspi": 4292,
      "Ġryba": 4293,
      "ĠuÅ¼ywa": 4294,
      "Ġpracujesz": 4295,
      "ĠÅĽmieci": 4296,
      "Ġpokry": 4297,
      "Ġjaponia": 4298,
      "Ġpierwsze": 4299,
      "Ġnieza": 4300,
      "Ġnauczyciela": 4301,
      "Ġtrudny": 4302,
      "ĠzaprosiÅĤ": 4303,
      "Ġtygodni": 4304,
      "ĠjÄĻzyku": 4305,
      "ĠciÄĻÅ¼arÃ³w": 4306,
      "ĠspÄĻdziÅĤ": 4307,
      "Ġmartw": 4308,
      "ĠmartwiÄĻ": 4309,
      "ĠzmÄĻczonego": 4310,
      "ĠjadÅĤ": 4311,
      "ĠjadÄĻ": 4312,
      "Ġdrugi": 4313,
      "Ġbiuro": 4314,
      "ĠprzeczytaÅĤem": 4315,
      "piÄĻk": 4316,
      "Ġfina": 4317,
      "Ġprzestrze": 4318,
      "ĠzastanawiaÅĤem": 4319,
      "ĠzapÅĤaciÅĤem": 4320,
      "ĠÅĽwiatÅĤa": 4321,
      "Ġnajlepszy": 4322,
      "Ġotwarty": 4323,
      "ĠÅĽmierdzi": 4324,
      "bÄĻdzie": 4325,
      "ĠÅ¼onÄĻ": 4326,
      "Ġciasta": 4327,
      "Ġlepsze": 4328,
      "ĠnapiÄĩ": 4329,
      "Ġnapisa": 4330,
      "ĠwyjechaÄĩ": 4331,
      "ĠpokaÅ¼ÄĻ": 4332,
      "ĠrobotÄĻ": 4333,
      "Ġkina": 4334,
      "ĠgÅĤupia": 4335,
      "Ġhistoria": 4336,
      "ĠsÅĤoÅĦca": 4337,
      "ĠwygraÄĩ": 4338,
      "cjon": 4339,
      "Ġsilny": 4340,
      "Ġboisz": 4341,
      "Ġwierzysz": 4342,
      "ĠuÅĽmiechnÄħÅĤ": 4343,
      "Ġbibliotece": 4344,
      "mencie": 4345,
      "ĠwalczyÄĩ": 4346,
      "Ġfirmy": 4347,
      "ĠmÄħdry": 4348,
      "Ġbudynku": 4349,
      "Ġniewinny": 4350,
      "ĠchcieÄĩ": 4351,
      "ĠopuÅĽciÅĤ": 4352,
      "ĠwspaniaÅĤy": 4353,
      "Ġsekret": 4354,
      "Ġspotyka": 4355,
      "Ġseku": 4356,
      "ĠzagraÄĩ": 4357,
      "ĠstolicÄħ": 4358,
      "Ġkamie": 4359,
      "ĠprzyjÄĻciu": 4360,
      "ĠwyobraziÄĩ": 4361,
      "Ġsklepu": 4362,
      "Ġkompletnie": 4363,
      "ĠodjeÅ¼dÅ¼a": 4364,
      "Ġlotnisko": 4365,
      "ĠznoszÄĻ": 4366,
      "Ġtwierdzi": 4367,
      "Ġpunktual": 4368,
      "ganiz": 4369,
      "ĠÅĽredniej": 4370,
      "Ġpowietrza": 4371,
      "Ġhumo": 4372,
      "Ġsupermark": 4373,
      "Ġformularz": 4374,
      "Ġdrinka": 4375,
      "Ġwujek": 4376,
      "Ġpodekscy": 4377,
      "ada": 4378,
      "ju": 4379,
      "kÃ³ÅĤ": 4380,
      "maÅĤ": 4381,
      "mowaÄĩ": 4382,
      "ot": 4383,
      "onego": 4384,
      "pÅĤa": 4385,
      "towÄħ": 4386,
      "wÃ³rz": 4387,
      "Ġtrw": 4388,
      "Ġswego": 4389,
      "ĠzÅĤym": 4390,
      "Ġzoo": 4391,
      "Ġcent": 4392,
      "Ġniesie": 4393,
      "Ġpoin": 4394,
      "Ġpobiera": 4395,
      "Ġjedz": 4396,
      "Ġjesz": 4397,
      "szpa": 4398,
      "szcza": 4399,
      "Ġdi": 4400,
      "ĠdaÅĤeÅĽ": 4401,
      "Ġorze": 4402,
      "zek": 4403,
      "Ġnaszych": 4404,
      "nienia": 4405,
      "niliÅĽmy": 4406,
      "ard": 4407,
      "Ġdoda": 4408,
      "Ġdocze": 4409,
      "chem": 4410,
      "dziemy": 4411,
      "dziesiÄħ": 4412,
      "wiaÄĩ": 4413,
      "czce": 4414,
      "koÅĤa": 4415,
      "Ġteor": 4416,
      "Ġwyzd": 4417,
      "Ġigno": 4418,
      "czyÅĤo": 4419,
      "dysku": 4420,
      "ĠgraÅĤem": 4421,
      "Ġczyj": 4422,
      "Ġprzestra": 4423,
      "Ġprzedysku": 4424,
      "cier": 4425,
      "ĠspaÅĤem": 4426,
      "Ġprzyczy": 4427,
      "tale": 4428,
      "Ġkoszy": 4429,
      "ĠmÃ³c": 4430,
      "ĠtysiÄħ": 4431,
      "Ġcza": 4432,
      "Ġpowietrze": 4433,
      "ĠÅĽwia": 4434,
      "ĠÅĽwiÄħ": 4435,
      "mij": 4436,
      "Ġwil": 4437,
      "Ġgor": 4438,
      "ĠbyÅĤby": 4439,
      "Ġtakich": 4440,
      "Ġrozumi": 4441,
      "rucho": 4442,
      "Ġpanu": 4443,
      "Ġspokoju": 4444,
      "prawie": 4445,
      "ĠznajÄħ": 4446,
      "Ġznacznie": 4447,
      "Ġkub": 4448,
      "Ġpiecho": 4449,
      "ĠpielÄĻ": 4450,
      "glÄħd": 4451,
      "ĠczeÅĽÄĩ": 4452,
      "ĠczekaÅĤ": 4453,
      "ĠlubiÅĤ": 4454,
      "ĠwoÅĤ": 4455,
      "Ġtanie": 4456,
      "Ġham": 4457,
      "ĠÅ¼ony": 4458,
      "Ġnogi": 4459,
      "ĠbiaÅĤe": 4460,
      "Ġlistu": 4461,
      "ĠlistÄĻ": 4462,
      "Ġzostali": 4463,
      "ĠszkoÅĤÄĻ": 4464,
      "Ġrodzicami": 4465,
      "Ġplane": 4466,
      "Ġlekcji": 4467,
      "Ġlekcje": 4468,
      "Ġgodzinie": 4469,
      "Ġotwie": 4470,
      "ĠotwÃ³rz": 4471,
      "ĠpewnoÅĽciÄħ": 4472,
      "Ġsia": 4473,
      "ĠpamiÄĻÄĩ": 4474,
      "Ġsamochod": 4475,
      "ĠsamochodÃ³w": 4476,
      "ĠÅĽmieszne": 4477,
      "ĠspÃ³Åºnia": 4478,
      "Ġpary": 4479,
      "ĠgÅĤowie": 4480,
      "Ġzaproszony": 4481,
      "ciÄħgnÄħÅĤ": 4482,
      "ĠjÄĻzykÃ³w": 4483,
      "ĠspÄĻdziÄĩ": 4484,
      "ĠwraÅ¼eniem": 4485,
      "Ġtrak": 4486,
      "Ġtrakt": 4487,
      "Ġposzu": 4488,
      "ĠposzÅĤo": 4489,
      "ĠsprzedaÄĩ": 4490,
      "Ġziem": 4491,
      "Ġzapytaj": 4492,
      "ĠopÅĤa": 4493,
      "Ġopowi": 4494,
      "ĠzapÅĤaciÅĤ": 4495,
      "ĠmÄĻÅ¼czyÅºni": 4496,
      "Ġhiszpa": 4497,
      "Ġmuzyka": 4498,
      "ĠzÅĤodziej": 4499,
      "ĠrozsÄħdny": 4500,
      "ĠrozsÄħdku": 4501,
      "Ġsens": 4502,
      "ĠbÅĤÄĻdzie": 4503,
      "ĠbÅĤÄĻdÃ³w": 4504,
      "Ġpolicjant": 4505,
      "ĠuÅĽmiecha": 4506,
      "ĠjakoÅĽ": 4507,
      "ĠÅ¼onÄħ": 4508,
      "ĠnauczycielkÄħ": 4509,
      "ĠnapisaÅĤem": 4510,
      "Ġbezpieczny": 4511,
      "Ġbezpieczni": 4512,
      "ĠzaÅĤoÅ¼yÄĩ": 4513,
      "Ġulubionym": 4514,
      "000": 4515,
      "Ġczerwony": 4516,
      "Ġzgodzi": 4517,
      "Ġwaru": 4518,
      "Ġdostanie": 4519,
      "Ġokazji": 4520,
      "ĠcierpiÄĻ": 4521,
      "ĠkrÃ³l": 4522,
      "Ġprzygotowany": 4523,
      "Ġzgad": 4524,
      "ĠumyÄĩ": 4525,
      "Ġcukie": 4526,
      "ĠjapoÅĦsku": 4527,
      "ĠpowiedziaÅĤaÅĽ": 4528,
      "Ġniebieski": 4529,
      "Ġkrok": 4530,
      "ĠmÅĤodszy": 4531,
      "ĠzrozumiaÅĤem": 4532,
      "ĠkazaÅĤem": 4533,
      "Ġwiersz": 4534,
      "stÄħpiÅĤ": 4535,
      "ĠwÅĤaÅĽciwie": 4536,
      "Ġkontyne": 4537,
      "Ġkurcz": 4538,
      "ĠuderzyÅĤ": 4539,
      "ĠwysÅĤaÄĩ": 4540,
      "Ġzaopie": 4541,
      "ĠÅĽwiÄĻta": 4542,
      "ĠzdarzyÅĤo": 4543,
      "ĠcenÄĻ": 4544,
      "Ġskarpe": 4545,
      "Ġgarni": 4546,
      "Ġszefem": 4547,
      "Ġkanadyjczy": 4548,
      "ĠzaufaÄĩ": 4549,
      "Ġschodach": 4550,
      "Ġistnieje": 4551,
      "Ġzjednoczonych": 4552,
      "Ġosiem": 4553,
      "ĠwymyÅĽli": 4554,
      "Ġlekarstwo": 4555,
      "Ġbabcia": 4556,
      "Ġdworzec": 4557,
      "ĠemeryturÄĻ": 4558,
      "Ġfotografi": 4559,
      "ĠsamobÃ³jstwo": 4560,
      "Ġzaatak": 4561,
      "ĠbutÃ³w": 4562,
      "Ġpoinfor": 4563,
      "ĠdoczekaÄĩ": 4564,
      "..": 4565,
      ".âĢĿ": 4566,
      "dÅĤo": 4567,
      "ena": 4568,
      "gna": 4569,
      "gÃ³w": 4570,
      "nemu": 4571,
      "paÄĩ": 4572,
      "sjÄĻ": 4573,
      "sÅĤem": 4574,
      "sbo": 4575,
      "wce": 4576,
      "wkÄĻ": 4577,
      "zÅĤoÅĽci": 4578,
      "ÅĤaÄĩ": 4579,
      "Ġtre": 4580,
      "ÄĻÅ¼": 4581,
      "Ġska": 4582,
      "Ġsce": 4583,
      "Ġwrzu": 4584,
      "Ġzmy": 4585,
      "stego": 4586,
      "Ġniemal": 4587,
      "ĠpoÅ¼e": 4588,
      "Ġpochodzi": 4589,
      "szczy": 4590,
      "ĠdÃ³ÅĤ": 4591,
      "Ġdia": 4592,
      "ĠbrÄħz": 4593,
      "Ġofer": 4594,
      "Ġnale": 4595,
      "Ġnawy": 4596,
      "gor": 4597,
      "nice": 4598,
      "ĠsiÄĻgnÄħÅĤ": 4599,
      "Ġzale": 4600,
      "owuje": 4601,
      "Ġdotk": 4602,
      "czam": 4603,
      "cznik": 4604,
      "kom": 4605,
      "koÅĽci": 4606,
      "Ġunika": 4607,
      "wiej": 4608,
      "Ġwypo": 4609,
      "Ġwypra": 4610,
      "ĠwyszedÅĤem": 4611,
      "Ġwybiera": 4612,
      "Ġwybierz": 4613,
      "ĠidÄħ": 4614,
      "kach": 4615,
      "Ġgr": 4616,
      "Ġczyn": 4617,
      "ĠczytaÅĤem": 4618,
      "rzesz": 4619,
      "ĠprzeszedÅĤ": 4620,
      "Ġspali": 4621,
      "Ġprzymie": 4622,
      "Ġprzyzna": 4623,
      "Ġprzyzwyczaj": 4624,
      "ĠprzychodziÄĩ": 4625,
      "ĠkoÅĤo": 4626,
      "Ġoddy": 4627,
      "ĠabyÅĽ": 4628,
      "ĠczÅĤo": 4629,
      "Ġczter": 4630,
      "rzyj": 4631,
      "kuj": 4632,
      "tymi": 4633,
      "Ġmaryn": 4634,
      "szek": 4635,
      "ĠÅĽci": 4636,
      "Ġzrobili": 4637,
      "ĠzrobiÅĤam": 4638,
      "Ġprofe": 4639,
      "Ġprojekt": 4640,
      "portu": 4641,
      "rÃ³Å¼e": 4642,
      "Ġrozwie": 4643,
      "ĠdziesiÄħ": 4644,
      "Ġmogli": 4645,
      "rum": 4646,
      "Ġpij": 4647,
      "Ġmusicie": 4648,
      "chodzÄħ": 4649,
      "tujÄħ": 4650,
      "ĠchciaÅĤeÅĽ": 4651,
      "Ġczasach": 4652,
      "ĠrobiÅĤem": 4653,
      "wej": 4654,
      "west": 4655,
      "gach": 4656,
      "Ġper": 4657,
      "Ġzapali": 4658,
      "Ġzapew": 4659,
      "ĠwodÄħ": 4660,
      "Ġobwi": 4661,
      "lone": 4662,
      "Ġchocia": 4663,
      "ĠtaÅĦczyÄĩ": 4664,
      "ĠpoznaÅĤem": 4665,
      "Ġstanowi": 4666,
      "niÄĻty": 4667,
      "ĠkupiÅĤaÅĽ": 4668,
      "Ġnajmniej": 4669,
      "Ġnajgor": 4670,
      "ĠaleÅ¼": 4671,
      "Ġznamy": 4672,
      "ĠduÅ¼a": 4673,
      "Ġmieszk": 4674,
      "tkÃ³w": 4675,
      "ĠskÅĤamaÅĤ": 4676,
      "Ġjednej": 4677,
      "ĠbraÄĩ": 4678,
      "Ġstop": 4679,
      "grani": 4680,
      "ĠnauczyÅĤem": 4681,
      "Ġwskaz": 4682,
      "ĠbawiÅĤ": 4683,
      "godne": 4684,
      "stÄĻpu": 4685,
      "Ġpuste": 4686,
      "ĠszczÄĻÅĽliwego": 4687,
      "ĠjapoÅĦczy": 4688,
      "Ġniezd": 4689,
      "ĠspÃ³ÅºniÅĤ": 4690,
      "ĠbÄħdÅºcie": 4691,
      "ĠgÅĤowa": 4692,
      "ĠdwadzieÅĽci": 4693,
      "ĠjÄĻzykiem": 4694,
      "ĠpÅĤacÄħ": 4695,
      "ĠdostaÅĤeÅĽ": 4696,
      "Ġkluczy": 4697,
      "Ġmeto": 4698,
      "ĠpeÅĤni": 4699,
      "ĠchÅĤopakiem": 4700,
      "Ġzaczynam": 4701,
      "ĠurodziÅĤem": 4702,
      "Ġjedyny": 4703,
      "ĠzadaÄĩ": 4704,
      "Ġziemia": 4705,
      "ĠporadziÅĤa": 4706,
      "Ġprzeczytaj": 4707,
      "ĠzasÅĤo": 4708,
      "ĠprzyszedÅĤeÅĽ": 4709,
      "ĠwÅĤoÅ¼yÅĤ": 4710,
      "ĠzÅĤoto": 4711,
      "Ġprowadzi": 4712,
      "ĠspÃ³Åºnisz": 4713,
      "Ġzdecydowanie": 4714,
      "Ġszale": 4715,
      "ĠkotÃ³w": 4716,
      "Ġwstaje": 4717,
      "Ġwspar": 4718,
      "ĠrzuciÄĩ": 4719,
      "ĠzakoÅĦczy": 4720,
      "Ġkrewe": 4721,
      "ĠzobaczyÅĤem": 4722,
      "Ġgruby": 4723,
      "Ġniebezpiecze": 4724,
      "Ġpolitykiem": 4725,
      "ĠcÃ³rki": 4726,
      "ĠÅĽmiaÅĤ": 4727,
      "ĠulicÄĻ": 4728,
      "ĠkrÃ³li": 4729,
      "ĠÅĤadnie": 4730,
      "ĠwiosnÄĻ": 4731,
      "ĠtorbÄĻ": 4732,
      "ĠzauwaÅ¼yÅĤem": 4733,
      "ĠÅĽpiÄħ": 4734,
      "Ġdecyzji": 4735,
      "ziony": 4736,
      "ĠwstaÅĤ": 4737,
      "Ġjasno": 4738,
      "ĠlÃ³d": 4739,
      "ĠkoÅĽciÃ³ÅĤ": 4740,
      "ĠzrozumiaÅĤ": 4741,
      "Ġwojsku": 4742,
      "ĠmÄĻÅ¼czyznÄħ": 4743,
      "ĠprzeziÄĻbie": 4744,
      "Ġfakty": 4745,
      "Ġzabawne": 4746,
      "ĠdruÅ¼yna": 4747,
      "ĠpajÄħki": 4748,
      "Ġdoceniam": 4749,
      "ĠpogadaÄĩ": 4750,
      "Ġmatematyki": 4751,
      "ĠoÅ¼eniÄĩ": 4752,
      "Ġzasady": 4753,
      "Ġjajka": 4754,
      "ĠpoÅĽpiesz": 4755,
      "Ġzamiaru": 4756,
      "Ġnerw": 4757,
      "ĠzniknÄħÅĤ": 4758,
      "Ġzakochany": 4759,
      "ĠupewniÄĩ": 4760,
      "Ġbaseball": 4761,
      "Ġnorma": 4762,
      "Ġzebranie": 4763,
      "ĠsiÃ³dmej": 4764,
      "ĠwyjaÅĽnienie": 4765,
      "Ġzdenerwowany": 4766,
      "Ġcukru": 4767,
      "ĠskontaktowaÄĩ": 4768,
      "Ġnieprzy": 4769,
      "Ġprocent": 4770,
      "Ġpowiedziano": 4771,
      "Ġpistolet": 4772,
      "Ġledwo": 4773,
      "Ġprysznic": 4774,
      "ĠkÄħpie": 4775,
      "Ġsypial": 4776,
      "Ġklie": 4777,
      "Ġpiknik": 4778,
      "Ġjackson": 4779,
      "Ġbejsbo": 4780,
      "Ġsupermarke": 4781,
      "ĠpielÄĻgni": 4782,
      "Ġcukier": 4783,
      "Ġgarnitu": 4784,
      "ĠchociaÅ¼": 4785,
      "ĠdwadzieÅĽcia": 4786,
      "kli": 4787,
      "kry": 4788,
      "kcyj": 4789,
      "lak": 4790,
      "lnej": 4791,
      "ngu": 4792,
      "nkÄħ": 4793,
      "onÄħ": 4794,
      "pkÄĻ": 4795,
      "rwaÄĩ": 4796,
      "spi": 4797,
      "trud": 4798,
      "wszy": 4799,
      "zu": 4800,
      "zne": 4801,
      "Ġ4": 4802,
      "ÅĤÃ³Å¼": 4803,
      "Ġtrwa": 4804,
      "Ġnud": 4805,
      "Ġwami": 4806,
      "Ġzor": 4807,
      "ĠzÅĤamaÅĤ": 4808,
      "stÃ³w": 4809,
      "stami": 4810,
      "ÅĽrÃ³d": 4811,
      "Å¼ki": 4812,
      "Å¼Äħd": 4813,
      "Ġniedo": 4814,
      "Ġpol": 4815,
      "Ġponi": 4816,
      "Ġporan": 4817,
      "Ġpolubi": 4818,
      "ĠporÃ³w": 4819,
      "Äħz": 4820,
      "szÅĤo": 4821,
      "rach": 4822,
      "Ġogie": 4823,
      "Ġograni": 4824,
      "Ġkry": 4825,
      "ĠnapeÅĤ": 4826,
      "Ġzanie": 4827,
      "chaÅĤeÅĽ": 4828,
      "ĠprÄħd": 4829,
      "dzieÅ¼": 4830,
      "leg": 4831,
      "cili": 4832,
      "Ġmomencie": 4833,
      "Ġugry": 4834,
      "Ġgrzy": 4835,
      "Ġprzet": 4836,
      "Ġprzerw": 4837,
      "cielem": 4838,
      "ĠspeÅĤ": 4839,
      "Ġprzyd": 4840,
      "Ġmatce": 4841,
      "szysz": 4842,
      "ĠkochaÄĩ": 4843,
      "ĠoddaÅĤ": 4844,
      "ĠodwrÃ³": 4845,
      "Ġali": 4846,
      "tywny": 4847,
      "ÅĤych": 4848,
      "Å¼yÅĤeÅĽ": 4849,
      "Ġprosi": 4850,
      "piÅĤ": 4851,
      "piÄĩ": 4852,
      "pisy": 4853,
      "Ġwide": 4854,
      "ĠwidaÄĩ": 4855,
      "ĠmyÅĽle": 4856,
      "ĠrozwaÅ¼": 4857,
      "Ġpodwi": 4858,
      "Ġfan": 4859,
      "ĠpaÅĦ": 4860,
      "owanego": 4861,
      "Ġpotrwa": 4862,
      "ĠmÃ³wimy": 4863,
      "ĠlewÄħ": 4864,
      "Ġprawnikiem": 4865,
      "amiÄħ": 4866,
      "Ġgdziekolwiek": 4867,
      "Ġlubimy": 4868,
      "Ġwojny": 4869,
      "ÅĽniej": 4870,
      "Ġpozn": 4871,
      "Ġstaje": 4872,
      "Ġstacja": 4873,
      "Ġzamy": 4874,
      "ĠkupiÅĤam": 4875,
      "ĠbiaÅĤ": 4876,
      "Ġskom": 4877,
      "Ġlin": 4878,
      "Ġlite": 4879,
      "ĠgraliÅĽmy": 4880,
      "Ġnauki": 4881,
      "Ġznak": 4882,
      "pada": 4883,
      "suje": 4884,
      "niejsza": 4885,
      "ĠskÅĤo": 4886,
      "ĠskrÄĻ": 4887,
      "Ġdal": 4888,
      "ĠdÅĤuÅ¼": 4889,
      "ĠpiÄĻt": 4890,
      "ĠpiÄĻciu": 4891,
      "ĠwrÃ³Äĩ": 4892,
      "ĠsiedzieÄĩ": 4893,
      "Ġjutra": 4894,
      "Ġjakiej": 4895,
      "ĠwzglÄĻ": 4896,
      "stym": 4897,
      "styczny": 4898,
      "Ġjedzeniem": 4899,
      "Ġnadziei": 4900,
      "ĠÅĽwieÅ¼e": 4901,
      "Ġpewne": 4902,
      "ĠpomysÅĤy": 4903,
      "Ġbana": 4904,
      "Ġbater": 4905,
      "ĠbagaÅ¼": 4906,
      "ĠstraciÅĤem": 4907,
      "Ġelekt": 4908,
      "Ġostate": 4909,
      "ĠrybÄĻ": 4910,
      "ĠwyjÅĽcie": 4911,
      "ĠwyjdÅº": 4912,
      "ĠzapomnÄĻ": 4913,
      "Ġwolniej": 4914,
      "rzÄħt": 4915,
      "Ġnowym": 4916,
      "Ġbierz": 4917,
      "wari": 4918,
      "ĠspotkaÅĤ": 4919,
      "ĠcaÅĤym": 4920,
      "Ġlody": 4921,
      "Ġtygodnia": 4922,
      "ĠumÃ³": 4923,
      "ĠpÅĤacze": 4924,
      "Ġobiec": 4925,
      "Ġautobusu": 4926,
      "ĠchÅĤopcem": 4927,
      "Ġcelu": 4928,
      "Ġtenis": 4929,
      "ĠostatniÄħ": 4930,
      "ĠdziaÅĤaÄĩ": 4931,
      "Ġnaszego": 4932,
      "ĠpiÅĤki": 4933,
      "Ġzdrowia": 4934,
      "ĠzastanawiaÅĤ": 4935,
      "szono": 4936,
      "ĠpomysÅĤÃ³w": 4937,
      "ĠpoÅ¼yczyÅĤ": 4938,
      "ĠwyglÄħdam": 4939,
      "ĠwyglÄħdaÅĤa": 4940,
      "Ġwygry": 4941,
      "ĠsprawdÅº": 4942,
      "ĠgÃ³rze": 4943,
      "ĠzdecydowaÅĤem": 4944,
      "Ġdzwoni": 4945,
      "Ġuczniem": 4946,
      "Ġkolejne": 4947,
      "Ġpoczeka": 4948,
      "Ġbezpiecze": 4949,
      "Ġbezpiecznie": 4950,
      "puÅĽciÄĩ": 4951,
      "ĠpÅĤakaÅĤa": 4952,
      "ĠbliÅ¼ej": 4953,
      "Ġkredy": 4954,
      "ĠwyjeÅ¼dÅ¼": 4955,
      "Ġzagro": 4956,
      "ĠzÅĤapaÅĤ": 4957,
      "ĠzwierzÄħt": 4958,
      "Ġszansa": 4959,
      "Ġzaczekaj": 4960,
      "ĠudawaÅĤ": 4961,
      "ĠspytaÄĩ": 4962,
      "Ġserca": 4963,
      "ĠgÅĤupio": 4964,
      "ĠweÅºmie": 4965,
      "ĠstudiowaÄĩ": 4966,
      "Ġgazety": 4967,
      "Ġufam": 4968,
      "Ġsmut": 4969,
      "ĠostroÅ¼nie": 4970,
      "Ġdrzewo": 4971,
      "Ġuczulony": 4972,
      "Ġnazwiska": 4973,
      "Ġtajemnicy": 4974,
      "Ġwracam": 4975,
      "Ġdecyzja": 4976,
      "Ġszukasz": 4977,
      "Ġjasne": 4978,
      "ĠwyjaÅĽniÄĩ": 4979,
      "ĠwyjaÅĽniÅĤ": 4980,
      "ĠpudeÅĤku": 4981,
      "Ġsukienka": 4982,
      "Ġochoty": 4983,
      "Ġwielkim": 4984,
      "Ġprzeszkadza": 4985,
      "Ġspodnie": 4986,
      "ÅĦskim": 4987,
      "ĠdoÅĽwiadczenia": 4988,
      "ĠszczegÃ³ÅĤ": 4989,
      "Ġinformacji": 4990,
      "ĠwspÃ³ÅĤpra": 4991,
      "Ġekspe": 4992,
      "ĠpocztÄĻ": 4993,
      "Ġobecnie": 4994,
      "ĠuczniÃ³w": 4995,
      "Ġzatrzymaj": 4996,
      "ĠÅĽcianie": 4997,
      "ĠokolicznoÅĽci": 4998,
      "Ġwarzywa": 4999,
      "Ġpomimo": 5000,
      "Ġwynalaz": 5001,
      "ĠzginÄħÅĤ": 5002,
      "ĠkwiatÃ³w": 5003,
      "ĠwalizkÄĻ": 5004,
      "Ġareszt": 5005,
      "ĠÅ¼oÅĤnierze": 5006,
      "Ġabso": 5007,
      "ĠsobotÄĻ": 5008,
      "ĠdojÅĽÄĩ": 5009,
      "ĠpoÅĽwiÄĻ": 5010,
      "Ġdrugiej": 5011,
      "Ġprzyzwyczai": 5012,
      "ĠchÄĻtnie": 5013,
      "ĠfiliÅ¼ankÄĻ": 5014,
      "ĠpatrzÄħ": 5015,
      "ĠkomÃ³rk": 5016,
      "Ġprezyden": 5017,
      "ĠnagrodÄĻ": 5018,
      "Ġharv": 5019,
      "Ġinteligent": 5020,
      "ĠdziewiÄħtej": 5021,
      "Ġenergii": 5022,
      "Ġzamiast": 5023,
      "Ġnaczynia": 5024,
      "Ġpodekscytowany": 5025,
      "Ġcentrum": 5026,
      "ĠogieÅĦ": 5027,
      "aÅĽ": 5028,
      "dowi": 5029,
      "dowany": 5030,
      "gniony": 5031,
      "laÅĤa": 5032,
      "ndu": 5033,
      "okoÅĤa": 5034,
      "prz": 5035,
      "rg": 5036,
      "reÅĽ": 5037,
      "rpi": 5038,
      "sja": 5039,
      "twa": 5040,
      "try": 5041,
      "ĠÅĤo": 5042,
      "Ġtaj": 5043,
      "Ġmek": 5044,
      "ĠwszedÅĤem": 5045,
      "Ġzbli": 5046,
      "Ġzbieg": 5047,
      "ĠzÄħb": 5048,
      "Ġzwari": 5049,
      "Å¼Äħ": 5050,
      "Å¼ona": 5051,
      "Ġnieczy": 5052,
      "Ġniemiec": 5053,
      "Ġporze": 5054,
      "Ġjemy": 5055,
      "szny": 5056,
      "Ġokiem": 5057,
      "Ġopera": 5058,
      "Ġkwa": 5059,
      "Ġnazy": 5060,
      "Ġdogo": 5061,
      "ĠdotrzeÄĩ": 5062,
      "ĠdookoÅĤa": 5063,
      "widÅĤ": 5064,
      "leciaÅĤ": 5065,
      "ciÅĤeÅĽ": 5066,
      "czkÄħ": 5067,
      "Ġchmu": 5068,
      "ĠwytrzymaÄĩ": 5069,
      "Ġilo": 5070,
      "ĠwieÅĽci": 5071,
      "Ġspu": 5072,
      "luz": 5073,
      "ĠmatkÄħ": 5074,
      "Ġmarch": 5075,
      "Ġodwa": 5076,
      "Ġatra": 5077,
      "tora": 5078,
      "szenia": 5079,
      "ÅĤyÅĽcie": 5080,
      "ĠÅĽru": 5081,
      "ĠÅĽwiad": 5082,
      "ĠzrobiÅĤaÅĽ": 5083,
      "rego": 5084,
      "redny": 5085,
      "min": 5086,
      "Ġwidzenia": 5087,
      "Ġgospo": 5088,
      "ĠtakÄħ": 5089,
      "Ġrozwi": 5090,
      "Ġrozwo": 5091,
      "Ġdzien": 5092,
      "ĠmogÅĤeÅĽ": 5093,
      "Ġpodpis": 5094,
      "Ġfryz": 5095,
      "ruje": 5096,
      "ÅĽciu": 5097,
      "mujÄĻ": 5098,
      "owaj": 5099,
      "Ġkiep": 5100,
      "Ġkapu": 5101,
      "Ġdziu": 5102,
      "Ġlesie": 5103,
      "Ġjajek": 5104,
      "turze": 5105,
      "tury": 5106,
      "dzeniem": 5107,
      "gan": 5108,
      "Ġindziej": 5109,
      "Ġinten": 5110,
      "lon": 5111,
      "ĠchoÄĩ": 5112,
      "ĠstacjÄĻ": 5113,
      "stola": 5114,
      "ĠboÅ¼e": 5115,
      "ĠpotrzebujÄħ": 5116,
      "ciÄħÅĤ": 5117,
      "ĠduÅ¼Äħ": 5118,
      "ĠwyglÄħdajÄħ": 5119,
      "Ġauta": 5120,
      "ĠtroszkÄĻ": 5121,
      "Ġplany": 5122,
      "Ġspragniony": 5123,
      "Ġrzeka": 5124,
      "Ġrzece": 5125,
      "Ġsufi": 5126,
      "czach": 5127,
      "Ġstarsza": 5128,
      "Ġwspom": 5129,
      "Ġang": 5130,
      "skim": 5131,
      "ĠpamiÄĻtni": 5132,
      "ĠpamiÄĻtaÅĤ": 5133,
      "com": 5134,
      "ĠuÅ¼ywam": 5135,
      "ĠpiÄĻknÄħ": 5136,
      "Ġognia": 5137,
      "Ġpracujemy": 5138,
      "dech": 5139,
      "ĠmÅĤodo": 5140,
      "Ġniezbyt": 5141,
      "Ġbiedny": 5142,
      "ĠgÅĤowÄħ": 5143,
      "ĠgÅĤowÄĻ": 5144,
      "ĠsÅĤyszaÅĤ": 5145,
      "Ġlondy": 5146,
      "ĠchÅĤopca": 5147,
      "Ġ18": 5148,
      "ĠpotrzebowaÅĤem": 5149,
      "Ġtrafi": 5150,
      "Ġminuty": 5151,
      "ĠziemiÄĻ": 5152,
      "ĠprzeczytaÅĤ": 5153,
      "ĠprzyjechaÅĤem": 5154,
      "Ġuczysz": 5155,
      "ĠuczyÅĤem": 5156,
      "Ġzdrowo": 5157,
      "ĠÅĤatwiej": 5158,
      "Ġkanapie": 5159,
      "Ġdziwnie": 5160,
      "ĠzaczÄĻli": 5161,
      "ĠponiedziaÅĤki": 5162,
      "ĠchodziÅĤo": 5163,
      "ĠwygÅĤo": 5164,
      "ĠÅĽniegu": 5165,
      "ĠrozsÄħdna": 5166,
      "ĠspÃ³Åºniony": 5167,
      "Ġwielka": 5168,
      "ĠznajdÄĻ": 5169,
      "Ġpogody": 5170,
      "Ġszacu": 5171,
      "Ġakura": 5172,
      "Ġaktor": 5173,
      "Ġszczerze": 5174,
      "dÅĤuÅ¼": 5175,
      "Ġbrudna": 5176,
      "ĠpodobaÅĤo": 5177,
      "ĠmiesiÄħc": 5178,
      "ĠÅĤÃ³Å¼ko": 5179,
      "ĠciÄħgu": 5180,
      "ĠjabÅĤek": 5181,
      "ĠniektÃ³re": 5182,
      "ĠzmieniÅĤo": 5183,
      "Ġpiosenki": 5184,
      "ĠwyjechaÅĤ": 5185,
      "ĠwyjeÅ¼dÅ¼a": 5186,
      "ĠdziesiÄĻciu": 5187,
      "Ġwarte": 5188,
      "Ġcierpi": 5189,
      "ĠwÅĤasne": 5190,
      "krotnie": 5191,
      "ĠrÃ³Å¼nica": 5192,
      "ĠpomyÅĽleÄĩ": 5193,
      "ĠpojawiÅĤ": 5194,
      "Ġczytanie": 5195,
      "Ġzostaniesz": 5196,
      "Ġdobranoc": 5197,
      "ĠinteresujÄħce": 5198,
      "Ġdwoje": 5199,
      "Ġkolek": 5200,
      "ĠtÄĻskniÄĻ": 5201,
      "Ġniebieskie": 5202,
      "Ġprzekonany": 5203,
      "ĠrozpoczÄĻ": 5204,
      "Ġbanku": 5205,
      "ĠprzeszkadzaÄĩ": 5206,
      "ÅĽmiaÅĤ": 5207,
      "Ġniewin": 5208,
      "ĠokularÃ³w": 5209,
      "Ġchcieli": 5210,
      "ĠprzybyÅĤ": 5211,
      "ĠspojrzaÅĤ": 5212,
      "ĠpociÄħgiem": 5213,
      "ĠpÃ³jdziemy": 5214,
      "kÅĤadu": 5215,
      "Ġkomputera": 5216,
      "Ġpopatrzy": 5217,
      "Ġowoc": 5218,
      "ĠjakiegoÅĽ": 5219,
      "ĠzapamiÄĻtaÄĩ": 5220,
      "Ġsekretar": 5221,
      "ĠparasolkÄĻ": 5222,
      "ĠwycieczkÄĻ": 5223,
      "Ġimieniu": 5224,
      "Ġspokojnie": 5225,
      "ĠodkryÅĤ": 5226,
      "Ġsmakuje": 5227,
      "Ġsklepie": 5228,
      "Ġaresztowany": 5229,
      "ĠodrobinÄĻ": 5230,
      "ĠuspokÃ³j": 5231,
      "Ġznajomych": 5232,
      "ĠmoÅ¼liwoÅĽci": 5233,
      "ĠpizzÄĻ": 5234,
      "ĠmaÅĤÅ¼eÅĦstwem": 5235,
      "ĠdotarÅĤ": 5236,
      "ĠbiorÄĻ": 5237,
      "ĠwspÃ³lnego": 5238,
      "Ġobietnicy": 5239,
      "Ġurlop": 5240,
      "Ġuniwersytet": 5241,
      "ĠdowÃ³d": 5242,
      "Ġniespodzian": 5243,
      "Ġwybrany": 5244,
      "Ġzazdrosny": 5245,
      "Ġliceum": 5246,
      "ĠÅĽwiadomy": 5247,
      "ĠnieszczÄĻÅĽliwy": 5248,
      "Ġpaszport": 5249,
      "prawiedli": 5250,
      "Ġprofes": 5251,
      "Ġmeksy": 5252,
      "Ġgospod": 5253,
      "Ġakurat": 5254,
      "be": 5255,
      "bry": 5256,
      "ber": 5257,
      "dami": 5258,
      "era": 5259,
      "gÃ³": 5260,
      "gnie": 5261,
      "gim": 5262,
      "krÄĻ": 5263,
      "lÄħd": 5264,
      "lowe": 5265,
      "oni": 5266,
      "spe": 5267,
      "waÅĤo": 5268,
      "wamy": 5269,
      "Ġ6": 5270,
      "Ġ7": 5271,
      "Ġ8": 5272,
      "ĠrzÄħ": 5273,
      "Ġpli": 5274,
      "Ġsma": 5275,
      "Ġsnu": 5276,
      "Ġwsi": 5277,
      "Ġwprowa": 5278,
      "Ġwstrzy": 5279,
      "ĠwÅĤamaÅĤ": 5280,
      "ĠwÅĽrÃ³d": 5281,
      "Ġznisz": 5282,
      "Ġtole": 5283,
      "Ġjor": 5284,
      "stni": 5285,
      "stru": 5286,
      "ÅĽlÄĻ": 5287,
      "Ġniecier": 5288,
      "Ġpobi": 5289,
      "Ġpobra": 5290,
      "szko": 5291,
      "sztaÅĤ": 5292,
      "ĠbÅĤa": 5293,
      "Ġbla": 5294,
      "Ġbrzy": 5295,
      "Ġben": 5296,
      "Ġblo": 5297,
      "Ã³dÅº": 5298,
      "emo": 5299,
      "Ġnaszy": 5300,
      "Ġzaan": 5301,
      "ĠzawiÄħ": 5302,
      "Ġzapomina": 5303,
      "Ġzastrze": 5304,
      "Ġdomy": 5305,
      "Ġdotrze": 5306,
      "chÅĽ": 5307,
      "chnÄħÅĤ": 5308,
      "Ġul": 5309,
      "Ġuto": 5310,
      "Ġupie": 5311,
      "Ġusu": 5312,
      "Ġutk": 5313,
      "Ġugot": 5314,
      "Ġupar": 5315,
      "wiet": 5316,
      "Ġwym": 5317,
      "ĠwyÅĽli": 5318,
      "ĠwyraÅº": 5319,
      "ĠwylÄħd": 5320,
      "byÄĩ": 5321,
      "ĠgÄĻ": 5322,
      "Ġczyje": 5323,
      "ĠwierzÄħ": 5324,
      "land": 5325,
      "Ġprzega": 5326,
      "Ġprzegra": 5327,
      "Ġprzeczu": 5328,
      "cieÄĩ": 5329,
      "Ġspry": 5330,
      "ĠprzysÅĤu": 5331,
      "Ġniczym": 5332,
      "Ġkonia": 5333,
      "Ġodez": 5334,
      "Ġoddzwo": 5335,
      "ĠodÅĤoÅ¼yÅĤ": 5336,
      "rzony": 5337,
      "Åºle": 5338,
      "tywa": 5339,
      "ĠpowieÅĽci": 5340,
      "jÄħÅĤem": 5341,
      "jÄħcÄħ": 5342,
      "Å¼yÅĤam": 5343,
      "ĠÅĽmiali": 5344,
      "ĠzrobiÄħ": 5345,
      "ĠludÅº": 5346,
      "ĠprosiÅĤem": 5347,
      "Ġstre": 5348,
      "Ġstwier": 5349,
      "Ġranka": 5350,
      "ĠtakÅ¼e": 5351,
      "Ġtakim": 5352,
      "Ġsame": 5353,
      "ĠpodaÅĤ": 5354,
      "Ġtury": 5355,
      "ĠzostaÅĤeÅĽ": 5356,
      "nujÄĻ": 5357,
      "Ġzespo": 5358,
      "Ġpieszo": 5359,
      "glÄħda": 5360,
      "Ġsamotny": 5361,
      "nÄĻliÅĽmy": 5362,
      "Ġobowi": 5363,
      "ĠobsÅĤu": 5364,
      "ĠinnÄħ": 5365,
      "lonego": 5366,
      "ĠchodzÄħ": 5367,
      "Ġhan": 5368,
      "Ġstadio": 5369,
      "sach": 5370,
      "Ġzamor": 5371,
      "Ġboha": 5372,
      "Ġbizne": 5373,
      "ĠliÅĽcie": 5374,
      "Ġnauka": 5375,
      "ĠnaukÄĻ": 5376,
      "Ġbezdo": 5377,
      "ĠmieszkaÅĤem": 5378,
      "syw": 5379,
      "Ġskra": 5380,
      "ĠskÅĤam": 5381,
      "trzymuje": 5382,
      "ĠrodzinÄħ": 5383,
      "Ġrodzicom": 5384,
      "ĠpiÄĻtrze": 5385,
      "ĠplaÅ¼ÄĻ": 5386,
      "Ġweso": 5387,
      "ĠwzdÅĤuÅ¼": 5388,
      "ĠwzgÃ³": 5389,
      "Ġojczy": 5390,
      "skoczyÅĤ": 5391,
      "ĠczÄĻÅĽÄĩ": 5392,
      "Ġrozmawiam": 5393,
      "Ġwczes": 5394,
      "ĠstoÅĤu": 5395,
      "Ġstopy": 5396,
      "Ġstare": 5397,
      "Ġreli": 5398,
      "Ġregu": 5399,
      "col": 5400,
      "Ġgotowe": 5401,
      "ĠskoÅĦczyÅĤeÅĽ": 5402,
      "Ġpuka": 5403,
      "Ġwyjdzie": 5404,
      "Ġniezad": 5405,
      "ĠspotkaÅĤeÅĽ": 5406,
      "Ġtakiej": 5407,
      "Ġzaprosi": 5408,
      "Ġzaproszeni": 5409,
      "Ġszufla": 5410,
      "Ġobiedzie": 5411,
      "Ġklubu": 5412,
      "ĠsÅĤody": 5413,
      "ĠÅ¼adne": 5414,
      "ĠÅ¼adnej": 5415,
      "ĠpowinniÅĽcie": 5416,
      "Ġpotrzebny": 5417,
      "ĠzmÄĻczeni": 5418,
      "Ġsiostrze": 5419,
      "ĠdziaÅĤo": 5420,
      "ĠgÅĤup": 5421,
      "Ġsprzed": 5422,
      "Ġostry": 5423,
      "Ġoptymi": 5424,
      "ĠzachowaÄĩ": 5425,
      "Ġzachowy": 5426,
      "ĠpokazaÅĤa": 5427,
      "Ġkobiet": 5428,
      "pliwoÅĽci": 5429,
      "ĠnastÄĻpnego": 5430,
      "Ġimpreza": 5431,
      "Ġnajlepsza": 5432,
      "ĠbÅĤÄĻdu": 5433,
      "Ġrowerem": 5434,
      "Ġciekawy": 5435,
      "ĠskoÅĦcz": 5436,
      "Ġpodobny": 5437,
      "Ġkrzyw": 5438,
      "Ġpiosenka": 5439,
      "ĠnoÅ¼nej": 5440,
      "ĠzgodziÅĤ": 5441,
      "ĠzÅĤapaÅĤem": 5442,
      "ĠdostanÄĻ": 5443,
      "ĠudawaÄĩ": 5444,
      "ĠwÅĤasny": 5445,
      "ĠrÃ³Å¼ne": 5446,
      "ĠcÃ³rkÄĻ": 5447,
      "ĠkrÃ³tki": 5448,
      "ĠpocaÅĤowaÄĩ": 5449,
      "Ġokropny": 5450,
      "Ġinnymi": 5451,
      "ĠsÅĤuchasz": 5452,
      "ĠoglÄħdam": 5453,
      "Ġtorba": 5454,
      "Ġidziemy": 5455,
      "Ġprawdziwe": 5456,
      "Ġsamolotem": 5457,
      "ĠtajemnicÄĻ": 5458,
      "Ġwracaj": 5459,
      "ĠwstaÅĤem": 5460,
      "Ġsukcesu": 5461,
      "Ġlam": 5462,
      "Ġogrom": 5463,
      "ĠkoszulÄĻ": 5464,
      "Ġspojrze": 5465,
      "Ġprzeprosi": 5466,
      "Ġzabro": 5467,
      "Ġhotel": 5468,
      "ĠposprzÄħtaÄĩ": 5469,
      "Ġskrzyp": 5470,
      "ĠwspaniaÅĤe": 5471,
      "Ġnartach": 5472,
      "ĠzjedliÅĽmy": 5473,
      "ĠpoczÄħtek": 5474,
      "walifi": 5475,
      "ĠsÅĤownika": 5476,
      "Ġuczniowie": 5477,
      "ĠzraniÄĩ": 5478,
      "ĠcierpliwoÅĽci": 5479,
      "Ġprzewodni": 5480,
      "Ġchoroby": 5481,
      "Ġwalizki": 5482,
      "Ġwzrok": 5483,
      "Ġpospiesz": 5484,
      "ĠzwierzÄĻta": 5485,
      "ĠodjechaÅĤ": 5486,
      "ĠtaksÃ³wkÄĻ": 5487,
      "Ġinternet": 5488,
      "Ġuspokoi": 5489,
      "ĠpomyÅĽlaÅĤem": 5490,
      "Ġdotykaj": 5491,
      "ĠbÃ³g": 5492,
      "Ġliczba": 5493,
      "ĠwizytÄĻ": 5494,
      "Ġpopularny": 5495,
      "Ġuczestni": 5496,
      "Ã³zÅĤ": 5497,
      "ĠresztÄĻ": 5498,
      "ĠzwiÄħz": 5499,
      "ĠkawaÅĤek": 5500,
      "Ġdentysty": 5501,
      "ĠkosztowaÅĤo": 5502,
      "ĠkrzyczeÄĩ": 5503,
      "ĠtrÃ³jkÄĻ": 5504,
      "Ġaplikacje": 5505,
      "ĠtchÃ³": 5506,
      "ĠodwaÅ¼ny": 5507,
      "Ġfinans": 5508,
      "dziesiÄħt": 5509,
      "ĠtysiÄħce": 5510,
      "Ġpoinform": 5511,
      "Ġniezdrowe": 5512,
      "ĠkÄħpiel": 5513,
      "Ġsupermarkecie": 5514,
      "Ġgarnitur": 5515,
      "Ġlincol": 5516,
      "Ġlitera": 5517,
      "Ġabsolu": 5518,
      "ĠzbliÅ¼a": 5519,
      "ĠzaangaÅ¼": 5520,
      "ĠludÅºmi": 5521,
      "50": 5522,
      "dÅĤy": 5523,
      "gnÄħÄĩ": 5524,
      "icho": 5525,
      "kowane": 5526,
      "liÄĻ": 5527,
      "oÅĤ": 5528,
      "wu": 5529,
      "wka": 5530,
      "zo": 5531,
      "ĠpsÃ³w": 5532,
      "ĠsaÅĤa": 5533,
      "Ġskaza": 5534,
      "Ġwchodzi": 5535,
      "Ġzni": 5536,
      "ster": 5537,
      "ĠcaÅĤa": 5538,
      "dzaÅĤ": 5539,
      "Ġniewy": 5540,
      "ĠnieÅºle": 5541,
      "Ġpoj": 5542,
      "Ġpop": 5543,
      "Ġpory": 5544,
      "Ġpoba": 5545,
      "Ġpogra": 5546,
      "ĠpokÅĤad": 5547,
      "Ġposiad": 5548,
      "ĠpojÄĻcie": 5549,
      "ĠjedÅº": 5550,
      "ĠbÅĤo": 5551,
      "ĠbaÅĤem": 5552,
      "ĠbaÅĤa": 5553,
      "Ġbaj": 5554,
      "Ã³dÅĤ": 5555,
      "rak": 5556,
      "raÅ¼a": 5557,
      "Ġosza": 5558,
      "Ġofi": 5559,
      "Ġoczu": 5560,
      "Ġkryty": 5561,
      "Ġkrwi": 5562,
      "Ġkwest": 5563,
      "Ġnai": 5564,
      "Ġnade": 5565,
      "Ġnastola": 5566,
      "niesi": 5567,
      "niczy": 5568,
      "Ġzapi": 5569,
      "Ġzagi": 5570,
      "ĠzachÄĻ": 5571,
      "ĠzaleÅ¼": 5572,
      "ĠdostÄĻp": 5573,
      "Ġdoprowa": 5574,
      "lia": 5575,
      "liÅĤa": 5576,
      "dziÅĤam": 5577,
      "dziono": 5578,
      "wiliÅĽmy": 5579,
      "lek": 5580,
      "nale": 5581,
      "cznoÅĽÄĩ": 5582,
      "Ġuj": 5583,
      "Ġudzie": 5584,
      "ĠuczÄħ": 5585,
      "Ġuwol": 5586,
      "Ġubezpie": 5587,
      "ĠuszczÄĻÅĽli": 5588,
      "Ġutale": 5589,
      "Ġwyprze": 5590,
      "ĠwybraÄĩ": 5591,
      "ĠwysÅĤu": 5592,
      "ĠwyraziÄĩ": 5593,
      "woka": 5594,
      "Ġimi": 5595,
      "ĠwierzyÄĩ": 5596,
      "Ġprzeg": 5597,
      "ĠprzeÅĤo": 5598,
      "ĠprzeÅ¼yÅĤ": 5599,
      "Ġprzekro": 5600,
      "czeÅĦ": 5601,
      "wajmy": 5602,
      "Ġprzycisk": 5603,
      "tatu": 5604,
      "Ġkos": 5605,
      "ĠodÅĤo": 5606,
      "Ġodsu": 5607,
      "ĠodbÄĻdzie": 5608,
      "Ġatak": 5609,
      "Ġcztere": 5610,
      "rzysz": 5611,
      "rzaÅĤy": 5612,
      "cych": 5613,
      "Å¼yli": 5614,
      "ĠÅĽli": 5615,
      "ĠproÅĽ": 5616,
      "Ġszo": 5617,
      "Ġszczy": 5618,
      "ĠstÃ³j": 5619,
      "ĠwidzÄħ": 5620,
      "Ġramie": 5621,
      "Ġradia": 5622,
      "ĠramiÄĻ": 5623,
      "Ġcio": 5624,
      "ĠciaÅĤa": 5625,
      "ĠbyÅĤbym": 5626,
      "rÃ³Å¼y": 5627,
      "Ġdziedzi": 5628,
      "ĠsÄħsie": 5629,
      "ĠpodszedÅĤ": 5630,
      "Ġpapiero": 5631,
      "ÅĽcio": 5632,
      "ÅĽciÅĤ": 5633,
      "ÅĽciÄħ": 5634,
      "owaniu": 5635,
      "Ġmiej": 5636,
      "Ġmiewa": 5637,
      "owiÄĩ": 5638,
      "Ġpiw": 5639,
      "Ġpotem": 5640,
      "ĠmyÅĽlÄħ": 5641,
      "ĠmyÅĽlaÅĤeÅĽ": 5642,
      "Ġswojemu": 5643,
      "Ġchcecie": 5644,
      "ĠmÃ³wiÅĤa": 5645,
      "Ġleki": 5646,
      "ĠrobiÅĤam": 5647,
      "ĠlubiÅĤem": 5648,
      "Ġzaprze": 5649,
      "ĠwokÃ³ÅĤ": 5650,
      "Ġpotrzeby": 5651,
      "Ġtamtych": 5652,
      "Ġinstru": 5653,
      "ÅĽciej": 5654,
      "Ġchod": 5655,
      "ĠchodziÅĤ": 5656,
      "Ġchodzisz": 5657,
      "Ġtatua": 5658,
      "Ġhas": 5659,
      "ĠpoznaÅĤ": 5660,
      "ĠstanÃ³w": 5661,
      "ĠnoszÄĻ": 5662,
      "ĠnogÄĻ": 5663,
      "mawia": 5664,
      "ĠÅ¼ycz": 5665,
      "ĠbolÄħ": 5666,
      "Ġfrancuskie": 5667,
      "ĠznaÅĤem": 5668,
      "ĠzobaczÄĻ": 5669,
      "Ġmieszkamy": 5670,
      "wiasz": 5671,
      "ĠskÅĤada": 5672,
      "Ġdawno": 5673,
      "chaliÅĽmy": 5674,
      "Ġprzyjdziesz": 5675,
      "ĠprzedsiÄĻ": 5676,
      "Ġprzedmio": 5677,
      "Ġjutrzej": 5678,
      "Ġwzru": 5679,
      "Ġlatem": 5680,
      "Ġdzieciom": 5681,
      "Ġojcu": 5682,
      "ĠzrobiÅĤbym": 5683,
      "ĠuwaÅ¼aÅĤ": 5684,
      "ĠwrÃ³ciÅĤa": 5685,
      "ĠstoÅĤem": 5686,
      "ĠÅĽwietny": 5687,
      "Ġsynem": 5688,
      "ĠsynÃ³w": 5689,
      "czonym": 5690,
      "Ġszybki": 5691,
      "Ġmieszkania": 5692,
      "Ġdrob": 5693,
      "Ġdrogo": 5694,
      "ĠdrogÄħ": 5695,
      "ĠpamiÄĻtaj": 5696,
      "ĠpiÄĻknie": 5697,
      "ĠpracujÄħ": 5698,
      "Ġporozmawiajmy": 5699,
      "Ġtrzecia": 5700,
      "ĠprÃ³bowaÄĩ": 5701,
      "ĠszczÄĻÅĽliwÄħ": 5702,
      "Ġprzyszli": 5703,
      "Ġspotkania": 5704,
      "Ġzadzwoni": 5705,
      "ĠzadzwoniÅĤem": 5706,
      "ĠpomagaÄĩ": 5707,
      "ĠmÅĤodzi": 5708,
      "ĠmÅĤoda": 5709,
      "ĠspÃ³ÅºniÄĩ": 5710,
      "Ġtrudna": 5711,
      "Ġzaprojekt": 5712,
      "Ġkonto": 5713,
      "Ġkonfe": 5714,
      "ĠpotrafiÄħ": 5715,
      "Ġgaz": 5716,
      "Ġgatu": 5717,
      "ĠciÄĻÅ¼ki": 5718,
      "Ġzabije": 5719,
      "Ġautobusie": 5720,
      "ĠspÄĻdzam": 5721,
      "Ġmartwy": 5722,
      "ĠposzliÅĽmy": 5723,
      "ĠÅĽniada": 5724,
      "ĠÅĽniadania": 5725,
      "Ġzielony": 5726,
      "Ġkarmi": 5727,
      "ĠzasnÄħÄĩ": 5728,
      "ĠprzestaÅĤa": 5729,
      "ĠwiÄĻkszy": 5730,
      "Ġzachowanie": 5731,
      "Ġzachicho": 5732,
      "ĠbyliÅĽcie": 5733,
      "ĠznalazÅĤeÅĽ": 5734,
      "Ġdziwnego": 5735,
      "ĠsprawdziÄĩ": 5736,
      "ĠzgasiÅĤ": 5737,
      "ĠdzwoniÄĻ": 5738,
      "ĠkochajÄħ": 5739,
      "Ġszczery": 5740,
      "ĠnajlepszÄħ": 5741,
      "ĠjabÅĤo": 5742,
      "Ġrowerze": 5743,
      "Ġciekawa": 5744,
      "ĠprÃ³bowaÅĤeÅĽ": 5745,
      "Ġprzeszu": 5746,
      "Ġnauczycielami": 5747,
      "Ġbezpieczne": 5748,
      "Ġzabawny": 5749,
      "ĠzaÅĤoÅ¼ÄĻ": 5750,
      "Ġkrzyk": 5751,
      "Ġciastka": 5752,
      "Ġnaprawi": 5753,
      "ĠzagÅĤo": 5754,
      "Ġurodzin": 5755,
      "ĠpomaraÅĦczÄĻ": 5756,
      "ĠsÅĤaby": 5757,
      "ĠÅ¼artujesz": 5758,
      "Ġdostaniesz": 5759,
      "ĠzamierzaÅĤ": 5760,
      "Ġkilko": 5761,
      "ÅĦstwie": 5762,
      "Ġniebezpieczny": 5763,
      "ĠokazjÄĻ": 5764,
      "ĠwejdÅº": 5765,
      "Ġwyszli": 5766,
      "Ġadwoka": 5767,
      "ĠciemnoÅĽci": 5768,
      "ĠposÅĤuchaÄĩ": 5769,
      "ĠpojadÄĻ": 5770,
      "Ġrestauracja": 5771,
      "Ġpsychi": 5772,
      "ĠsÅĤucham": 5773,
      "cjona": 5774,
      "cjonu": 5775,
      "Ġsilniejszy": 5776,
      "Ġamerykaninem": 5777,
      "ĠpatrzyÅĤ": 5778,
      "Ġprawdziwy": 5779,
      "ĠjapoÅĦski": 5780,
      "ĠjapoÅĦskiego": 5781,
      "ĠwydarzyÄĩ": 5782,
      "ĠnarzekaÅĤ": 5783,
      "ĠtÄĻskniÄĩ": 5784,
      "Ġforte": 5785,
      "ĠzwolniÄĩ": 5786,
      "Ġkanapki": 5787,
      "ĠwstaÄĩ": 5788,
      "Ġjaski": 5789,
      "Ġstudenci": 5790,
      "ĠpomogÅĤa": 5791,
      "ĠwÄĻd": 5792,
      "Ġniedziele": 5793,
      "ĠprzeprowadziÄĩ": 5794,
      "Ġkoszuli": 5795,
      "Ġemo": 5796,
      "ĠgitarÄĻ": 5797,
      "ĠprzeprosiÄĩ": 5798,
      "Ġwojska": 5799,
      "ĠmÄĻÅ¼czyznÄĻ": 5800,
      "Ġoszuki": 5801,
      "Ġskrzyw": 5802,
      "Ġfakt": 5803,
      "Ġkurtka": 5804,
      "Ġsytuacji": 5805,
      "Ġuprzej": 5806,
      "ĠwspÃ³ÅĤczu": 5807,
      "ĠzatrudniÄĩ": 5808,
      "etrÃ³w": 5809,
      "ĠdoÅĤÄħczyÄĩ": 5810,
      "Ġuzbro": 5811,
      "ĠpodÅĤogÄĻ": 5812,
      "Ġcelowo": 5813,
      "Ġprzesadza": 5814,
      "ĠprzemyÅĽ": 5815,
      "Ġfacet": 5816,
      "Ġplecach": 5817,
      "ĠposiÅĤek": 5818,
      "Ġznajomo": 5819,
      "ĠwpadÅĤ": 5820,
      "ĠpiÄħtek": 5821,
      "ĠnieobecnoÅĽci": 5822,
      "Ġprzyzwyczaje": 5823,
      "ĠzÄĻby": 5824,
      "ĠbÃ³lu": 5825,
      "Ġodpowiada": 5826,
      "ĠrozwiÄħzanie": 5827,
      "Ġniesamowity": 5828,
      "ĠbiorÄħc": 5829,
      "Ġwolisz": 5830,
      "Ġruszaj": 5831,
      "Ġwszel": 5832,
      "Ġdiecie": 5833,
      "Ġtrzydziestu": 5834,
      "Ġwujka": 5835,
      "Ġdokumen": 5836,
      "ĠprÄĻd": 5837,
      "Ġodpowiedzialny": 5838,
      "ĠrosnÄħ": 5839,
      "ĠotrzymaÅĤem": 5840,
      "ĠumiaÅĤ": 5841,
      "ĠtemperaturÄĻ": 5842,
      "Ġwyzdrowie": 5843,
      "ĠkoszykÃ³w": 5844,
      "Ġziemni": 5845,
      "ĠofertÄĻ": 5846,
      "Ġprzyzwyczajony": 5847,
      "Ġstanowisko": 5848,
      "Ġwsparcie": 5849,
      "ĠporÃ³wna": 5850,
      "ĠprzerwÄĻ": 5851,
      "ĠwzglÄĻdu": 5852,
      "Ġharvard": 5853,
      "Ġintensyw": 5854,
      "ĠpamiÄĻtniku": 5855,
      "Ġbohater": 5856,
      "Ġniezadowo": 5857,
      "ĠprzewodniczÄħ": 5858,
      "Ġutalent": 5859,
      "Ġczterech": 5860,
      "Ġkonferen": 5861,
      "ane": 5862,
      "baÄĩ": 5863,
      "dniej": 5864,
      "gre": 5865,
      "kÅĤo": 5866,
      "kÅĤem": 5867,
      "kowany": 5868,
      "lnych": 5869,
      "me": 5870,
      "mego": 5871,
      "naÅĤy": 5872,
      "pen": 5873,
      "rwie": 5874,
      "ti": 5875,
      "tnik": 5876,
      "towaÅĤem": 5877,
      "wakiem": 5878,
      "zdÄĻ": 5879,
      "ĠÅĤÄħ": 5880,
      "Ġ30": 5881,
      "ier": 5882,
      "ient": 5883,
      "ĠtuÅ¼": 5884,
      "Ġpak": 5885,
      "Ġmru": 5886,
      "ĠsÃ³l": 5887,
      "Ġsali": 5888,
      "Ġwp": 5889,
      "Ġwnios": 5890,
      "ĠwchodziÄĩ": 5891,
      "Ġwreszcie": 5892,
      "Ġtoreb": 5893,
      "stek": 5894,
      "stwem": 5895,
      "Ġposiada": 5896,
      "aÅĤu": 5897,
      "iÄĻdzy": 5898,
      "szem": 5899,
      "Ġdamy": 5900,
      "ĠoÅĽ": 5901,
      "Ġke": 5902,
      "Ġkas": 5903,
      "zerw": 5904,
      "Ġnapo": 5905,
      "Ġnareszcie": 5906,
      "niÅĤo": 5907,
      "Ġzaak": 5908,
      "Ġzapra": 5909,
      "ĠzachÃ³d": 5910,
      "Ġzabra": 5911,
      "Ġzabiera": 5912,
      "owne": 5913,
      "arkÄħ": 5914,
      "Ġdora": 5915,
      "Ġdoje": 5916,
      "ĠdotrzymaÄĩ": 5917,
      "liÅĤem": 5918,
      "letni": 5919,
      "cio": 5920,
      "Ġmost": 5921,
      "Ġmocy": 5922,
      "Ġmojemu": 5923,
      "Ġmokre": 5924,
      "kody": 5925,
      "ĠurzÄħ": 5926,
      "ĠupuÅĽci": 5927,
      "Ġchwy": 5928,
      "Ġchin": 5929,
      "Ġtek": 5930,
      "Ġwyp": 5931,
      "ĠwyÅĽci": 5932,
      "Ġwypa": 5933,
      "ĠwysiÅĤ": 5934,
      "Ġwysiad": 5935,
      "ĠwykÅĤadu": 5936,
      "woi": 5937,
      "mywaÄĩ": 5938,
      "kany": 5939,
      "kajÄħ": 5940,
      "czyli": 5941,
      "ĠmiÅĤego": 5942,
      "Ġrodowi": 5943,
      "Ġczyja": 5944,
      "ĠczytaÅĤ": 5945,
      "Ġwierz": 5946,
      "Ġwiedzieli": 5947,
      "laj": 5948,
      "cenie": 5949,
      "Ġprzekaz": 5950,
      "Ġprzechodzi": 5951,
      "ĠprzepÅĤy": 5952,
      "ĠjakbyÅĽ": 5953,
      "Ġspi": 5954,
      "czeniem": 5955,
      "Ġprzyg": 5956,
      "Ġprzywi": 5957,
      "tany": 5958,
      "Ġmal": 5959,
      "Ġmater": 5960,
      "Ġodbi": 5961,
      "Ġaut": 5962,
      "Ġastro": 5963,
      "ĠczoÅĤa": 5964,
      "ĠprawidÅĤ": 5965,
      "rzas": 5966,
      "kujesz": 5967,
      "tykÃ³w": 5968,
      "cyk": 5969,
      "Ã³wki": 5970,
      "Ã³wek": 5971,
      "redni": 5972,
      "Ġwisi": 5973,
      "Ġrany": 5974,
      "poÅĽ": 5975,
      "ĠrozzÅĤoÅĽci": 5976,
      "Ġpodwy": 5977,
      "Ġfla": 5978,
      "Ġfas": 5979,
      "ĠmoÅ¼ecie": 5980,
      "ÅĽciÄĩ": 5981,
      "mur": 5982,
      "aÅĤat": 5983,
      "Ġsposo": 5984,
      "Ġpil": 5985,
      "ĠpiszÄĻ": 5986,
      "Ġpijesz": 5987,
      "ĠmusiaÅĤo": 5988,
      "Ġkata": 5989,
      "Ġkandy": 5990,
      "ĠmÃ³wiÅĤam": 5991,
      "nujesz": 5992,
      "ĠpowiedziaÅĤbym": 5993,
      "Ġznacie": 5994,
      "ĠpomiÄĻdzy": 5995,
      "Ġprawnika": 5996,
      "ĠrobiÅĤa": 5997,
      "Ġzdej": 5998,
      "dzej": 5999,
      "Ġczek": 6000,
      "Ġczekaj": 6001,
      "Ġindia": 6002,
      "Ġtrzyna": 6003,
      "Ġpozd": 6004,
      "Ġstanach": 6005,
      "Ġnota": 6006,
      "ĠnoÅ¼y": 6007,
      "niÄĻcie": 6008,
      "Ġzama": 6009,
      "Ġsoku": 6010,
      "Ġskorpi": 6011,
      "ĠbezpoÅĽ": 6012,
      "suj": 6013,
      "tkowy": 6014,
      "ĠskÃ³": 6015,
      "Ġskro": 6016,
      "ĠmiaÅĤby": 6017,
      "ĠmiaÅĤbym": 6018,
      "Ġjedena": 6019,
      "Ġwah": 6020,
      "ĠsprawiÅĤo": 6021,
      "ĠrzekÄĻ": 6022,
      "bokrÄĻ": 6023,
      "ĠkaÅ¼de": 6024,
      "Ġwege": 6025,
      "ĠzajÄĻcia": 6026,
      "ĠrozmawiaÅĤeÅĽ": 6027,
      "Ġbur": 6028,
      "ĠcaÅĤej": 6029,
      "Ġpowt": 6030,
      "Ġpewnego": 6031,
      "Ġsin": 6032,
      "godny": 6033,
      "ĠgÅĤodu": 6034,
      "ĠgÅĤodni": 6035,
      "Ġkoment": 6036,
      "ĠrÄĻkami": 6037,
      "ĠpÅĤynnie": 6038,
      "ĠpÅĤywakiem": 6039,
      "Ġpuz": 6040,
      "ĠzapomnieÄĩ": 6041,
      "del": 6042,
      "ĠprÃ³bowaÅĤa": 6043,
      "ĠÅĽmieje": 6044,
      "ĠÅĽmiechem": 6045,
      "Ġwolnego": 6046,
      "Ġpierwsza": 6047,
      "ĠspÃ³Åºnienie": 6048,
      "ĠtrudnoÅĽci": 6049,
      "ĠbiegÅĤ": 6050,
      "Ġkonku": 6051,
      "Ġumar": 6052,
      "ĠpÃ³Åºna": 6053,
      "ĠpÅĤaczu": 6054,
      "ĠpÅĤaciÄĩ": 6055,
      "Ġdostar": 6056,
      "Ġmet": 6057,
      "ĠciÄĻÅ¼kie": 6058,
      "Ġzastana": 6059,
      "ĠÅĽpiewaÅĤ": 6060,
      "ĠÅĤowiÄĩ": 6061,
      "ĠurodziÅĤ": 6062,
      "Ġjadam": 6063,
      "ĠzadaÅĤ": 6064,
      "Ġtraci": 6065,
      "Ġdruga": 6066,
      "ĠpojechaÅĤem": 6067,
      "Ġobiadu": 6068,
      "Ġsprzeciw": 6069,
      "ĠkartkÄĻ": 6070,
      "ĠzapytaÅĤem": 6071,
      "Ġzimna": 6072,
      "ĠprzestaÅĤem": 6073,
      "Ġzdrowe": 6074,
      "Ġzaufa": 6075,
      "Ġplanujemy": 6076,
      "Ġzachowu": 6077,
      "ĠznalazÅĤam": 6078,
      "ĠzaczynaÄĩ": 6079,
      "ĠwygraÅĤem": 6080,
      "ĠwaÅ¼na": 6081,
      "Ġzgadzamy": 6082,
      "ĠpogodÄĻ": 6083,
      "ĠzdecydowaÄĩ": 6084,
      "Ġspada": 6085,
      "Ġszaf": 6086,
      "Ġaktual": 6087,
      "ĠmiÅĤoÅĽci": 6088,
      "Ġciekaw": 6089,
      "ĠplanÃ³w": 6090,
      "Ġruszy": 6091,
      "ĠwstajÄĻ": 6092,
      "ĠwstawaÄĩ": 6093,
      "ĠkaÅ¼demu": 6094,
      "ĠprzeciwsÅĤo": 6095,
      "Ġpodobne": 6096,
      "Ġpismo": 6097,
      "ĠkÅĤamstwo": 6098,
      "Ġinteres": 6099,
      "Ġudowod": 6100,
      "ĠzmieniÅĤem": 6101,
      "ĠprÃ³bujesz": 6102,
      "ĠkradzieÅ¼": 6103,
      "Ġnapisz": 6104,
      "ĠnaprawiÅĤ": 6105,
      "Ġfrancuskim": 6106,
      "Ġpokazy": 6107,
      "ĠpokaÅ¼e": 6108,
      "ĠdowiedziaÅĤ": 6109,
      "ĠpaÅºdziernik": 6110,
      "nkach": 6111,
      "ĠzaczekaÅĤ": 6112,
      "Ġfabry": 6113,
      "Ġptaka": 6114,
      "ĠopowieÅĽÄĩ": 6115,
      "ĠopowiedziaÅĤ": 6116,
      "ĠwÅĤasnego": 6117,
      "Ġzupa": 6118,
      "ĠwypiÅĤem": 6119,
      "ĠsprÃ³bujmy": 6120,
      "Ġczytania": 6121,
      "Ġkolacji": 6122,
      "ĠrestauracjÄĻ": 6123,
      "Ġokropne": 6124,
      "ĠamerykaÅĦ": 6125,
      "Ġtorby": 6126,
      "ĠobudziÅĤem": 6127,
      "Ġprawdziwa": 6128,
      "Ġczekasz": 6129,
      "Ġdwor": 6130,
      "Ġekscy": 6131,
      "ĠtÄĻskni": 6132,
      "Ġwybredny": 6133,
      "ĠpomogÅĤem": 6134,
      "Ġprzemo": 6135,
      "Ġosoby": 6136,
      "ĠpozostaÄĩ": 6137,
      "ĠprzeprosiÅĤ": 6138,
      "ĠmÄĻÅ¼czyzn": 6139,
      "Ġwakacjach": 6140,
      "Ġwojnie": 6141,
      "Ġodpoczy": 6142,
      "ĠzamkniÄĻty": 6143,
      "ĠÅ¼oÅĤÄħd": 6144,
      "Ġzrelak": 6145,
      "ĠszczegÃ³lnie": 6146,
      "Ġopieku": 6147,
      "ĠÅ¼aÅĤowaÅĤ": 6148,
      "ncent": 6149,
      "Ġrannych": 6150,
      "ĠdruÅ¼yny": 6151,
      "Ġsprawiedliwe": 6152,
      "ĠzmarÅĤa": 6153,
      "Ġdzisiejszych": 6154,
      "Ġspokojny": 6155,
      "ĠryzykowaÄĩ": 6156,
      "ĠprzemysÅĤ": 6157,
      "Ġcierpliwy": 6158,
      "Ġprzystoj": 6159,
      "ĠpomaraÅĦczowy": 6160,
      "ĠoÅ¼eniÅĤ": 6161,
      "Ġzaczniemy": 6162,
      "Ġjajko": 6163,
      "ĠpoÅĽpiechu": 6164,
      "Ġgene": 6165,
      "Ġgeniu": 6166,
      "ĠwykonaÄĩ": 6167,
      "ĠpiÄħtej": 6168,
      "Ġbiletu": 6169,
      "ĠmoÅ¼liwoÅĽÄĩ": 6170,
      "Ġkontakt": 6171,
      "Ġzmiany": 6172,
      "ĠpoÅĽlubi": 6173,
      "Ġdotyczy": 6174,
      "ĠsÄħsiadÃ³w": 6175,
      "ĠzdobyÄĩ": 6176,
      "Ġrozczarowany": 6177,
      "ĠgÅĤÄĻboko": 6178,
      "ĠzÄĻbÃ³w": 6179,
      "ĠukoÅĦ": 6180,
      "Ġuczciwy": 6181,
      "ĠzasÅĤuguje": 6182,
      "Ġwstyd": 6183,
      "ĠprzeziÄĻbiÅĤem": 6184,
      "Ġzawio": 6185,
      "ĠprzyjemnoÅĽÄĩ": 6186,
      "ĠrÄĻkawi": 6187,
      "Ġzarezerw": 6188,
      "Ġwynosi": 6189,
      "Ġmarzenia": 6190,
      "ĠkupujÄĻ": 6191,
      "Ġdyskusji": 6192,
      "Ġeuropie": 6193,
      "ĠtrzÄĻsienia": 6194,
      "Ġmusieli": 6195,
      "ĠÅĤazience": 6196,
      "ĠprÄĻdzej": 6197,
      "Ġwielory": 6198,
      "Ġprzypuszczam": 6199,
      "Ġoddali": 6200,
      "Ġpapier": 6201,
      "Ġprzystanek": 6202,
      "ĠdÅĤonie": 6203,
      "Ġowady": 6204,
      "Ġnarodzenie": 6205,
      "ĠdÅºwiÄĻk": 6206,
      "ĠsprzÄħta": 6207,
      "ĠzdjÄĻÄĩ": 6208,
      "ĠprzestrzegaÄĩ": 6209,
      "ĠÅĽwiata": 6210,
      "Ġotwiera": 6211,
      "Ġkurczaka": 6212,
      "Ġkanadyjczykiem": 6213,
      "ĠwymyÅĽliÄĩ": 6214,
      "ĠpoÅ¼egna": 6215,
      "ĠczterdzieÅĽci": 6216,
      "Ġkrewetki": 6217,
      "Ġsypialni": 6218,
      "ĠprÄħdu": 6219,
      "Ġfanta": 6220,
      "ĠpiÄĻtnaÅĽcie": 6221,
      "Ġelektry": 6222,
      "ĠwynalazÅĤ": 6223,
      "Ġmarchew": 6224,
      "ĠÅĽrubokrÄĻ": 6225,
      "Ġbenzy": 6226,
      "ĠwyÅĽlij": 6227,
      "ĠwyraÅºnie": 6228,
      "ĠprzysÅĤugÄĻ": 6229,
      "ĠobowiÄħz": 6230,
      "Ġbiznes": 6231,
      "Ġreligi": 6232,
      "ĠtchÃ³rzem": 6233,
      "Ġabsolutnie": 6234,
      "Ġpogratu": 6235,
      "Ġramieniu": 6236,
      "ĠtatuaÅ¼": 6237,
      "ĠkoszykÃ³wkÄĻ": 6238,
      "Ġwegetar": 6239,
      "ĠprzeciwsÅĤone": 6240,
      "13": 6241,
      "?âĢĿ": 6242,
      "bec": 6243,
      "dow": 6244,
      "dry": 6245,
      "dnoÅĽci": 6246,
      "enek": 6247,
      "fak": 6248,
      "grze": 6249,
      "ila": 6250,
      "jona": 6251,
      "ke": 6252,
      "kowa": 6253,
      "kreÅĽ": 6254,
      "laÅĤem": 6255,
      "lnÄħ": 6256,
      "naÅĤa": 6257,
      "nkt": 6258,
      "nowany": 6259,
      "pt": 6260,
      "raÅĤaÅĽ": 6261,
      "skaÄĩ": 6262,
      "shi": 6263,
      "taÅĤam": 6264,
      "waku": 6265,
      "zm": 6266,
      "Ġ(": 6267,
      "Ġ9": 6268,
      "ĠrÄħ": 6269,
      "ĠrÃ³Å¼e": 6270,
      "Ġpsu": 6271,
      "Ġss": 6272,
      "Ġski": 6273,
      "Ġwt": 6274,
      "ĠwÅĤam": 6275,
      "ĠwstÄĻp": 6276,
      "ĠwpuÅĽÄĩ": 6277,
      "Ġzy": 6278,
      "Ġzli": 6279,
      "Ġzszo": 6280,
      "ĠzbliÅ¼": 6281,
      "Ġzbior": 6282,
      "Ġzjem": 6283,
      "Å¼am": 6284,
      "Ġnieo": 6285,
      "Ġnieja": 6286,
      "ĠniedÅº": 6287,
      "Ġnielega": 6288,
      "Ġpozy": 6289,
      "Ġpopie": 6290,
      "ĠpoÅĽli": 6291,
      "Ġposa": 6292,
      "Ġponios": 6293,
      "ĠjeÅ¼d": 6294,
      "Ġtomkowi": 6295,
      "szÅĤa": 6296,
      "ron": 6297,
      "rory": 6298,
      "ram": 6299,
      "Ġopo": 6300,
      "Ġotrzyma": 6301,
      "Ġopuszcz": 6302,
      "Ġoczach": 6303,
      "Ġkwalifi": 6304,
      "Ġnapad": 6305,
      "ĠnarzÄĻ": 6306,
      "ĠnadÄħ": 6307,
      "Ġnarod": 6308,
      "ĠnaleÅ¼": 6309,
      "Ġnacis": 6310,
      "Ġzasu": 6311,
      "Ġzask": 6312,
      "ĠzarÃ³w": 6313,
      "Ġdole": 6314,
      "ĠdoszÅĤo": 6315,
      "liwie": 6316,
      "dziÅĤo": 6317,
      "chÃ³w": 6318,
      "ĠÅ¼elaz": 6319,
      "win": 6320,
      "wiÃ³r": 6321,
      "ciar": 6322,
      "Ġmorza": 6323,
      "Ġugo": 6324,
      "Ġule": 6325,
      "Ġuzna": 6326,
      "ĠuÅ¼Äħd": 6327,
      "ĠbyÅĽmy": 6328,
      "Ġwyle": 6329,
      "Ġwyniki": 6330,
      "ĠwyciÄħgnÄħÅĤ": 6331,
      "Ġig": 6332,
      "kacji": 6333,
      "ÅĤadzie": 6334,
      "czyÅĤeÅĽ": 6335,
      "ĠminÄħÅĤ": 6336,
      "Ġroma": 6337,
      "Ġcof": 6338,
      "Ġgro": 6339,
      "Ġgad": 6340,
      "Ġgre": 6341,
      "ĠgÃ³r": 6342,
      "ĠgadaÄĩ": 6343,
      "ĠgÄħb": 6344,
      "Ġwiek": 6345,
      "Ġwieje": 6346,
      "Ġwietrz": 6347,
      "ĠwiewiÃ³r": 6348,
      "sistÄħ": 6349,
      "Ġprzeba": 6350,
      "Ġprzesu": 6351,
      "Ġprzepis": 6352,
      "cieka": 6353,
      "lub": 6354,
      "waniu": 6355,
      "Ġprzyda": 6356,
      "Ġprzyprowa": 6357,
      "ĠprzyniÃ³sÅĤ": 6358,
      "Ġnios": 6359,
      "Ġniski": 6360,
      "Ġmaj": 6361,
      "Ġkop": 6362,
      "Ġkolu": 6363,
      "jÄĻt": 6364,
      "Ġodno": 6365,
      "ĠodrÃ³Å¼": 6366,
      "Ġoddaj": 6367,
      "Ġaf": 6368,
      "Ġabym": 6369,
      "Ġasy": 6370,
      "ĠpracÄħ": 6371,
      "kich": 6372,
      "tyk": 6373,
      "cym": 6374,
      "cyjny": 6375,
      "niaj": 6376,
      "niajÄħ": 6377,
      "Å¼ysz": 6378,
      "Ã³wka": 6379,
      "ĠÅĽcie": 6380,
      "ĠÅĽlep": 6381,
      "Ġludz": 6382,
      "Ġprojek": 6383,
      "Ġmamie": 6384,
      "ĠstÅĤu": 6385,
      "Ġmysz": 6386,
      "ĠmyjÄĻ": 6387,
      "ĠwiniÄĩ": 6388,
      "Ġwiary": 6389,
      "ĠgoÅĽcie": 6390,
      "pora": 6391,
      "ĠciaÅĤo": 6392,
      "ĠbÄĻb": 6393,
      "rÃ³ciÅĤ": 6394,
      "Ġrozp": 6395,
      "Ġrozwa": 6396,
      "Ġrozkaz": 6397,
      "ĠsÄħdziÅĤ": 6398,
      "ĠpodrÄĻ": 6399,
      "ĠpodwÃ³r": 6400,
      "ĠpodrÃ³Å¼y": 6401,
      "ĠpodkreÅĽ": 6402,
      "Ġfut": 6403,
      "rujÄĻ": 6404,
      "ĠpaÅĦski": 6405,
      "pieÅĦ": 6406,
      "owanym": 6407,
      "Ġmiejmy": 6408,
      "Ġpisa": 6409,
      "ĠmusiaÅĤeÅĽ": 6410,
      "Ġpotwo": 6411,
      "ĠpotrÄħ": 6412,
      "ĠbÄĻdziecie": 6413,
      "Ġzeszy": 6414,
      "Ġcieszy": 6415,
      "Ġleci": 6416,
      "tujÄħce": 6417,
      "Ġczaso": 6418,
      "dzeni": 6419,
      "gÅĤeÅĽ": 6420,
      "ĠwiÄĻÅºni": 6421,
      "Ġzapu": 6422,
      "Ġzapar": 6423,
      "Ġzapach": 6424,
      "orÃ³w": 6425,
      "Ġwobec": 6426,
      "owaÅĤam": 6427,
      "Ġtamte": 6428,
      "log": 6429,
      "loka": 6430,
      "rans": 6431,
      "szczenie": 6432,
      "Ġtance": 6433,
      "Ġstan": 6434,
      "Ġnos": 6435,
      "Ġnogami": 6436,
      "Ġzamek": 6437,
      "Ġzamarz": 6438,
      "Ġsoli": 6439,
      "Ġbom": 6440,
      "Ġnajstar": 6441,
      "ĠnajpiÄĻk": 6442,
      "Ġzawsty": 6443,
      "Ġskoncent": 6444,
      "ciÄħÄĩ": 6445,
      "ciÄħga": 6446,
      "ĠskÃ³r": 6447,
      "Ġdala": 6448,
      "chach": 6449,
      "Ġwasz": 6450,
      "szany": 6451,
      "ĠkaÅ¼da": 6452,
      "Ġwzajem": 6453,
      "stuj": 6454,
      "Ġbudzi": 6455,
      "Ġburza": 6456,
      "ĠokÅĤamaÅĤ": 6457,
      "ĠuwaÅ¼aÄĩ": 6458,
      "ĠumieÄĩ": 6459,
      "ĠstaraÅĤem": 6460,
      "Ġpolicji": 6461,
      "Ġreali": 6462,
      "rozumie": 6463,
      "Ġpytasz": 6464,
      "Ġstrata": 6465,
      "ĠpamiÄĻci": 6466,
      "ĠwiedziaÅĤa": 6467,
      "Ġpoprosi": 6468,
      "ĠpoprosiÅĤa": 6469,
      "Ġpoproszono": 6470,
      "Ġdumna": 6471,
      "ĠrÄĻki": 6472,
      "ĠrÄĻkÄħ": 6473,
      "ĠuwierzyÅĤ": 6474,
      "ĠskoÅĦczysz": 6475,
      "ĠskoÅĦczyliÅĽmy": 6476,
      "ĠpuÅĤa": 6477,
      "Ġosoba": 6478,
      "Ġporozmawia": 6479,
      "ĠporozmawiaÅĤ": 6480,
      "pisaÅĤ": 6481,
      "ĠprzyszÅĤa": 6482,
      "ĠzadzwoniÅĤeÅĽ": 6483,
      "ĠpierwszÄħ": 6484,
      "ĠprzyjaciÃ³ÅĤkÄħ": 6485,
      "Ġbied": 6486,
      "Ġzwymio": 6487,
      "Ġzdech": 6488,
      "ĠchwilÄħ": 6489,
      "ĠumowÄĻ": 6490,
      "ĠszukaÅĤ": 6491,
      "Ġszukamy": 6492,
      "Ġpozwolenia": 6493,
      "ĠpÅĤacz": 6494,
      "ĠpracowaÅĤem": 6495,
      "Ġmelo": 6496,
      "Ġmetra": 6497,
      "ĠspÄĻdziÅĤeÅĽ": 6498,
      "ĠmartwiÅĤ": 6499,
      "ĠÅĽpiewasz": 6500,
      "ĠchÅĤopaka": 6501,
      "Ġ16": 6502,
      "Ġ100": 6503,
      "ĠÅ¼adna": 6504,
      "ĠulubionÄħ": 6505,
      "ĠaustraliÄĻ": 6506,
      "Ġtraw": 6507,
      "ĠÅ¼yciem": 6508,
      "ĠzÅĤapany": 6509,
      "ĠminutÄĻ": 6510,
      "ĠpiÅĤka": 6511,
      "ĠmÄĻÅ¼em": 6512,
      "ĠkarmiÄĩ": 6513,
      "ĠporadziÄĩ": 6514,
      "Ġporadzisz": 6515,
      "ĠzapytaÅĤa": 6516,
      "ĠzimÄħ": 6517,
      "owaÅĤaÅĽ": 6518,
      "Ġzachowaj": 6519,
      "Ġhipo": 6520,
      "ĠzeszÅĤego": 6521,
      "Ġdobrej": 6522,
      "Ġambi": 6523,
      "ĠwyglÄħdaÅĤo": 6524,
      "ĠspÃ³ÅºniÅĤem": 6525,
      "ĠwielkÄħ": 6526,
      "Ġotworzy": 6527,
      "ĠdzwoniÄĩ": 6528,
      "ĠdzwoniÅĤeÅĽ": 6529,
      "ĠkolejnÄħ": 6530,
      "Ġakce": 6531,
      "ĠpostanowiliÅĽmy": 6532,
      "ĠplanowaÅĤ": 6533,
      "ĠzajmÄĻ": 6534,
      "Ġpiosenek": 6535,
      "ĠÅ¼onie": 6536,
      "Ġspodziewam": 6537,
      "Ġzdajesz": 6538,
      "Ġzdaniem": 6539,
      "Ġzabawa": 6540,
      "Ġpodobna": 6541,
      "ĠpodobaÅĤa": 6542,
      "ĠpasujÄħ": 6543,
      "Ġbroni": 6544,
      "Ġameryki": 6545,
      "Ġpodejrz": 6546,
      "ĠpÃ³ÅĤce": 6547,
      "ĠpÃ³ÅĤnoc": 6548,
      "Ġpiosenkarzem": 6549,
      "Ġkreden": 6550,
      "jÄħcym": 6551,
      "ĠubraÅĦ": 6552,
      "Ġkuchen": 6553,
      "ĠkuchniÄĻ": 6554,
      "ĠnoÅ¼em": 6555,
      "Ġszansy": 6556,
      "Ġzostawiaj": 6557,
      "Ġzadowolona": 6558,
      "Ġzadowolonego": 6559,
      "Ġwysoko": 6560,
      "Ġrobota": 6561,
      "Ġspytaj": 6562,
      "ĠchciaÅĤabyÅĽ": 6563,
      "ĠzjadÅĤeÅĽ": 6564,
      "ĠpudÅĤo": 6565,
      "Ġopowiem": 6566,
      "ĠokazaÅĤ": 6567,
      "ĠwÅĤasnym": 6568,
      "Ġulice": 6569,
      "ĠpomyÅĽlaÅĤ": 6570,
      "ĠpopeÅĤniÄĩ": 6571,
      "ĠduÅ¼ym": 6572,
      "Ġumyj": 6573,
      "Ġtorbie": 6574,
      "Ġczarne": 6575,
      "Ġsamolotu": 6576,
      "ĠczekajÄħ": 6577,
      "ĠproponujÄĻ": 6578,
      "ĠmogÅĤabym": 6579,
      "dliwy": 6580,
      "ĠuczuÄĩ": 6581,
      "raziÅĤ": 6582,
      "Ġnazwisk": 6583,
      "ĠnarzekaÄĩ": 6584,
      "Ġzdol": 6585,
      "ĠwybÃ³r": 6586,
      "Ġbiblioteka": 6587,
      "Ġjohnem": 6588,
      "Ġkrokody": 6589,
      "ĠpomogÅĤo": 6590,
      "ĠpÅĤywanie": 6591,
      "ĠukryÅĤ": 6592,
      "ĠwÄħtpliwoÅĽci": 6593,
      "Ġniedziela": 6594,
      "Ġoceny": 6595,
      "ĠksiÄĻgar": 6596,
      "ĠjÄĻzykach": 6597,
      "ĠÄĩwiczy": 6598,
      "ĠopuÅĽciÄĩ": 6599,
      "ĠodejdÅº": 6600,
      "ĠposprzÄħtaj": 6601,
      "Ġbasen": 6602,
      "ĠszczegÃ³": 6603,
      "Ġwydajesz": 6604,
      "Ġinformacje": 6605,
      "Ġnarko": 6606,
      "Ġeksper": 6607,
      "ĠwyÅĤÄħczyÄĩ": 6608,
      "Ġzwyczajnie": 6609,
      "Ġzaofe": 6610,
      "ĠspadÅĤ": 6611,
      "ĠpajÄħk": 6612,
      "ĠpajÄħkÃ³w": 6613,
      "ĠsÅĤowniku": 6614,
      "Ġostrzec": 6615,
      "ĠuznaÅĤem": 6616,
      "ĠpodÅĤodze": 6617,
      "ĠpodÅĤoga": 6618,
      "Ġdwuna": 6619,
      "Ġniedawno": 6620,
      "Ġrozmowa": 6621,
      "Ġdarm": 6622,
      "Ġobrazy": 6623,
      "Ġryzykow": 6624,
      "Ġfacetem": 6625,
      "ĠwezmÄĻ": 6626,
      "ĠkierowcÄħ": 6627,
      "Ġwzrostu": 6628,
      "Ġkomplet": 6629,
      "ĠpospieszyÄĩ": 6630,
      "Ġwroga": 6631,
      "ĠwrogÃ³w": 6632,
      "ĠwysÅĤa": 6633,
      "Ġabsu": 6634,
      "ĠzdradziÅĤ": 6635,
      "Ġfajne": 6636,
      "ĠzakÅĤopo": 6637,
      "Ġnieobecny": 6638,
      "ĠodmÃ³wiÄĩ": 6639,
      "ĠwypeÅĤniÄĩ": 6640,
      "ĠprzyniosÄĻ": 6641,
      "Ġpiersi": 6642,
      "ĠpierÅĽcio": 6643,
      "Ġnaturalne": 6644,
      "Ġczekolady": 6645,
      "Ġsugest": 6646,
      "Ġniezwykle": 6647,
      "ĠruszaÄĩ": 6648,
      "ĠkrÄĻci": 6649,
      "Ġmilion": 6650,
      "Ġgwiazd": 6651,
      "Ġoddam": 6652,
      "Ġartyku": 6653,
      "ĠuÅ¼ytkownika": 6654,
      "ĠdietÄĻ": 6655,
      "Ġkoloru": 6656,
      "ĠnajwyÅ¼szy": 6657,
      "Ġpodejrzewam": 6658,
      "ĠksiÄĻÅ¼yc": 6659,
      "Ġidealnie": 6660,
      "ĠroÅĽliny": 6661,
      "ĠprzypuszczaÅĤem": 6662,
      "Ġpapieru": 6663,
      "ĠzwrÃ³ciÄĩ": 6664,
      "Ġkilom": 6665,
      "ĠprzemÃ³wienie": 6666,
      "Ġtoaleta": 6667,
      "ĠpostÄĻpy": 6668,
      "ĠmarzyÅĤem": 6669,
      "Ġkierunku": 6670,
      "Ġleniwy": 6671,
      "Ġzjedzmy": 6672,
      "ĠleÅ¼aÅĤ": 6673,
      "ĠmÄħdrzejszy": 6674,
      "Ġdwudziestego": 6675,
      "ĠpasaÅ¼erÃ³w": 6676,
      "Ġalkoholu": 6677,
      "Ġbrzuch": 6678,
      "ĠwymieniÄĩ": 6679,
      "Ġkorpora": 6680,
      "ĠobejrzeÄĩ": 6681,
      "Ġwspina": 6682,
      "Ġsekund": 6683,
      "ĠÅĽwiÄħt": 6684,
      "Ġwilgot": 6685,
      "Ġgorszy": 6686,
      "Ġkubek": 6687,
      "Ġhambu": 6688,
      "ĠwrzuciÅĤ": 6689,
      "Ġgril": 6690,
      "Ġczynsz": 6691,
      "ĠdziesiÄħtej": 6692,
      "Ġprzydarzy": 6693,
      "Ġekspery": 6694,
      "ĠdziurÄĻ": 6695,
      "Ġniecierpli": 6696,
      "Ġprzeczucie": 6697,
      "Ġhand": 6698,
      "Ġzamordowany": 6699,
      "ĠzwiÄħzku": 6700,
      "Ġlincoln": 6701,
      "Ġskazany": 6702,
      "Ġwyprzeda": 6703,
      "Ġdziedzinie": 6704,
      "Ġpiwnicy": 6705,
      "ĠprzedsiÄĻbior": 6706,
      "Ġzaakcep": 6707,
      "Ġgeniuszem": 6708,
      "Ġzbiornik": 6709,
      "ĠniedÅºwie": 6710,
      "ĠpoÅĽliz": 6711,
      "ĠzarÃ³wno": 6712,
      "ĠpierÅĽcionek": 6713,
      "gen": 6714,
      "kraj": 6715,
      "kowaÅĤem": 6716,
      "kowe": 6717,
      "kowego": 6718,
      "laÅĤy": 6719,
      "ntu": 6720,
      "namy": 6721,
      "oÅĤo": 6722,
      "plo": 6723,
      "ri": 6724,
      "rwy": 6725,
      "sad": 6726,
      "sami": 6727,
      "sfak": 6728,
      "tnÄħ": 6729,
      "uszek": 6730,
      "wki": 6731,
      "waÅĤy": 6732,
      "yÅĽmy": 6733,
      "zny": 6734,
      "Ġv": 6735,
      "Ġdz": 6736,
      "ĭâĢ": 6737,
      "Ġtle": 6738,
      "ĠpamiÄħ": 6739,
      "Ġmg": 6740,
      "ĠmaÅĤa": 6741,
      "Ġmowy": 6742,
      "ĠsÄĻ": 6743,
      "Ġskie": 6744,
      "Ġsreb": 6745,
      "ĠwÅĤÃ³Å¼": 6746,
      "Ġzb": 6747,
      "Ġzba": 6748,
      "Ġznu": 6749,
      "Ġzmo": 6750,
      "ĠzaÅĤat": 6751,
      "sti": 6752,
      "stry": 6753,
      "stkÄĻ": 6754,
      "Å¼one": 6755,
      "dzmi": 6756,
      "Ġnied": 6757,
      "Ġniedob": 6758,
      "Ġnietrud": 6759,
      "Ġpoe": 6760,
      "Ġpokona": 6761,
      "Ġpobieg": 6762,
      "ĠpobiegÅĤ": 6763,
      "Ġjedziesz": 6764,
      "szczo": 6765,
      "szona": 6766,
      "Ġbrze": 6767,
      "Ġbry": 6768,
      "Ġbrwi": 6769,
      "Ã³p": 6770,
      "rowi": 6771,
      "robo": 6772,
      "raÄĩ": 6773,
      "emi": 6774,
      "emii": 6775,
      "Ġow": 6776,
      "Ġobywa": 6777,
      "Ġkwi": 6778,
      "Ġkrop": 6779,
      "Ġkwiet": 6780,
      "zerwa": 6781,
      "ĠnalaÅĤ": 6782,
      "Ġnamal": 6783,
      "nili": 6784,
      "niami": 6785,
      "ĠsiÄĻgnÄħÄĩ": 6786,
      "Ġzawa": 6787,
      "Ġzata": 6788,
      "Ġzabie": 6789,
      "ĠzarÄĻ": 6790,
      "Ġzapomi": 6791,
      "Ġzarobi": 6792,
      "ĠzaÅĽmiaÅĤ": 6793,
      "ownie": 6794,
      "ownikiem": 6795,
      "Ġdoro": 6796,
      "Ġdokona": 6797,
      "listÄħ": 6798,
      "dziÅĤaÅĽ": 6799,
      "che": 6800,
      "chwa": 6801,
      "wij": 6802,
      "lend": 6803,
      "cisz": 6804,
      "akami": 6805,
      "czkami": 6806,
      "Ġmor": 6807,
      "Ġmoto": 6808,
      "Ġmoty": 6809,
      "Ġmoment": 6810,
      "Ġusa": 6811,
      "Ġubiera": 6812,
      "Ġubieg": 6813,
      "jest": 6814,
      "Ġcha": 6815,
      "Ġchrze": 6816,
      "Ġbycie": 6817,
      "ĠbyÅĽcie": 6818,
      "ĠteczkÄĻ": 6819,
      "Ġwyro": 6820,
      "Ġwyce": 6821,
      "Ġwybie": 6822,
      "Ġwysta": 6823,
      "Ġwyraz": 6824,
      "Ġwysy": 6825,
      "Ġwyprowa": 6826,
      "Ġiry": 6827,
      "Ġisto": 6828,
      "kaÅ¼": 6829,
      "kasz": 6830,
      "Ġrodze": 6831,
      "ĠroÅĽnie": 6832,
      "Ġgnia": 6833,
      "Ġgim": 6834,
      "rzekam": 6835,
      "Ġprzery": 6836,
      "Ġprzegry": 6837,
      "ĠprzewrÃ³": 6838,
      "ĠprzepiÄĻk": 6839,
      "Ġprzerwy": 6840,
      "ĠspÃ³d": 6841,
      "wane": 6842,
      "waran": 6843,
      "ĠprzysiÄħ": 6844,
      "ĠprzyÅĤÄħ": 6845,
      "ĠprzydaÄĩ": 6846,
      "Ġprzyrzekam": 6847,
      "Ġnikim": 6848,
      "Ġmaga": 6849,
      "ĠmapÄĻ": 6850,
      "szyÅĤa": 6851,
      "Ġkoc": 6852,
      "ĠmariÄħ": 6853,
      "Ġtyp": 6854,
      "Ġtymi": 6855,
      "Ġtygry": 6856,
      "Ġana": 6857,
      "Ġalar": 6858,
      "Ġaspi": 6859,
      "Ġmundu": 6860,
      "rzaÅĤa": 6861,
      "ryte": 6862,
      "tycznie": 6863,
      "Å¼yliÅĽmy": 6864,
      "ĠÅĽro": 6865,
      "adaÅĤ": 6866,
      "tent": 6867,
      "teczny": 6868,
      "Ġprosta": 6869,
      "Ġprosty": 6870,
      "Ġprogra": 6871,
      "ĠprosiÅĤ": 6872,
      "pita": 6873,
      "ĠstÃ³p": 6874,
      "ĠmylÄĻ": 6875,
      "Ġwiny": 6876,
      "Ġwitami": 6877,
      "Ġrad": 6878,
      "Ġrand": 6879,
      "ĠgoÅĽciem": 6880,
      "Ġcias": 6881,
      "Ġcichy": 6882,
      "asad": 6883,
      "ĠrozÅĽmie": 6884,
      "Ġpodd": 6885,
      "Ġpodwie": 6886,
      "Ġpodsta": 6887,
      "ĠpodnieÅĽÄĩ": 6888,
      "Ġpodusz": 6889,
      "Ġpalenia": 6890,
      "Ġpalec": 6891,
      "owanÄħ": 6892,
      "owaniem": 6893,
      "Ġpisania": 6894,
      "ĠpotwÃ³r": 6895,
      "Ġkasz": 6896,
      "Ġkaza": 6897,
      "Ġkapita": 6898,
      "Ġzesp": 6899,
      "aÅĤoby": 6900,
      "Ġpiekar": 6901,
      "Ġtwoimi": 6902,
      "dzeniu": 6903,
      "Ġsamolub": 6904,
      "Ġzapla": 6905,
      "Ġpotrzeba": 6906,
      "ĠobjÄĻ": 6907,
      "Ġobja": 6908,
      "Ġobco": 6909,
      "Ġtamto": 6910,
      "Ġinnemu": 6911,
      "Ġtrzym": 6912,
      "ĠtrzynaÅĽcie": 6913,
      "ĠtrzymaÅĤ": 6914,
      "casz": 6915,
      "ĠÅ¼aÅĤo": 6916,
      "Ġstaro": 6917,
      "ĠÅ¼yjÄĻ": 6918,
      "ĠzamÄĻÅ¼": 6919,
      "dujÄħ": 6920,
      "petent": 6921,
      "ĠliczÄĻ": 6922,
      "ĠgrajÄħ": 6923,
      "Ġzostaje": 6924,
      "ĠzostaliÅĽmy": 6925,
      "Ġnaucza": 6926,
      "Ġbezrobo": 6927,
      "pach": 6928,
      "utrze": 6929,
      "niejszÄħ": 6930,
      "Ġskryty": 6931,
      "ĠwyglÄħdali": 6932,
      "ĠmiaÅĤbyÅĽ": 6933,
      "Ġdaleka": 6934,
      "ĠprzyjaÅº": 6935,
      "Ġrodzin": 6936,
      "Ġwaz": 6937,
      "Ġwasze": 6938,
      "ĠwaszÄħ": 6939,
      "Ġdomowego": 6940,
      "ĠsiedzÄħ": 6941,
      "Ġsiedzieli": 6942,
      "fia": 6943,
      "Ġimport": 6944,
      "Ġbracia": 6945,
      "ĠsÅĤyn": 6946,
      "ĠczÄĻÅĽciej": 6947,
      "Ġrozmawiamy": 6948,
      "ĠpytaÅĤ": 6949,
      "Ġburzy": 6950,
      "Ġsushi": 6951,
      "Ġokra": 6952,
      "Ġokej": 6953,
      "Ġczuj": 6954,
      "ĠszczÄĻÅĽci": 6955,
      "Ġlekko": 6956,
      "ĠlekkÄħ": 6957,
      "ĠzostaÅĤam": 6958,
      "Ġstarszych": 6959,
      "Ġstaruszek": 6960,
      "ĠÅĽwiec": 6961,
      "ĠÅĽwieczki": 6962,
      "ĠsiÅĤy": 6963,
      "Ġdrzem": 6964,
      "Ġrezerwa": 6965,
      "ĠpieniÄĻdzmi": 6966,
      "ĠdroÅ¼": 6967,
      "ĠgÅĤoÅĽniej": 6968,
      "ĠstraÅ¼": 6969,
      "ĠstraciÄĩ": 6970,
      "Ġstracenia": 6971,
      "Ġewaku": 6972,
      "Ġzmierz": 6973,
      "Ġduchy": 6974,
      "ĠrÄĻcznik": 6975,
      "ĠrozumieÄĩ": 6976,
      "ĠpowodÃ³w": 6977,
      "ĠpiÄĻknego": 6978,
      "ĠogÃ³lnie": 6979,
      "ĠÅĤapie": 6980,
      "Ġwyjdziesz": 6981,
      "Ġpracuj": 6982,
      "Ġtrzeci": 6983,
      "Ġpokera": 6984,
      "ĠprzyszÅĤy": 6985,
      "Ġspotkajmy": 6986,
      "Ġdziewczynie": 6987,
      "Ġpierwszego": 6988,
      "ĠniezrÄĻ": 6989,
      "ĠniezbÄĻ": 6990,
      "Ġbierze": 6991,
      "Ġspotkam": 6992,
      "Ġparki": 6993,
      "ĠposzedÅĤeÅĽ": 6994,
      "ĠdwanaÅĽcie": 6995,
      "ĠdostaÅĤa": 6996,
      "ĠpracowaÅĤeÅĽ": 6997,
      "Ġautobusy": 6998,
      "Ġzastanowi": 6999,
      "ĠspÄĻdzaÄĩ": 7000,
      "ĠspÄĻdziliÅĽmy": 7001,
      "ĠpostawiÅĤ": 7002,
      "ĠÅĽpiewaÅĤa": 7003,
      "ĠÅĤez": 7004,
      "ĠÅĤÃ³dÅº": 7005,
      "ĠzmÄĻczona": 7006,
      "ĠznaleÅºli": 7007,
      "Ġjedyna": 7008,
      "ĠsiostrÄħ": 7009,
      "ĠtracÄĻ": 7010,
      "Ġdrutach": 7011,
      "ĠposzÅĤam": 7012,
      "Ġpojechali": 7013,
      "Ġmiastem": 7014,
      "Ġsprzeci": 7015,
      "Ġstron": 7016,
      "ĠkartÄĻ": 7017,
      "ĠkartÄħ": 7018,
      "Ġporanek": 7019,
      "ĠprzeczytaÅĤeÅĽ": 7020,
      "ĠprzyjechaÄĩ": 7021,
      "ĠprzyjeÅ¼dÅ¼a": 7022,
      "ĠpoÅĤudnie": 7023,
      "ĠzasnÄħÅĤ": 7024,
      "ĠkochaÅĤem": 7025,
      "ĠkochaÅĤa": 7026,
      "Ġprzeprac": 7027,
      "Ġzachowuje": 7028,
      "Ġnamiot": 7029,
      "Ġmuzyce": 7030,
      "ĠpoÅ¼yczÄĻ": 7031,
      "ĠwziÄħÅĤem": 7032,
      "ĠzapomniaÅĤeÅĽ": 7033,
      "ĠzÅĤoÅ¼yÅĤ": 7034,
      "Ġwydost": 7035,
      "ĠwygraÅĤeÅĽ": 7036,
      "ĠrozsÄħdnym": 7037,
      "ĠwaÅ¼ny": 7038,
      "ĠsprawdziÅĤem": 7039,
      "Ġimprezy": 7040,
      "Ġprzo": 7041,
      "Ġwielkie": 7042,
      "Ġkolejce": 7043,
      "ĠodwiedzÄĻ": 7044,
      "Ġnajlepsze": 7045,
      "Ġnajlepszych": 7046,
      "Ġpolicjanta": 7047,
      "Ġwstawaj": 7048,
      "ĠnapisaÅĤa": 7049,
      "ĠskoÅĦczÄĻ": 7050,
      "ĠskoÅĦczenie": 7051,
      "ĠskoÅĦczeniu": 7052,
      "ĠszczÄĻÅĽliwym": 7053,
      "ĠrzuÄĩ": 7054,
      "ĠkÅĤamaÄĩ": 7055,
      "Ġdywa": 7056,
      "ĠciÄħÅ¼y": 7057,
      "ĠpÃ³ÅĤno": 7058,
      "Ġprzejmuj": 7059,
      "Ġzagad": 7060,
      "ĠurodziÅĤa": 7061,
      "Ġubrany": 7062,
      "ĠzgodziÅĤem": 7063,
      "ĠdowiedziaÅĤem": 7064,
      "ÅĽciach": 7065,
      "Ġstarych": 7066,
      "niosÄĻ": 7067,
      "Ġgruba": 7068,
      "ĠgrupÄĻ": 7069,
      "ĠptakÃ³w": 7070,
      "Ġniebezpiecznie": 7071,
      "Ġokazja": 7072,
      "Ġpolityk": 7073,
      "ĠwÅĤasnÄħ": 7074,
      "ĠrÃ³Å¼nicy": 7075,
      "ĠwykoÅĦ": 7076,
      "ĠwyszÅĤo": 7077,
      "ĠwychodziÅĤ": 7078,
      "Ġpojawi": 7079,
      "Ġdoktora": 7080,
      "ĠpoÅĤoÅ¼yÄĩ": 7081,
      "Ġwiosna": 7082,
      "Ġwiosny": 7083,
      "ĠwiosnÄħ": 7084,
      "ĠrozmawiajÄħ": 7085,
      "Ġsilnik": 7086,
      "ĠamerykaÅĦski": 7087,
      "ĠmÅĤodym": 7088,
      "ĠjapoÅĦskie": 7089,
      "ĠschowaÄĩ": 7090,
      "Ġdrzewem": 7091,
      "Ġuczucia": 7092,
      "raziÅĤem": 7093,
      "ĠpoczuÅĤem": 7094,
      "ĠwybraÅĤ": 7095,
      "Ġfirmie": 7096,
      "ĠâĢĭâĢ": 7097,
      "ĠoczekujÄĻ": 7098,
      "Ġwspania": 7099,
      "Ġniewiary": 7100,
      "Ġocea": 7101,
      "Ġrachunku": 7102,
      "Ġkoszula": 7103,
      "ĠprzybyÅĤem": 7104,
      "ĠspojrzeÄĩ": 7105,
      "Ġzimy": 7106,
      "Ġzima": 7107,
      "Ġwiersze": 7108,
      "cyjnej": 7109,
      "Ġmartwisz": 7110,
      "Ġwybory": 7111,
      "Ġwojsko": 7112,
      "ĠbawiÅĤem": 7113,
      "Ġwakacji": 7114,
      "Ġnieporozumie": 7115,
      "ĠwÅĤaÅĽcicielem": 7116,
      "Ġkomputerowe": 7117,
      "Ġwinogro": 7118,
      "Ġnosisz": 7119,
      "ĠduÅ¼ego": 7120,
      "ĠwydawaÄĩ": 7121,
      "Ġprzypadkiem": 7122,
      "Ġinformacja": 7123,
      "Ġnarty": 7124,
      "Ġnarciar": 7125,
      "ĠwspÃ³ÅĤloka": 7126,
      "Ġpoczta": 7127,
      "ĠwysÅĤaÅĤem": 7128,
      "ĠwyÅĤÄħcz": 7129,
      "ĠÅĽlubu": 7130,
      "Ġzwyczaju": 7131,
      "ĠdruÅ¼ynie": 7132,
      "ĠspadÅĤo": 7133,
      "Ġspotykam": 7134,
      "ĠzdarzyÄĩ": 7135,
      "Ġuczniami": 7136,
      "ĠwÅĤÄħcz": 7137,
      "ĠopiniÄĻ": 7138,
      "Ġopisania": 7139,
      "ĠdoÅĤÄħczÄĻ": 7140,
      "Ġuzasad": 7141,
      "Ġwycieczce": 7142,
      "Ġstoliku": 7143,
      "ĠzraniÅĤ": 7144,
      "Ġkame": 7145,
      "Ġsztuki": 7146,
      "Ġskup": 7147,
      "ĠwdziÄĻczni": 7148,
      "ĠzginÄĻÅĤo": 7149,
      "Ġzawod": 7150,
      "ĠzawoÅĤa": 7151,
      "Ġprzewod": 7152,
      "Ġkierowca": 7153,
      "ĠchorobÄĻ": 7154,
      "Ġpodatki": 7155,
      "Ġjeziora": 7156,
      "Ġzasadzie": 7157,
      "ĠÅ¼oÅĤnierzy": 7158,
      "Ġinternecie": 7159,
      "Ġwybacz": 7160,
      "ĠodrzuciÅĤ": 7161,
      "ĠÅĽwietnÄħ": 7162,
      "ĠÅĽwietnym": 7163,
      "Ġkontakcie": 7164,
      "Ġzmuszony": 7165,
      "ĠzaÅĽpiewaÅĤ": 7166,
      "Ġmilczenie": 7167,
      "tywnie": 7168,
      "ĠsÄħsiadami": 7169,
      "Ġ2013": 7170,
      "ĠistniejÄħ": 7171,
      "dium": 7172,
      "ĠodmÃ³wiÅĤ": 7173,
      "Ġdrugiego": 7174,
      "ĠukoÅĦczy": 7175,
      "ĠukoÅĦczyÄĩ": 7176,
      "Ġupewnij": 7177,
      "Ġwyklu": 7178,
      "ĠwyksztaÅĤ": 7179,
      "ĠwypeÅĤnij": 7180,
      "Ġkomik": 7181,
      "ĠodpowiadaÄĩ": 7182,
      "Ġobcych": 7183,
      "ĠrozwiÄħzania": 7184,
      "ĠkontynuowaÄĩ": 7185,
      "ĠzasÅĤugujÄĻ": 7186,
      "Ġniemow": 7187,
      "Ġniemcy": 7188,
      "Ġorgani": 7189,
      "Ġosiemna": 7190,
      "ĠczekoladÄĻ": 7191,
      "ĠpoÅĤÃ³Å¼": 7192,
      "Ġklifu": 7193,
      "ĠsÅĤodkie": 7194,
      "ĠzdÄħÅ¼yÄĩ": 7195,
      "ĠlodÃ³wce": 7196,
      "ĠksiÄĻÅ¼ycu": 7197,
      "ĠzrezygnowaÅĤ": 7198,
      "ĠochronÄĻ": 7199,
      "Ġdokument": 7200,
      "ĠprzestÄĻpstwo": 7201,
      "Ġzacznijmy": 7202,
      "Ġwieczoru": 7203,
      "Ġwidziany": 7204,
      "Ġfartu": 7205,
      "ĠweszÅĤa": 7206,
      "Ġwyczerpany": 7207,
      "serwa": 7208,
      "Ġpoprzed": 7209,
      "Ġzamieszki": 7210,
      "ĠdoskonaÅĤy": 7211,
      "ĠstworzyÅĤ": 7212,
      "Ġrzeczywisto": 7213,
      "ĠpasaÅ¼erowie": 7214,
      "ĠtÅĤum": 7215,
      "Ġtwardy": 7216,
      "ĠzaÅĤÃ³Å¼": 7217,
      "ĠÅ¼ywnoÅĽci": 7218,
      "Ġnapisane": 7219,
      "Ġsekun": 7220,
      "ĠkamieÅĦ": 7221,
      "Ġhumorze": 7222,
      "Ġhumoru": 7223,
      "Ġdodatk": 7224,
      "Ġteoria": 7225,
      "ĠpiechotÄĻ": 7226,
      "ĠpiechotÄħ": 7227,
      "ĠwoÅĤowi": 7228,
      "ĠplanetÄħ": 7229,
      "Ġkontynentem": 7230,
      "Ġskarpety": 7231,
      "Ġfotograficzny": 7232,
      "ĠwypoÅ¼y": 7233,
      "Ġperfek": 7234,
      "ĠzapaliÅĤ": 7235,
      "ĠprzeziÄĻbienie": 7236,
      "Ġnormalnie": 7237,
      "Ġbejsbol": 7238,
      "ĠpielÄĻgniarkÄħ": 7239,
      "Ġzorganiz": 7240,
      "ĠponiÅ¼ej": 7241,
      "Ġwideo": 7242,
      "Ġskompli": 7243,
      "Ġostatecznie": 7244,
      "ĠbezpieczeÅĦstwo": 7245,
      "ĠkredytowÄħ": 7246,
      "ĠkomÃ³rkowy": 7247,
      "Ġatrakcyj": 7248,
      "Ġdziennik": 7249,
      "Ġfryzje": 7250,
      "Ġsufit": 7251,
      "Ġniespodzianka": 7252,
      "Ġjorku": 7253,
      "Ġpobrali": 7254,
      "Ġbrzyd": 7255,
      "Ġnaszymi": 7256,
      "ĠstwierdziÅĤ": 7257,
      "Ġzespole": 7258,
      "Ġbezdomny": 7259,
      "Ġwczesnym": 7260,
      "Ġspojrzeli": 7261,
      "Ġskrzypcach": 7262,
      "Ġpojutrze": 7263,
      "ĠpobawiÄĩ": 7264,
      "Ġjaskini": 7265,
      "Ġwyzdrowieje": 7266,
      "Ġniezadowolony": 7267,
      "ĠwpÃ³ÅĤ": 7268,
      "ĠpodwyÅ¼kÄĻ": 7269,
      "Ġkandyda": 7270,
      "Ġzdejmij": 7271,
      "Ġindiach": 7272,
      "ĠbezpoÅĽredni": 7273,
      "Ġzastanawia": 7274,
      "ĠpokazywaÅĤeÅĽ": 7275,
      "Ġfantasty": 7276,
      "ĠprzeciwsÅĤoneczne": 7277,
      "ĠrÄħk": 7278,
      "ĠwtrÄħ": 7279,
      "ĠjeÅ¼dÅ¼ÄĻ": 7280,
      "Ġafry": 7281,
      "ĠÅĽlepy": 7282,
      "Ġczasopis": 7283,
      "Ġtancerzem": 7284,
      "Ġmelod": 7285,
      "Ġekspertem": 7286,
      "ĠkilometrÃ³w": 7287,
      "Ġnietrudno": 7288,
      "Ġgimna": 7289,
      "Ġmagazy": 7290,
      "Ġaspiry": 7291,
      "ĠzespÃ³ÅĤ": 7292,
      "Ġobcokraj": 7293,
      "ĠâĢĭâĢĭ": 7294,
      "cowanie": 7295,
      "dowaÄĩ": 7296,
      "der": 7297,
      "dent": 7298,
      "gby": 7299,
      "iÅĤ": 7300,
      "iusz": 7301,
      "izo": 7302,
      "kowo": 7303,
      "knÄħÅĤem": 7304,
      "klam": 7305,
      "ngo": 7306,
      "ncie": 7307,
      "naÅĤeÅĽ": 7308,
      "ont": 7309,
      "ph": 7310,
      "rnie": 7311,
      "rny": 7312,
      "rne": 7313,
      "raÅĤy": 7314,
      "sek": 7315,
      "sowany": 7316,
      "tnym": 7317,
      "ul": 7318,
      "uÅ¼y": 7319,
      "wnia": 7320,
      "wÃ³d": 7321,
      "zaÄĩ": 7322,
      "zja": 7323,
      "znÄĻ": 7324,
      "Ġen": 7325,
      "ÅĤow": 7326,
      "Ġtar": 7327,
      "Ġtry": 7328,
      "Ġtkwi": 7329,
      "ĠpÄĻ": 7330,
      "ĠpÃ³ki": 7331,
      "Ġnego": 7332,
      "Ġmle": 7333,
      "Ġste": 7334,
      "Ġsez": 7335,
      "Ġwnu": 7336,
      "Ġwer": 7337,
      "ĠwciÄħg": 7338,
      "Ġwsiad": 7339,
      "ĠwstÄħpi": 7340,
      "ĠwsiadÅĤ": 7341,
      "Ġwhi": 7342,
      "Ġzwa": 7343,
      "Ġzrzu": 7344,
      "Ġzgodnie": 7345,
      "Ġju": 7346,
      "staÅĤ": 7347,
      "stki": 7348,
      "stkÄħ": 7349,
      "ÅĽla": 7350,
      "ÅĽnij": 7351,
      "dzaÅĤem": 7352,
      "Ġnieprze": 7353,
      "Ġnierucho": 7354,
      "Ġniegrze": 7355,
      "Ġpolu": 7356,
      "Ġpopi": 7357,
      "Ġpopad": 7358,
      "Ġpolep": 7359,
      "Ġpodzieli": 7360,
      "ĠpostÄħpi": 7361,
      "Ġpostrze": 7362,
      "Ġjesie": 7363,
      "ĠjechaÅĤ": 7364,
      "szon": 7365,
      "Ġdba": 7366,
      "Ġdrabi": 7367,
      "Ġdemo": 7368,
      "roni": 7369,
      "rowy": 7370,
      "rowaÅĤem": 7371,
      "Ġol": 7372,
      "Ġkrwa": 7373,
      "Ġnago": 7374,
      "Ġnary": 7375,
      "Ġnakar": 7376,
      "niemy": 7377,
      "niesie": 7378,
      "amo": 7379,
      "niÅĤam": 7380,
      "niamy": 7381,
      "niona": 7382,
      "Å¼et": 7383,
      "Ġzary": 7384,
      "Ġzapo": 7385,
      "Ġzatrzy": 7386,
      "ĠzarzÄħ": 7387,
      "Ġzapisz": 7388,
      "Ġdosto": 7389,
      "Ġdotrzym": 7390,
      "Ġdotrz": 7391,
      "Ġdolary": 7392,
      "lika": 7393,
      "likiem": 7394,
      "liwoÅĽÄĩ": 7395,
      "wizy": 7396,
      "les": 7397,
      "cina": 7398,
      "czkÃ³w": 7399,
      "Ġmodli": 7400,
      "Ġust": 7401,
      "Ġuzy": 7402,
      "Ġunie": 7403,
      "Ġuja": 7404,
      "Ġutrzy": 7405,
      "Ġurucho": 7406,
      "Ġbystry": 7407,
      "biÅĤ": 7408,
      "Ġteat": 7409,
      "wieni": 7410,
      "Ġwywo": 7411,
      "Ġwynik": 7412,
      "Ġwypowie": 7413,
      "Ġwystra": 7414,
      "ĠwymÃ³": 7415,
      "Ġwygodne": 7416,
      "woz": 7417,
      "kai": 7418,
      "ÅĤat": 7419,
      "ĠmiÅĤa": 7420,
      "ĠmiÅĤe": 7421,
      "ĠminÄĻÅĤy": 7422,
      "dywa": 7423,
      "Ġrol": 7424,
      "Ġrock": 7425,
      "Ġgli": 7426,
      "Ġczytaj": 7427,
      "Ġczyste": 7428,
      "Ġwielko": 7429,
      "rzenie": 7430,
      "Ġprzerwa": 7431,
      "ĠprzenieÅĽÄĩ": 7432,
      "Ġprzesp": 7433,
      "wajÄħ": 7434,
      "waliÅĽmy": 7435,
      "Ġprzys": 7436,
      "Ġprzyno": 7437,
      "Ġkoper": 7438,
      "ĠmÃ³wienie": 7439,
      "ĠmÃ³wienia": 7440,
      "Ġodt": 7441,
      "ĠoddaÄĩ": 7442,
      "Ġoddech": 7443,
      "Ġape": 7444,
      "Ġado": 7445,
      "Ġpras": 7446,
      "Ġpranie": 7447,
      "rzyja": 7448,
      "rzysta": 7449,
      "rzyjmy": 7450,
      "kujÄħ": 7451,
      "kujemy": 7452,
      "rych": 7453,
      "niach": 7454,
      "ĠÅĽciÄħg": 7455,
      "ĠzrobiÅĤo": 7456,
      "rew": 7457,
      "Ġszli": 7458,
      "ĠstÄĻ": 7459,
      "Ġstru": 7460,
      "ĠstrzaÅĤ": 7461,
      "Ġmyje": 7462,
      "ĠwiniÄĻ": 7463,
      "Ġwitaj": 7464,
      "Ġranek": 7465,
      "Ġraportu": 7466,
      "ĠbyÅĤbyÅĽ": 7467,
      "Ġrozmy": 7468,
      "ĠdziewiÄĻ": 7469,
      "ĠsÄħsiada": 7470,
      "Ġmogliby": 7471,
      "ĠpodÄħ": 7472,
      "ĠpodjÄĻ": 7473,
      "ĠpoddaÅĤ": 7474,
      "ĠpodnieÅĽ": 7475,
      "rujesz": 7476,
      "ĠpalÄĻ": 7477,
      "ĠpaÅĦstwa": 7478,
      "mujÄħ": 7479,
      "mujesz": 7480,
      "dzone": 7481,
      "Ġkieszon": 7482,
      "Ġspor": 7483,
      "ĠpiÅĤem": 7484,
      "Ġpilo": 7485,
      "Ġping": 7486,
      "Ġpotwier": 7487,
      "Ġdobro": 7488,
      "Ġkawi": 7489,
      "ĠkawÄħ": 7490,
      "ĠmÃ³wicie": 7491,
      "nujÄħ": 7492,
      "Ġzej": 7493,
      "Ġzezna": 7494,
      "Ġznany": 7495,
      "Ġtwoi": 7496,
      "tujemy": 7497,
      "Ġczekamy": 7498,
      "owiec": 7499,
      "gapu": 7500,
      "Ġpech": 7501,
      "ĠlubiÅĤa": 7502,
      "ĠzapaÅĤ": 7503,
      "Ġzapal": 7504,
      "Ġzapark": 7505,
      "ĠwoÅĤa": 7506,
      "Ġobrzy": 7507,
      "Ġobcego": 7508,
      "Ġtamta": 7509,
      "ĠtamtÄħ": 7510,
      "Ġincyd": 7511,
      "logi": 7512,
      "Ġtrzysta": 7513,
      "ĠchodziÅĤem": 7514,
      "Ġpozio": 7515,
      "ĠpozbyÄĩ": 7516,
      "Ġstali": 7517,
      "Ġnogach": 7518,
      "Ġprzezna": 7519,
      "ĠÅ¼yczÄĻ": 7520,
      "Ġbio": 7521,
      "Ġbit": 7522,
      "ĠbiaÅĤo": 7523,
      "ĠnajwaÅ¼": 7524,
      "ĠzawdziÄĻ": 7525,
      "Ġskoro": 7526,
      "ĠzostanÄħ": 7527,
      "ĠbezuÅ¼y": 7528,
      "arzaÄĩ": 7529,
      "niejszym": 7530,
      "ĠskÅĤad": 7531,
      "Ġdasz": 7532,
      "Ġdaje": 7533,
      "Ġdachu": 7534,
      "Ġdawaj": 7535,
      "ĠdÅĤuga": 7536,
      "Ġtelewizy": 7537,
      "Ġrodzinie": 7538,
      "Ġrodzimego": 7539,
      "Ġsprawoz": 7540,
      "ĠrzeczÄħ": 7541,
      "Ġsier": 7542,
      "ĠkaÅ¼dÄħ": 7543,
      "czÄħce": 7544,
      "ĠktÃ³rymi": 7545,
      "Ġbrazy": 7546,
      "ĠbramÄĻ": 7547,
      "ĠzajÄĻte": 7548,
      "ĠzrobiÅĤby": 7549,
      "Ġpytaj": 7550,
      "ĠpytaÄĩ": 7551,
      "Ġbuzi": 7552,
      "Ġsur": 7553,
      "Ġsurowo": 7554,
      "ĠcaÅĤego": 7555,
      "ĠokrÄħ": 7556,
      "tnika": 7557,
      "Ġdobrymi": 7558,
      "ĠnauczyÅĤeÅĽ": 7559,
      "Ġodpowiedz": 7560,
      "Ġodpowiednie": 7561,
      "ĠumiejÄĻt": 7562,
      "Ġstarego": 7563,
      "Ġpewni": 7564,
      "Ġwspomi": 7565,
      "Ġproblemie": 7566,
      "Ġbadania": 7567,
      "Ġbalon": 7568,
      "Ġrepu": 7569,
      "Ġregi": 7570,
      "Ġdeka": 7571,
      "ĠgÅĤosu": 7572,
      "skich": 7573,
      "Ġducha": 7574,
      "onami": 7575,
      "Ġpusta": 7576,
      "Ġogrod": 7577,
      "ĠÅĤap": 7578,
      "ĠÅĤawce": 7579,
      "dziÄĻkujÄĻ": 7580,
      "Ġtrzeciej": 7581,
      "ĠprÃ³bowali": 7582,
      "ĠpokÅĤÃ³": 7583,
      "Ġludziom": 7584,
      "ĠwolaÅĤ": 7585,
      "ĠwolnoÅĽÄĩ": 7586,
      "Ġdziewczynka": 7587,
      "Ġkogokolwiek": 7588,
      "Ġtrudem": 7589,
      "Ġspotkamy": 7590,
      "ĠwidziaÅĤaÅĽ": 7591,
      "Ġlos": 7592,
      "Ġlot": 7593,
      "Ġzdespe": 7594,
      "ĠchwilkÄĻ": 7595,
      "Ġumrze": 7596,
      "ĠumrÄĻ": 7597,
      "skry": 7598,
      "stecz": 7599,
      "ĠpÅĤacÄĻ": 7600,
      "szczaÅĤ": 7601,
      "ĠkosztowaÄĩ": 7602,
      "ĠkosztowaÅĤ": 7603,
      "Ġklucza": 7604,
      "ĠgaÅĽ": 7605,
      "Ġpracowi": 7606,
      "Ġpracownik": 7607,
      "Ġmeta": 7608,
      "ĠciÄĻÅ¼ka": 7609,
      "Ġzabity": 7610,
      "Ġzabija": 7611,
      "ĠÅĽpiewam": 7612,
      "Ġ14": 7613,
      "ĠukÅĤo": 7614,
      "Ġpotrzebna": 7615,
      "Ġaustralia": 7616,
      "Ġcelem": 7617,
      "dzajÄħ": 7618,
      "Ġurodzenia": 7619,
      "ĠtenisistÄħ": 7620,
      "ĠpodobajÄħ": 7621,
      "ĠzadbaÄĩ": 7622,
      "ĠdziaÅĤaÅĤ": 7623,
      "Ġtrady": 7624,
      "ĠdrugÄħ": 7625,
      "Ġszes": 7626,
      "Ġszero": 7627,
      "ĠposzÅĤy": 7628,
      "ĠnadwagÄĻ": 7629,
      "ĠsprzedaÅĤ": 7630,
      "ĠzasnÄħÅĤem": 7631,
      "Ġkochamy": 7632,
      "Ġfizy": 7633,
      "Ġuczymy": 7634,
      "Ġzdrowego": 7635,
      "ĠwiÄĻkszego": 7636,
      "ĠprzestaÅĦcie": 7637,
      "ĠzÅĤych": 7638,
      "ĠdokÅĤadkÄĻ": 7639,
      "ĠzapÅĤacÄĻ": 7640,
      "ĠÅĤatwa": 7641,
      "ĠÅĤatwy": 7642,
      "Ġdziwna": 7643,
      "Ġklasa": 7644,
      "Ġwypadki": 7645,
      "ĠwziÄħÅĤeÅĽ": 7646,
      "Ġautobusowy": 7647,
      "ĠzaczynajÄħ": 7648,
      "fabe": 7649,
      "ĠzÅĤota": 7650,
      "ĠprowadzÄĻ": 7651,
      "ĠprowadziÅĤ": 7652,
      "trzeb": 7653,
      "ĠkobietÄĻ": 7654,
      "ĠwygraÅĤa": 7655,
      "ĠsprawdzÄĻ": 7656,
      "ĠnastÄĻpne": 7657,
      "ĠnastÄĻpnÄħ": 7658,
      "ĠodebraÄĩ": 7659,
      "ĠodebraÅĤ": 7660,
      "ĠspÃ³ÅºniÅĤeÅĽ": 7661,
      "ĠznajdÅº": 7662,
      "Ġsenny": 7663,
      "Ġspanik": 7664,
      "ĠuwaÅ¼ajÄħ": 7665,
      "Ġakad": 7666,
      "Ġodwiedza": 7667,
      "ĠÅĽmierciÄħ": 7668,
      "Ġroweru": 7669,
      "Ġruch": 7670,
      "Ġrugby": 7671,
      "Ġtema": 7672,
      "ĠÅĽrodowi": 7673,
      "Ġpoczekam": 7674,
      "ĠgorÄħcej": 7675,
      "ĠzdawaÅĤem": 7676,
      "ĠpisaÅĤ": 7677,
      "ĠpisaÅĤem": 7678,
      "ĠpomaraÅĦczy": 7679,
      "ĠrzuciÅĤem": 7680,
      "Ġzakop": 7681,
      "ĠmiesiÄħca": 7682,
      "ĠpodejdÅº": 7683,
      "Ġlepszego": 7684,
      "ĠpÃ³ÅĤkÄĻ": 7685,
      "ĠmaÅĤego": 7686,
      "ĠzmieniÅĤeÅĽ": 7687,
      "ĠprÃ³bujemy": 7688,
      "Ġkrawa": 7689,
      "Ġnapij": 7690,
      "ĠdziaÅĤania": 7691,
      "Ġniesprawiedli": 7692,
      "Ġubrana": 7693,
      "Ġkucharzem": 7694,
      "ĠczerwonÄħ": 7695,
      "Ġczerwonego": 7696,
      "Ġdowiemy": 7697,
      "Ġnaszemu": 7698,
      "ĠoglÄħdasz": 7699,
      "ĠsÅĤaw": 7700,
      "ĠsÅĤabo": 7701,
      "ĠzwiedziÄĩ": 7702,
      "Ġszans": 7703,
      "ĠzÅĤej": 7704,
      "niosÅĤa": 7705,
      "Ġdostaje": 7706,
      "ĠopowieÅĽci": 7707,
      "ĠokazaÅĤo": 7708,
      "rowali": 7709,
      "ĠrÃ³Å¼nych": 7710,
      "Ġhistorii": 7711,
      "ĠwypiÄĩ": 7712,
      "ĠkrÃ³lem": 7713,
      "ĠprzygotowaÄĩ": 7714,
      "Ġprzygotowani": 7715,
      "ĠstudiowaÅĤ": 7716,
      "ĠstudiujÄĻ": 7717,
      "ĠsÅĤoÅĦcu": 7718,
      "karkÄħ": 7719,
      "Ġpojazd": 7720,
      "ĠpocaÅĤowaÅĤa": 7721,
      "Ġczytaniu": 7722,
      "kÅĤego": 7723,
      "ĠÅĤadny": 7724,
      "ĠzwÅĤo": 7725,
      "ĠpoÅĤoÅ¼yÅĤeÅĽ": 7726,
      "Ġbrzmie": 7727,
      "ĠzatÅĤo": 7728,
      "ĠsÅĤuchaÅĤem": 7729,
      "ĠumyÅĤ": 7730,
      "Ġamerykanie": 7731,
      "ĠamerykanÃ³w": 7732,
      "Ġgryzie": 7733,
      "ĠobudziÄĩ": 7734,
      "ĠobudziÅĤ": 7735,
      "Ġczarno": 7736,
      "Ġprawdziwym": 7737,
      "ĠmÅĤodych": 7738,
      "Ġsmutne": 7739,
      "ĠuÅĽmiechem": 7740,
      "ĠinteresujÄħca": 7741,
      "ĠschowaÅĤ": 7742,
      "Ġtajemnica": 7743,
      "Ġholu": 7744,
      "Ġstraszne": 7745,
      "Ġweekendy": 7746,
      "Ġgolf": 7747,
      "Ġwalki": 7748,
      "ĠstudentkÄħ": 7749,
      "ĠwyjaÅĽniÅĤem": 7750,
      "Ġsukcesem": 7751,
      "Ġkrowy": 7752,
      "Ġrozpoz": 7753,
      "ĠmÅĤodsza": 7754,
      "Ġbrzmisz": 7755,
      "ĠpowaÅ¼ny": 7756,
      "Ġbutelki": 7757,
      "ĠukryÄĩ": 7758,
      "Ġprzeszkadzam": 7759,
      "ĠwÄĻÅ¼y": 7760,
      "ĠwÄĻÅ¼a": 7761,
      "Ġniewido": 7762,
      "ĠksiÄĻgo": 7763,
      "ĠprzeprowadziÅĤ": 7764,
      "Ġpozostali": 7765,
      "ĠchcielibyÅĽmy": 7766,
      "Ġsamych": 7767,
      "ĠbawiliÅĽmy": 7768,
      "Ġniepopraw": 7769,
      "Ġniepotrzeb": 7770,
      "ĠzabÃ³j": 7771,
      "ĠzabraÅĤ": 7772,
      "Ġangielskim": 7773,
      "ĠposprzÄħta": 7774,
      "Ġkomputero": 7775,
      "ĠoÅĤÃ³wka": 7776,
      "ĠprzeraÅ¼ony": 7777,
      "Ġmiejscach": 7778,
      "ĠszczegÃ³l": 7779,
      "Ġzabawnie": 7780,
      "Ġpropozycja": 7781,
      "Ġpropozycji": 7782,
      "ĠwspaniaÅĤa": 7783,
      "ĠwydawaÅĤo": 7784,
      "Ġzepsuty": 7785,
      "Ġzepsute": 7786,
      "ĠsprzedaÅ¼": 7787,
      "ĠrozwiÄħzaÅĤ": 7788,
      "ĠrozwiÄħzaÅĤem": 7789,
      "Ġegzaminu": 7790,
      "nictwo": 7791,
      "Ġrankiem": 7792,
      "ĠpoÅ¼aÅĤ": 7793,
      "ĠwyÅĤÄħczyÅĤ": 7794,
      "Ġprzyzwoi": 7795,
      "Ġaparatu": 7796,
      "ĠpopoÅĤudniu": 7797,
      "ĠzaoszczÄĻ": 7798,
      "Ġ194": 7799,
      "Ġosobisty": 7800,
      "ĠwÅĤÄħczony": 7801,
      "ĠwÅĤÄħczyÅĤ": 7802,
      "Ġniewielu": 7803,
      "ĠÅĽciany": 7804,
      "ĠÅĽcianÄĻ": 7805,
      "Ġzmart": 7806,
      "Ġchleba": 7807,
      "Ġrozmowie": 7808,
      "Ġstolik": 7809,
      "Ġobrazek": 7810,
      "Ġryzyko": 7811,
      "ĠprzemyÅĽle": 7812,
      "ĠcierpliwoÅĽÄĩ": 7813,
      "Ġwezwij": 7814,
      "Ġprywat": 7815,
      "ĠmatematykÄĻ": 7816,
      "Ġwysp": 7817,
      "Ġcytry": 7818,
      "ĠposiÅĤki": 7819,
      "Ġfunk": 7820,
      "Ġsoboty": 7821,
      "Ġnieuprze": 7822,
      "Ġmylisz": 7823,
      "Ġtruska": 7824,
      "ĠzÅĤamane": 7825,
      "ĠstrzeliÅĤ": 7826,
      "ĠmÄĻÅ¼atkÄħ": 7827,
      "wzglÄĻ": 7828,
      "Ġjedziemy": 7829,
      "Ġpoddawaj": 7830,
      "ĠpowtÃ³rzy": 7831,
      "ĠpowtÃ³rzyÄĩ": 7832,
      "Ġzakochani": 7833,
      "Ġcudowny": 7834,
      "Ġobcym": 7835,
      "Ġniesamowicie": 7836,
      "Ġpoprawnie": 7837,
      "Ġorganiz": 7838,
      "ĠwytÅĤumaczyÄĩ": 7839,
      "ĠwytÅĤumaczyÅĤ": 7840,
      "Ġmiejscowym": 7841,
      "Ġstudiach": 7842,
      "ĠfiliÅ¼anki": 7843,
      "ĠÅĤyÅ¼": 7844,
      "Ġpochwa": 7845,
      "Ġpochmur": 7846,
      "ĠzawiÃ³dÅĤ": 7847,
      "ĠokÅĤamy": 7848,
      "ĠrÄĻkach": 7849,
      "ĠzemdlaÅĤ": 7850,
      "Ġstypen": 7851,
      "ĠdotarÅĤem": 7852,
      "Ġwidzimy": 7853,
      "ĠkomÃ³rkÄĻ": 7854,
      "ĠsÅĤodki": 7855,
      "ĠuÅ¼ytkownikiem": 7856,
      "ĠuÅ¼ytkownicy": 7857,
      "ĠosiÄħgnÄħÄĩ": 7858,
      "Ġurlopie": 7859,
      "Ġuniwersytecie": 7860,
      "Ġdowci": 7861,
      "ĠuratowaÄĩ": 7862,
      "Ġrobienie": 7863,
      "ĠzdarzajÄħ": 7864,
      "ĠoskarÅ¼ony": 7865,
      "Ġprzeczytania": 7866,
      "ĠzrezygnowaÄĩ": 7867,
      "ĠpoÅ¼aru": 7868,
      "Ġpodziwiam": 7869,
      "Ġufasz": 7870,
      "Ġszczury": 7871,
      "pianie": 7872,
      "ĠrozbiÅĤ": 7873,
      "ĠpacjentÃ³w": 7874,
      "ĠzapaliÄĩ": 7875,
      "Ġhaz": 7876,
      "Ġprezydent": 7877,
      "Ġzazdrosna": 7878,
      "Ġwidziani": 7879,
      "Ġplotka": 7880,
      "Ġdrewna": 7881,
      "Ġdrewnia": 7882,
      "Ġbel": 7883,
      "Ġuprawia": 7884,
      "ĠnajbliÅ¼sza": 7885,
      "Ġstosunkach": 7886,
      "ĠrozpoznajÄĻ": 7887,
      "ĠwpÅĤyw": 7888,
      "ĠdowodÃ³w": 7889,
      "Ġproduk": 7890,
      "Ġdenerwuje": 7891,
      "ĠrzeczywiÅĽcie": 7892,
      "ĠmÄħdrzejsza": 7893,
      "ĠzignorowaÅĤ": 7894,
      "Ġmorderstwo": 7895,
      "Ġupoko": 7896,
      "Ġtermin": 7897,
      "Ġterrory": 7898,
      "ĠidiotÄħ": 7899,
      "Ġgniewa": 7900,
      "Ġprzygotuj": 7901,
      "Ġramionami": 7902,
      "Ġzobaczmy": 7903,
      "Ġwesele": 7904,
      "ĠwspiÄħ": 7905,
      "Ġspotykasz": 7906,
      "ĠtrwaÅĤo": 7907,
      "ĠrozumiaÅĤ": 7908,
      "ĠsiatkÃ³w": 7909,
      "Ġsamochodowym": 7910,
      "ĠparyÅ¼u": 7911,
      "Ġposzuki": 7912,
      "ĠhiszpaÅĦ": 7913,
      "...": 7914,
      "Ġdiab": 7915,
      "ĠbrÄħzowy": 7916,
      "ĠprzymierzyÄĩ": 7917,
      "ĠprzyznaÄĩ": 7918,
      "ĠczÅĤonk": 7919,
      "ĠmieszkaÅĤeÅĽ": 7920,
      "ĠwskazÃ³wek": 7921,
      "ĠzasÅĤony": 7922,
      "ĠkrÃ³lika": 7923,
      "ĠklientÃ³w": 7924,
      "Ġzanied": 7925,
      "ĠodwrÃ³ciÅĤ": 7926,
      "ĠmyÅĽleli": 7927,
      "ĠpodwiÃ³zÅĤ": 7928,
      "ĠbiaÅĤÄħ": 7929,
      "Ġpoczekajmy": 7930,
      "ĠwyjeÅ¼dÅ¼amy": 7931,
      "Ġprezydenta": 7932,
      "Ġinteligentne": 7933,
      "ĠÅĤatwiejsze": 7934,
      "ĠwygÅĤosiÅĤ": 7935,
      "Ġmeksyka": 7936,
      "ĠtolerowaÄĩ": 7937,
      "ĠbÅĤagaÅĤ": 7938,
      "ĠodezwaÅĤ": 7939,
      "ĠwzgÃ³rzu": 7940,
      "ĠsÅĤodyczy": 7941,
      "ĠzachowywaÄĩ": 7942,
      "Ġposiadam": 7943,
      "Ġnastolatkiem": 7944,
      "Ġinstruk": 7945,
      "Ġkilkoro": 7946,
      "Ġfortepianie": 7947,
      "Ġdokumenty": 7948,
      "Ġziemniaki": 7949,
      "Ġkelne": 7950,
      "Ġzaprasz": 7951,
      "ĠchwyciÅĤ": 7952,
      "ĠprzygnÄĻ": 7953,
      "ĠrozzÅĤoÅĽciÄĩ": 7954,
      "Ġsingapu": 7955,
      "ĠmetrÃ³w": 7956,
      "ĠudowodniÄĩ": 7957,
      "Ġdworca": 7958,
      "ĠekscytujÄħce": 7959,
      "ĠpoÅĽlubiÄĩ": 7960,
      "ĠÅĽrubokrÄĻt": 7961,
      "ĠskinÄħÅĤ": 7962,
      "ĠodrÃ³Å¼niÄĩ": 7963,
      "Ġasyst": 7964,
      "ĠpotrÄħcony": 7965,
      "Ġwzajemnie": 7966,
      "ĠrealistÄħ": 7967,
      "Ġtrawnik": 7968,
      "ĠszczegÃ³ÅĤy": 7969,
      "ĠnarkotykÃ³w": 7970,
      "Ġkorporacji": 7971,
      "Ġniecierpliwy": 7972,
      "Ġdzba": 7973,
      "Ġalarm": 7974,
      "ĠrezerwacjÄĻ": 7975,
      "Ġatrakcyjna": 7976,
      "Ġwhisk": 7977,
      "Ġnieruchomo": 7978,
      "Ġdemokra": 7979,
      "Ġdotrzemy": 7980,
      "Ġujaw": 7981,
      "ĠdziewiÄĻÄĩ": 7982,
      "ĠzawdziÄĻczam": 7983,
      "Ġpochmurno": 7984,
      "aÅĦ": 7985,
      "ble": 7986,
      "brzy": 7987,
      "bÄħdÅº": 7988,
      "cam": 7989,
      "cki": 7990,
      "eb": 7991,
      "el": 7992,
      "eru": 7993,
      "gadaÄĩ": 7994,
      "ir": 7995,
      "iÄĩ": 7996,
      "iÅĤa": 7997,
      "ian": 7998,
      "kÅĤy": 7999
    },
    "merges": [
      [
        "i",
        "e"
      ],
      [
        "Å",
        "Ĥ"
      ],
      [
        "Ġ",
        "t"
      ],
      [
        "Ġ",
        "p"
      ],
      [
        "Ä",
        "Ļ"
      ],
      [
        "Ġ",
        "n"
      ],
      [
        "Ġ",
        "m"
      ],
      [
        "Ġ",
        "s"
      ],
      [
        "Ġ",
        "w"
      ],
      [
        "Ġ",
        "z"
      ],
      [
        "Ġt",
        "o"
      ],
      [
        "Ġ",
        "j"
      ],
      [
        "s",
        "t"
      ],
      [
        "Ġ",
        "c"
      ],
      [
        "Å",
        "Ľ"
      ],
      [
        "Å",
        "¼"
      ],
      [
        "d",
        "z"
      ],
      [
        "z",
        "y"
      ],
      [
        "Ġn",
        "ie"
      ],
      [
        "Ġp",
        "o"
      ],
      [
        "Ä",
        "ĩ"
      ],
      [
        "a",
        "ÅĤ"
      ],
      [
        "Ġj",
        "e"
      ],
      [
        "Ġto",
        "m"
      ],
      [
        "Ä",
        "ħ"
      ],
      [
        "i",
        "ÄĻ"
      ],
      [
        "s",
        "z"
      ],
      [
        "Ġ",
        "d"
      ],
      [
        "Ġ",
        "b"
      ],
      [
        "Ã",
        "³"
      ],
      [
        "r",
        "o"
      ],
      [
        "r",
        "a"
      ],
      [
        "e",
        "m"
      ],
      [
        "Ġ",
        "o"
      ],
      [
        "Ġ",
        "k"
      ],
      [
        "z",
        "e"
      ],
      [
        "Ġje",
        "st"
      ],
      [
        "Ġn",
        "a"
      ],
      [
        "n",
        "ie"
      ],
      [
        "a",
        "m"
      ],
      [
        "g",
        "o"
      ],
      [
        "n",
        "i"
      ],
      [
        "Å¼",
        "e"
      ],
      [
        "Ġs",
        "iÄĻ"
      ],
      [
        "Ġz",
        "a"
      ],
      [
        "o",
        "w"
      ],
      [
        "a",
        "r"
      ],
      [
        "Ġd",
        "o"
      ],
      [
        "l",
        "i"
      ],
      [
        "dz",
        "i"
      ],
      [
        "c",
        "h"
      ],
      [
        "Ġp",
        "r"
      ],
      [
        "Ġ",
        "Å¼e"
      ],
      [
        "dz",
        "ie"
      ],
      [
        "w",
        "i"
      ],
      [
        "l",
        "e"
      ],
      [
        "c",
        "i"
      ],
      [
        "a",
        "k"
      ],
      [
        "n",
        "a"
      ],
      [
        "n",
        "y"
      ],
      [
        "c",
        "z"
      ],
      [
        "Ġm",
        "o"
      ],
      [
        "k",
        "o"
      ],
      [
        "Ġ",
        "u"
      ],
      [
        "j",
        "e"
      ],
      [
        "Ġc",
        "h"
      ],
      [
        "Ġb",
        "y"
      ],
      [
        "b",
        "i"
      ],
      [
        "a",
        "Äĩ"
      ],
      [
        "Ġt",
        "e"
      ],
      [
        "w",
        "ie"
      ],
      [
        "Ġw",
        "y"
      ],
      [
        "w",
        "o"
      ],
      [
        "Ġ",
        "i"
      ],
      [
        "b",
        "y"
      ],
      [
        "m",
        "y"
      ],
      [
        "e",
        "ÅĽ"
      ],
      [
        "k",
        "a"
      ],
      [
        "ÅĤ",
        "a"
      ],
      [
        "c",
        "zy"
      ],
      [
        "Ġm",
        "i"
      ],
      [
        "ÅĤ",
        "o"
      ],
      [
        "d",
        "y"
      ],
      [
        "Ġ",
        "ro"
      ],
      [
        "Ġc",
        "o"
      ],
      [
        "Ġ",
        "g"
      ],
      [
        "Ġc",
        "zy"
      ],
      [
        "Ġw",
        "ie"
      ],
      [
        "l",
        "a"
      ],
      [
        "n",
        "e"
      ],
      [
        "s",
        "i"
      ],
      [
        "r",
        "ze"
      ],
      [
        "c",
        "e"
      ],
      [
        "Ġpr",
        "ze"
      ],
      [
        "Ġj",
        "ak"
      ],
      [
        "c",
        "ie"
      ],
      [
        "Ġs",
        "p"
      ],
      [
        "d",
        "a"
      ],
      [
        "c",
        "ze"
      ],
      [
        "l",
        "u"
      ],
      [
        "aÅĤ",
        "em"
      ],
      [
        "w",
        "a"
      ],
      [
        "Ġpr",
        "zy"
      ],
      [
        "Ġn",
        "i"
      ],
      [
        "t",
        "a"
      ],
      [
        "Ġm",
        "a"
      ],
      [
        "s",
        "zy"
      ],
      [
        "Ġk",
        "o"
      ],
      [
        "Ġm",
        "Ã³"
      ],
      [
        "j",
        "ÄĻ"
      ],
      [
        "ÅĤ",
        "em"
      ],
      [
        "Ġm",
        "ar"
      ],
      [
        "Ġo",
        "d"
      ],
      [
        "Ġt",
        "y"
      ],
      [
        "Ġ",
        "a"
      ],
      [
        "Ġc",
        "z"
      ],
      [
        "Å",
        "Ħ"
      ],
      [
        "Ġm",
        "u"
      ],
      [
        "Ġp",
        "ra"
      ],
      [
        "k",
        "i"
      ],
      [
        "r",
        "zy"
      ],
      [
        "r",
        "z"
      ],
      [
        "o",
        "st"
      ],
      [
        "k",
        "u"
      ],
      [
        "r",
        "y"
      ],
      [
        "Ġz",
        "ro"
      ],
      [
        "b",
        "ie"
      ],
      [
        "t",
        "o"
      ],
      [
        "Å",
        "º"
      ],
      [
        "t",
        "y"
      ],
      [
        "Ġmar",
        "y"
      ],
      [
        "Ġpo",
        "wie"
      ],
      [
        "j",
        "a"
      ],
      [
        "j",
        "Äħ"
      ],
      [
        "ÅĽ",
        "Äĩ"
      ],
      [
        "sz",
        "e"
      ],
      [
        "c",
        "y"
      ],
      [
        "ni",
        "a"
      ],
      [
        "ÅĤ",
        "y"
      ],
      [
        "Ġm",
        "nie"
      ],
      [
        "dzi",
        "aÅĤ"
      ],
      [
        "Å¼",
        "y"
      ],
      [
        "n",
        "o"
      ],
      [
        "Ã³",
        "w"
      ],
      [
        "Ġ",
        "ÅĽ"
      ],
      [
        "Ġjest",
        "eÅĽ"
      ],
      [
        "Ġzro",
        "bi"
      ],
      [
        "Ġ",
        "lu"
      ],
      [
        "a",
        "d"
      ],
      [
        "t",
        "e"
      ],
      [
        "r",
        "e"
      ],
      [
        "Ġp",
        "ro"
      ],
      [
        "Ġs",
        "z"
      ],
      [
        "Ġm",
        "am"
      ],
      [
        "p",
        "i"
      ],
      [
        "m",
        "i"
      ],
      [
        "Ġs",
        "t"
      ],
      [
        "Ġjest",
        "em"
      ],
      [
        "n",
        "Äħ"
      ],
      [
        "Ġm",
        "y"
      ],
      [
        "m",
        "ie"
      ],
      [
        "Ġte",
        "go"
      ],
      [
        "k",
        "ie"
      ],
      [
        "Ġw",
        "i"
      ],
      [
        "ÅĤ",
        "u"
      ],
      [
        "Ġ",
        "ra"
      ],
      [
        "Ġ",
        "go"
      ],
      [
        "b",
        "a"
      ],
      [
        "p",
        "o"
      ],
      [
        "Ġc",
        "i"
      ],
      [
        "Ġby",
        "ÅĤ"
      ],
      [
        "Ġt",
        "ak"
      ],
      [
        "Ġb",
        "ÄĻ"
      ],
      [
        "Ġw",
        "szy"
      ],
      [
        "m",
        "a"
      ],
      [
        "Ġmy",
        "ÅĽ"
      ],
      [
        "a",
        "s"
      ],
      [
        "d",
        "ÄĻ"
      ],
      [
        "Ġtom",
        "a"
      ],
      [
        "st",
        "a"
      ],
      [
        "r",
        "Ã³"
      ],
      [
        "ÅĽ",
        "my"
      ],
      [
        "u",
        "Å¼"
      ],
      [
        "Ġs",
        "am"
      ],
      [
        "Ġro",
        "z"
      ],
      [
        "Ġ",
        "dzie"
      ],
      [
        "sz",
        "ÄĻ"
      ],
      [
        "Ġd",
        "la"
      ],
      [
        "Ġs",
        "Äħ"
      ],
      [
        "Ġmo",
        "g"
      ],
      [
        "Ġpo",
        "d"
      ],
      [
        "Ġ",
        "f"
      ],
      [
        "k",
        "ÄĻ"
      ],
      [
        "r",
        "u"
      ],
      [
        "Ġmo",
        "Å¼e"
      ],
      [
        "Ġp",
        "a"
      ],
      [
        "Ġt",
        "u"
      ],
      [
        "c",
        "ÄĻ"
      ],
      [
        "p",
        "ie"
      ],
      [
        "Ġb",
        "ar"
      ],
      [
        "ÅĽ",
        "ci"
      ],
      [
        "Ġz",
        "ost"
      ],
      [
        "m",
        "u"
      ],
      [
        "ow",
        "a"
      ],
      [
        "Ã³",
        "j"
      ],
      [
        "Äħ",
        "d"
      ],
      [
        "Ġm",
        "ie"
      ],
      [
        "aÅĤ",
        "a"
      ],
      [
        "a",
        "j"
      ],
      [
        "ow",
        "i"
      ],
      [
        "dz",
        "o"
      ],
      [
        "Ġch",
        "ci"
      ],
      [
        "Ġk",
        "ie"
      ],
      [
        "Ġsp",
        "o"
      ],
      [
        "Ġp",
        "i"
      ],
      [
        "Ġo",
        "n"
      ],
      [
        "b",
        "u"
      ],
      [
        "Ġmu",
        "si"
      ],
      [
        "w",
        "y"
      ],
      [
        "Ġbar",
        "dzo"
      ],
      [
        "c",
        "u"
      ],
      [
        "by",
        "m"
      ],
      [
        "Ġpo",
        "t"
      ],
      [
        "p",
        "ra"
      ],
      [
        "Ġdo",
        "b"
      ],
      [
        "li",
        "ÅĽmy"
      ],
      [
        "e",
        "n"
      ],
      [
        "ĠmyÅĽ",
        "l"
      ],
      [
        "Ġk",
        "to"
      ],
      [
        "Ġs",
        "wo"
      ],
      [
        "ĠbÄĻ",
        "dzie"
      ],
      [
        "e",
        "k"
      ],
      [
        "Ġk",
        "a"
      ],
      [
        "Ġch",
        "ce"
      ],
      [
        "ĠmÃ³",
        "wi"
      ],
      [
        "n",
        "u"
      ],
      [
        "Ġkie",
        "dy"
      ],
      [
        "o",
        "ny"
      ],
      [
        "Ġpowie",
        "dziaÅĤ"
      ],
      [
        "Ġc",
        "iÄĻ"
      ],
      [
        "t",
        "Ã³"
      ],
      [
        "Ġz",
        "e"
      ],
      [
        "Ġz",
        "na"
      ],
      [
        "Ġpo",
        "wi"
      ],
      [
        "Ġk",
        "u"
      ],
      [
        "aÅĤ",
        "o"
      ],
      [
        "Ġty",
        "m"
      ],
      [
        "Ġwszy",
        "st"
      ],
      [
        "Ġp",
        "ie"
      ],
      [
        "ch",
        "o"
      ],
      [
        "Ġpo",
        "m"
      ],
      [
        "Ġt",
        "wo"
      ],
      [
        "i",
        "m"
      ],
      [
        "ĠÅ¼e",
        "by"
      ],
      [
        "Ġc",
        "ie"
      ],
      [
        "Ġ",
        "dzi"
      ],
      [
        "Ġzrobi",
        "Äĩ"
      ],
      [
        "Ġmog",
        "ÄĻ"
      ],
      [
        "Ġ",
        "le"
      ],
      [
        "Ġj",
        "a"
      ],
      [
        "Ġj",
        "uÅ¼"
      ],
      [
        "t",
        "u"
      ],
      [
        "Ġte",
        "n"
      ],
      [
        "Ġchci",
        "aÅĤ"
      ],
      [
        "Ġpra",
        "w"
      ],
      [
        "Ġcz",
        "as"
      ],
      [
        "Ġro",
        "bi"
      ],
      [
        "Ġk",
        "tÃ³"
      ],
      [
        "ow",
        "aÄĩ"
      ],
      [
        "w",
        "e"
      ],
      [
        "Ġz",
        "d"
      ],
      [
        "Ġch",
        "cÄĻ"
      ],
      [
        "dz",
        "e"
      ],
      [
        "g",
        "l"
      ],
      [
        "si",
        "Äħ"
      ],
      [
        "Ġsam",
        "o"
      ],
      [
        "am",
        "i"
      ],
      [
        "Ġni",
        "g"
      ],
      [
        "Ġc",
        "ze"
      ],
      [
        "Ġg",
        "dzie"
      ],
      [
        "ow",
        "ie"
      ],
      [
        "ra",
        "z"
      ],
      [
        "g",
        "a"
      ],
      [
        "dzie",
        "Äĩ"
      ],
      [
        "Ġnig",
        "dy"
      ],
      [
        "g",
        "ÅĤ"
      ],
      [
        "n",
        "ÄĻ"
      ],
      [
        "Ġp",
        "e"
      ],
      [
        "Ġw",
        "iÄĻ"
      ],
      [
        "Ġlu",
        "bi"
      ],
      [
        "Ġza",
        "p"
      ],
      [
        "d",
        "ÅĤ"
      ],
      [
        "o",
        "r"
      ],
      [
        "ÅĽ",
        "li"
      ],
      [
        "Ġby",
        "ÅĤo"
      ],
      [
        "czy",
        "Äĩ"
      ],
      [
        "Ġw",
        "o"
      ],
      [
        "cze",
        "go"
      ],
      [
        "ow",
        "aÅĤ"
      ],
      [
        "cz",
        "ÄĻ"
      ],
      [
        "Ġby",
        "Äĩ"
      ],
      [
        "Ġdo",
        "mu"
      ],
      [
        "ost",
        "o"
      ],
      [
        "Ġb",
        "osto"
      ],
      [
        "e",
        "j"
      ],
      [
        "em",
        "y"
      ],
      [
        "ĠmÃ³",
        "j"
      ],
      [
        "Ġmo",
        "je"
      ],
      [
        "Ġwie",
        "m"
      ],
      [
        "Ġpot",
        "rze"
      ],
      [
        "Ġo",
        "b"
      ],
      [
        "ÅĤ",
        "am"
      ],
      [
        "Ġt",
        "am"
      ],
      [
        "ow",
        "y"
      ],
      [
        "em",
        "u"
      ],
      [
        "Ġi",
        "n"
      ],
      [
        "l",
        "o"
      ],
      [
        "Ġt",
        "rzy"
      ],
      [
        "pra",
        "w"
      ],
      [
        "o",
        "b"
      ],
      [
        "c",
        "a"
      ],
      [
        "ÅĽ",
        "cie"
      ],
      [
        "ÅĽ",
        "nie"
      ],
      [
        "Ġco",
        "ÅĽ"
      ],
      [
        "e",
        "z"
      ],
      [
        "b",
        "iÄĻ"
      ],
      [
        "o",
        "ba"
      ],
      [
        "Ġo",
        "na"
      ],
      [
        "l",
        "ko"
      ],
      [
        "ÅĤ",
        "eÅĽ"
      ],
      [
        "ra",
        "n"
      ],
      [
        "Ġdla",
        "czego"
      ],
      [
        "ni",
        "u"
      ],
      [
        "nie",
        "n"
      ],
      [
        "Ġma",
        "sz"
      ],
      [
        "Ġch",
        "o"
      ],
      [
        "d",
        "Åº"
      ],
      [
        "kie",
        "m"
      ],
      [
        "sz",
        "cze"
      ],
      [
        "Ġt",
        "a"
      ],
      [
        "Ġ",
        "h"
      ],
      [
        "Ġpowi",
        "nien"
      ],
      [
        "w",
        "Ã³j"
      ],
      [
        "Ġpo",
        "z"
      ],
      [
        "Ġtom",
        "owi"
      ],
      [
        "r",
        "ÄĻ"
      ],
      [
        "Ġty",
        "lko"
      ],
      [
        "Ġ",
        "Å¼"
      ],
      [
        "ĠmÃ³",
        "gÅĤ"
      ],
      [
        "Ġs",
        "ta"
      ],
      [
        "Ġna",
        "praw"
      ],
      [
        "Ġn",
        "o"
      ],
      [
        "Ġ",
        "la"
      ],
      [
        "n",
        "iÄĻ"
      ],
      [
        "s",
        "a"
      ],
      [
        "ma",
        "wi"
      ],
      [
        "Ġje",
        "go"
      ],
      [
        "Ġprze",
        "z"
      ],
      [
        "Ġnapraw",
        "dÄĻ"
      ],
      [
        "Ġje",
        "szcze"
      ],
      [
        "cz",
        "o"
      ],
      [
        "st",
        "o"
      ],
      [
        "Ġwy",
        "gl"
      ],
      [
        "aÅĤ",
        "y"
      ],
      [
        "Ġ",
        "Å¼y"
      ],
      [
        "ny",
        "m"
      ],
      [
        "Ġz",
        "am"
      ],
      [
        "ne",
        "go"
      ],
      [
        "Ġpro",
        "szÄĻ"
      ],
      [
        "ĠmyÅĽl",
        "ÄĻ"
      ],
      [
        "Ġf",
        "ran"
      ],
      [
        "Ġku",
        "pi"
      ],
      [
        "p",
        "u"
      ],
      [
        "Ġswo",
        "je"
      ],
      [
        "Äħ",
        "da"
      ],
      [
        "Ġwszyst",
        "ko"
      ],
      [
        "Ġs",
        "o"
      ],
      [
        "Ġb",
        "o"
      ],
      [
        "Ġchce",
        "sz"
      ],
      [
        "Ġk",
        "siÄħ"
      ],
      [
        "Ġte",
        "raz"
      ],
      [
        "ta",
        "j"
      ],
      [
        "ĠmoÅ¼e",
        "sz"
      ],
      [
        "aÅĤ",
        "eÅĽ"
      ],
      [
        "wa",
        "Å¼"
      ],
      [
        "d",
        "u"
      ],
      [
        "Ã³",
        "d"
      ],
      [
        "sze",
        "dÅĤ"
      ],
      [
        "s",
        "cy"
      ],
      [
        "Ã³",
        "ÅĤ"
      ],
      [
        "dzi",
        "aÅĤem"
      ],
      [
        "Ġfran",
        "cu"
      ],
      [
        "Ġb",
        "i"
      ],
      [
        "Ġna",
        "j"
      ],
      [
        "Ġfrancu",
        "s"
      ],
      [
        "Ġni",
        "c"
      ],
      [
        "j",
        "i"
      ],
      [
        "Ġza",
        "w"
      ],
      [
        "Ġs",
        "ko"
      ],
      [
        "p",
        "e"
      ],
      [
        "Ġ",
        "li"
      ],
      [
        "ra",
        "j"
      ],
      [
        "Ġpotrze",
        "bu"
      ],
      [
        "i",
        "l"
      ],
      [
        "Ġa",
        "le"
      ],
      [
        "Ġmo",
        "Å¼"
      ],
      [
        "l",
        "em"
      ],
      [
        "Ġpom",
        "o"
      ],
      [
        "ci",
        "Äħ"
      ],
      [
        "w",
        "aÄĩ"
      ],
      [
        "ci",
        "a"
      ],
      [
        "Ġlu",
        "biÄĻ"
      ],
      [
        "Ġg",
        "ra"
      ],
      [
        "Ġzost",
        "a"
      ],
      [
        "Ġna",
        "u"
      ],
      [
        "Ġz",
        "n"
      ],
      [
        "Ġwszy",
        "scy"
      ],
      [
        "Ġmu",
        "szÄĻ"
      ],
      [
        "Ġdob",
        "rze"
      ],
      [
        "p",
        "ro"
      ],
      [
        "dzi",
        "Äĩ"
      ],
      [
        "dz",
        "ÄĻ"
      ],
      [
        "Ġb",
        "ez"
      ],
      [
        "Ġso",
        "bie"
      ],
      [
        "Ġd",
        "uÅ¼"
      ],
      [
        "k",
        "t"
      ],
      [
        "ĠksiÄħ",
        "Å¼"
      ],
      [
        "Ġzaw",
[...]
